1111111101001000
1111110111111101
1111111110000110
1111110111001010
0000001010010100
1111110101011001
1111110101100011
1111111010010100
1111111110110111
1111111111011001
0000001000011001
0000000001110000
0000001101111000
0000000000010110
1111111011100001
0000000100100000
0000000011111100
1111110110000011
0000000110000010
0000000100111100
1111110111001100
1111111100011010
0000000000000000
0000000010100100
0000000101000110
1111111010000110
1111111000111110
1111111100010101
0000000011111111
1111111010011101
0000001001010000
1111111000100100
0000000000101110
1111111011100111
1111111111100001
0000001011010110
0000000010111001
0000011000100010
0000010101011000
0000011111101011
0000000111001111
0000010110110111
1111111011111100
1111011001100010
1110100001001111
1111100001110111
0000010010000100
0000101001111001
0000100001011111
0000001101100011
1111101101100011
1111110111101001
1111111001000100
0000001010100110
1111111100001001
1111111111001000
1111111010100110
0000001010101100
0000000101000001
1111100000101110
1111011000001110
0000010100000000
0000001011100100
0000101011100111
0000111111000110
0000100100010111
0000101000110001
0000001101101111
0000011110010100
0000110010110000
0000100110000110
0000011110010111
0000101010101111
0000101000000101
0001000011101010
0001100010001001
0001110011011110
0001001110011000
0001001111111100
1111101001100110
1111010010110100
1110111111010001
0000001001010111
1111111011011010
1111111110100100
0000000100000111
1111100000000011
1111011101010101
1111101101111100
0000011000111000
0001000001110111
0000110000111101
0000100110110011
0000111011011010
0000011111101011
0000011111000001
1111110101011010
1111100100111010
0000000001111100
1111100111001000
1111101010110101
1111110001100111
0000011101111111
0000100101000010
0000110111000111
0000111111111001
0001010110011000
0001101001100011
0000110111011111
1111111110101010
0000000100100101
0000000011011111
1111111111000011
1111110111101111
1111100110101111
1111010100000011
0000001101110100
1111011100110010
1111011100100110
1111100101110011
1111010000100111
1111111000111100
1111011011000011
1111100010101110
1111101000010011
1111100101111100
1111110110100001
1111101110000010
1111110011010111
1111111111100001
1111111001001010
1111110001000001
1111110101001001
1111111100101011
0000000000011001
0000010100011011
0000101100111010
0000001001010101
0000000100111100
0000110011111000
0000000001111001
1111111101100011
0000001110110011
1110110010001000
1111110010010101
1111000010110110
1111000000100000
1111101100001101
1111111100100110
1111111110011000
1111100111011100
1111101111111001
1111111101011111
1111100100110000
0000000000111111
1111011011111101
1111110101111110
0000000011011100
1111110011111011
1111111111111100
0000001101000111
1111111011101111
1111110110110100
1111111010110001
0000001001111111
0000100101110100
0000010000110101
0000010110011000
0000000101001001
0000000001010100
1111111000101010
1110100001100000
1111101101100010
1111110010000110
1111010100011001
0000001000010010
1111110011110011
1111110000000101
1111100111111011
1111100111101010
1111110111101001
1111100010100001
1111110000100101
1111111100010011
1111100010001011
1111111101001100
1111011110110111
0000000101101100
1111111000001110
1111110010010010
0000000001110001
0000101100010101
0001000111100111
0000110001110111
0000000001011011
0000000101010101
0000000111100000
1111011100110111
1111011111110011
1110100111011110
1111001001000000
1111111101111000
1111100000001100
1111111011101000
0000010001010111
1111111010110111
1111111111111110
1111101101011000
1111101001001100
1111100111110011
1111110101001001
1111111000110101
1111110010001000
1111111000111111
1111110011000110
1111111010000010
1111101110100110
0000000101000101
0000000010000000
0000001011011101
0000110011010101
0000000000000101
1111100001001111
0000001101100010
1111110101000011
1111001010011011
1111011110010110
1110010001110110
1111001110010001
0000000001000101
0000000000100111
1111101010000101
0000001011001011
0000010010011000
1111111110111100
1111111010110101
1111110110010111
1111101111101000
1111101111111101
1111110101000111
1111101001101110
1111011101010001
1111100101000101
1111101001011011
1111101001001100
1111110101001101
0000000101001101
0000000000001010
0000110111101010
0001000101000010
1111111101101101
0001000011111011
1111111111001111
1110111111100111
1111001010110000
1110000000111000
1111010000001100
1111100101110110
0000000111111001
0000000011011110
1111111110001010
0000001101010111
0000010000110001
0000001001001110
1111101011110001
1111011100000010
1111001000101000
1111011101011001
1111110001010011
1111101110010000
1111101101110110
1111111100011101
1111111000100000
0000001001110010
1111111010011111
0000010010101110
0000110011110000
0000111001000010
1111100000111100
1111110011110001
1111110001111000
1111010100011001
1110100110110111
1110000001010000
1111101001110111
1111011101010100
0000001011101110
0000010100010110
0000010011011000
0000010101110011
0000011101000011
0000011001101011
0000011110101010
1111011010110100
1110010010110001
1110111110111001
1111010100000101
1111011111101101
1111101101000000
1111111100100101
1111110011001010
0000000001111000
0000000110010100
0000001011001001
0000010000000101
0000110000011110
1111101110010110
1111100000101110
1111111000110011
1110111001010110
1111010011001001
1110000001111110
1110111111100001
0000010100010100
0000100010000110
0000010011000101
0000011110000011
0000100111000110
0000100101101111
0000100110010010
0000110101000101
0000100000101010
1111101010010100
1111010110001001
1111101000101101
1111101011101010
1111101011001110
1111110010000100
1111110001110011
1111101010101110
1111101011010101
1111111100100010
0000000100000111
0000101001000101
0000100101101100
0000000101011100
1111111011110110
1111101100111100
1111011100100101
1110001101100111
1110110010101100
1111110101011001
0000100110101010
0000100100001110
0000010000111011
0000011011100100
0000010001111001
0000110000111111
0000100001111110
0001000101100110
1111110010101001
1111111100111001
0000010101001101
0000000010000000
1111111101100110
1111110010110110
0000000100011010
0000001111100101
1111111010111110
0000010001001010
0000100011000010
1111010101010101
1110111000001111
1110110011011010
0000000001111110
1111101110011111
1111010100011011
1110011111000011
1111001011100100
1111111011111101
0000001101101001
0000001101101110
0000010101001001
0000010110100011
0000011110100010
0000101011001001
0000011111110000
0000101011101111
0000001010011000
0000011101110001
0000010001111010
0000011000001010
0000011011011000
0000000010101110
0000000101010111
0000010010100110
0000010101111010
1111101001110101
1111110010010000
1110110000100111
1110001001101101
1111100111100011
0000000100001100
1111110110011110
0000000110001010
1111010101111001
0000100011001110
0000000011110011
0000001101001011
0000000111100011
0000001011000101
0000001111110110
0000000111100111
0000110110000111
0000010111011110
0000011010000011
0000011111100000
0000010000010011
0000010011010101
0000011100000001
1111110110111011
0000010000000000
1111111001100110
1111111100010010
1111111000100001
1111110000011101
1111110010101010
1111000110000110
1110000010010000
1111100100100101
1111110100101011
0000000110000111
0000011001001011
0000000011011100
0000011100011010
1111111111111000
0000001111010001
0000100011110100
0000000010111010
0000000001000101
0000000111011101
0000011010111110
0000100100110001
0000011000010100
0000010101011101
0000001011100001
0000010011101100
0000001101010100
1111110110010100
1111111010111100
1111101011001001
1111100001010011
1111110101110001
0000010110001100
1111011110101010
1111001100110110
1110011000001011
0000001011101100
1111111100110000
0000000001111011
1111011011100101
1111110011111000
1111001100001111
1111100000000001
0000000000110011
0000011101101111
0000010001011101
0000001100101100
0000000000100111
0000011101000100
0000110100000011
0000001100011100
0000001001101010
0000011010011011
0000011111100010
0000000001110010
1111110111001001
1111101001010110
1111101011000000
1111110000010011
1111110100010010
0000010000001011
1111100100100000
1110111111010011
1101111110011111
1111100111011001
0000000101110001
1111111010011110
1111011100110001
1111000011011111
1110111100001001
1111000001001010
1111101000000011
1111111000111000
0000001010010011
0000011110111100
0000011001010011
0000100011000011
0000100011110000
0000001000001000
0000010101010100
0000000101101011
1111111010011110
1111101010110100
1111110010001010
1111101110001101
1111110111011001
1111110011011100
1111111000000010
1111101010110111
1111100001011001
1111000000010011
1110010100001001
1111011111101111
1111101100011010
0000001010100100
1111010101010001
1110011001111111
1101111011110011
1111100010011110
1111111000110001
1111101111001110
1111111000101000
0000100000011100
0000000111111100
0000010001011011
0000011111000011
0000000101111010
0000000000001011
1111110000010011
1111110101110011
1111110000101000
1111101111101001
1111111100000010
1111101101001101
1111110000101111
1111011100100111
1111101010110101
1111001111101011
1111000011110111
1111010011011110
1111100011000001
0000000001011010
1111011110011110
1110101100000100
1111001110110111
1110010010101111
0000000000011101
1111110110011111
1111101011110000
1111110101111100
1111111001000100
0000001101000111
0000000111101100
1111111011000000
1111110110001101
1111110110111101
0000000010011110
0000000011101011
0000000001100010
1111110010011110
0000000101000001
1111110111100101
1111110101100111
1111110110011001
0000010010011100
1111011011111010
1110100100000111
1111100100001011
1111101000101011
1111111011010010
1111111000011001
1111100001101000
1111000100011011
1110000101010010
1111111110010001
0000000011001101
0000000010001011
1111111101011100
1111101010101010
1111110101000110
1111101100110100
0000001000111101
0000000000010001
1111110110010100
0000010110010110
1111111011111100
1111111110111110
1111111001101110
1111111011101001
1111110001110011
0000000001100100
0000001011100010
0000000110100101
1110110110111100
1111000110100011
1110111100001001
1111100111110000
0000000101111101
0000001001110000
1111101001101100
1111011011001110
1110110000101100
1111111101011101
1111111010101011
1111111101100100
1111110000101101
0000000010000010
1111110110111001
0000000101110011
0000000111110100
0000011010010010
0000000110110010
1111111011001000
1111111100111001
0000000100111000
1111111111111101
1111110101010001
0000000010011110
1111101111011101
0000010111000010
0000010100001101
1110111101100000
1111011101011111
1110111101111100
0000000101100001
1111111100101001
0000000111011010
1111010011010100
0000100110000101
1111110011100010
1111011111101000
1111100010101110
1111110011101111
1111101010001101
1111101110101101
1111111011100111
0000000001110100
0000000010110000
0000000111101101
0000000000001111
1111111000001101
0000000101101011
1111111101101110
0000001010101000
1111110101010010
1111111101001010
0000001010111001
1111100110000110
1111101110001100
1111101110101100
0000001000111000
1111100000101010
1111111110111010
0000000110101110
0000000110100000
0000010101100110
1111111100000000
1111101100111100
1111100110011001
1111001111101111
1111100000100010
0000000110101101
1111111011110010
0000001000111011
0000000110111101
0000001111001111
0000010011101001
0000010001101010
0000010110001111
0000011100000000
0000001011111111
0000001101101101
1111111000010100
0000000010100111
0000000101000100
1111100001010000
0000100010101100
1111111111010000
0000000011001000
1111010110110100
0000000001100100
0000000010111100
1111111001101110
1111111011010011
1111010011001101
1111010100000010
1110111101101010
1111001010101110
1111011101100101
1111111111011110
0000000010110100
1111110100001000
0000010011010111
1111111100010100
1111111111110010
1111111000110001
1111111011111011
0000010111010110
1111111111100100
0000100011110010
0000110110111101
0000101100111110
0000010101010110
0000011100001101
0000110100000010
1111001111100011
1111100111100010
1111010000001110
0000000010010001
1111111010110001
1111111010100010
0000010101000001
0000001000000000
0000011110111011
1111110110011101
1111110100001011
0000000000111100
1111001110101101
1111001000011101
1111101010101101
1111010010111001
1111010001010001
1111011011110110
1111101100101000
1111111001011011
1111110011110111
0000000101010110
0000001111111110
1111111000010110
0000101110101001
0000001100100111
0000111110010001
0001011110100100
1111110100100010
1111111101011001
1111010111110100
1111111010110110
1111111010011100
0000000110001101
1111111111000011
0000011010000011
0001000111011001
1111100011110011
1111010001001001
1111011110000101
1111110110001110
1111010100001111
1111011001101000
1111011001010110
1111111100010000
1111101000010101
1111101000001111
1111101010111011
1111001010100001
1111100011101011
1111101101100100
1111100011011001
0000000000010101
1111011011111000
1111000001000000
0000011110101011
1111111010010001
1111111001001000
1111111111011000
0000000100000000
0000000010010010
0000001000000011
0000000111111010
1111111000111011
1111111000111011
0000000111011111
1111101000010000
1111100001001100
1110111010111011
1111011011111011
1111000110011101
1111110100011000
1111111101001010
1110101010101011
1111011111111010
1111111110111011
0000000111010110
1111000101011100
1111011011111011
1111010110101011
1111001011011101
1111001101011100
1111001111010101
1111111111110100
1111110110110010
0000000000111011
1111111000000011
1111111010110110
