0000001000011010
0000000000100011
1111111010000110
1111111110111000
0000000011010001
0000000100110011
0000000100010100
0000001000110100
1111111110010001
1111110101010100
1111111101011010
0000000010101000
0000100111001001
0000100101100001
1111111010100111
1111111000001001
1111110111100001
0000000111111011
0000001011000011
0000000101110011
1111111000001010
0000000010011100
0000000001001111
0000000100000110
0000000010010110
0000001001001100
0000001001110010
1111111000110001
1111111110001000
1111111101000101
1111111100101101
0000000111101001
0000000101011001
0000000011101110
0000110111010110
0000111110101111
0000011110100011
1111101111101110
0000101001100110
0000111001101010
0000111100110100
0000111001000111
0000101000100100
0000100010010001
1111100111001011
0000000011000011
0000111101111001
0001100110100000
0001010011100100
0000110111111100
0000110000010111
0000100001110001
1111111010101100
1111110110100110
1111111011011100
1111111111100100
0000000000110000
0000001001001001
0000010100110110
0000000100110111
0000110001001100
0000101011111111
0000110101000010
0000110011111001
1111100100011110
1111010001001111
0000000101011111
0000011010001011
0000111110010111
0000110101110100
0000100011110010
0000110110011100
0000100001010010
0000011110101010
0000110100100010
0001100101101010
0001010110101101
0000110111010100
0001011100101000
0000100110111001
1111110101101111
0000011101011000
0000000001110001
1111111100000110
1111111011000001
1111111011110100
0000100101000110
0000110000001001
0000011100011111
0000010100000010
0000110100100111
0001010001110101
1111001100111110
1110111000110110
1111101110101101
1111100101000100
1111011100011010
1111111101100101
1111110100110100
1111110110011001
1111110110101110
0000001011100111
0000001101010100
0000011111111001
1111111110010011
0000001010001101
0000011100111100
0000101010100111
0001000100111101
0000000001010000
0000010000101110
0000000100011010
1111111110111110
1111111101100000
0000011100101100
0000100001001101
1111011111001000
1111110001111011
1111111100110011
1111111010101111
1110110111000101
1111010101110010
1111110011101110
1111011000101010
1111110001101000
1111110101101101
1111110010111100
1111110011111001
1111110110010110
0000000100111001
0000000100101000
0000001000100100
0000000100000000
0000010000100000
0000000110101111
0000011101110001
0000001111111000
1111110110010001
1111101111001000
0000001000001101
1111110111000010
0000000101100111
0001000011000111
0000011010001100
1111000010101101
1110110111101110
1111001111100001
1111101001101000
1111011101110011
1111101001010110
1111111000101000
1111100101001001
1111100110111000
1111101101101100
1111110011001101
1111111001010110
1111111001101100
1111110111111000
0000001000100110
0000000011101110
0000010100111011
0000010110000110
0000010111111010
0000001101100101
0000001101011110
1111100000011001
0000011001011100
0000100100000111
1111111100010011
1111110101111000
0000001000100100
1111111001010001
1111001111000001
1111010000101110
1111010001100011
1111101001101101
1111100000000010
1111100101010101
1111101110010001
0000000001110110
1111110101110001
1111101001110010
0000000000100010
1111110001110000
1111110011001000
1111111101101001
0000001001111110
0000000101111110
0000010101011110
1111110110000100
1111111100100101
0000011100010000
0000100001000110
0000101001000010
0000010001010001
0000111010011010
1111110100111001
0000000011011111
1111111110010000
1111101010001100
1110101100010011
1111000110011010
1111011101001100
0000000010101011
1111110000000111
1111111100110000
1111111000101100
1111111001000010
1111111110000101
1111101111010100
1111111111010000
1111110101100010
0000000010101110
0000000010111010
0000000010100101
0000010000001011
0000001101110100
0000100100110010
0000001011000111
0000100000111011
0000010110011010
0000010101100001
1111110000110010
0000100010100110
1111110111010101
1111111110000110
1111010100101010
1111000000000101
1110101011010100
1110100111110000
1111011010000111
1111111010001011
1111110100000111
1111101111000010
1111110011111000
1111111111100101
1111110110100110
1111111111010101
1111111011111010
1111110101001000
1111110001111111
0000000101000000
1111110101100011
0000001000110010
0000011100000000
0000100001100000
0000011101001010
0000111100010111
0001001101100111
0001001000000010
0000011100001100
1111111010011100
1111111100001011
0000011010110111
1111001110011000
1110111111010010
1110110000100001
1110110011000010
1111100011111111
0000001001001100
1111111101011111
1111111110010000
1111110111010000
0000000011010010
1111111110101001
1111111000010100
1111101101110100
1111011101001011
1111001100011111
1111011000101110
1111011000001101
1111100011111010
0000001111100011
0000110100100011
0001001001110001
0001011110101010
0010110111011100
0011001000010011
0001110101011011
0001001000100011
1111111100100101
1111110000110100
1111001110000011
1110100101101000
1111000001111000
1111000001000100
1111011100011100
1111111100000100
0000010101111010
0000010101101011
0000010010000000
0000010000001101
0000000010111101
0000000101101110
1111110110110110
1111100110100001
1111011000011000
1111010010000101
1110101001000101
1101111110100010
1101011000110000
1110001001010000
1111000011010011
1111001010011101
1111010010111000
0000010010110101
0001100011001111
0000110111101100
0000001010110000
1111100101100010
1111011011000001
1110100111011011
1110111111110011
1111010100010101
1111101000000010
0000000000101000
1111111100110100
0000001001111100
0000000000100010
0000000001111100
0000000111101000
0000010101101000
0000011010100101
0000000110100011
1111110110111110
1111100101101011
1111100110011101
1111001010110000
1101010001110111
1100000000101000
1011101110000111
1100110001101001
1100101111011001
1110110010110001
0000000100010111
0000000010111111
1111110111000000
1111100101111100
1111100011101001
1111100100010111
1111010010110000
1111011111101110
0000000111011000
0000001101101001
0000001000011010
1111111010000011
0000000101111101
0000000111101111
1111111101001101
0000001100101000
0000011111100010
1111111010010011
1111110010101011
1111111001111000
0000001010000110
0000000001000100
0000100110001111
1111110100100100
1110011010101010
1101001101100011
1101100111000011
1110110101100000
1111000011000101
1111100100110010
0000010010000010
1111110001010100
0000000011110010
0000010110101010
0000010011110100
1111111100100001
0000010000011100
0000000001111100
0000000000001111
1111111111011100
1111111110001110
0000001010000001
0000000000110110
0000001001000101
0000100011110100
1111111101000000
1111111111110001
1111110100010001
1111110010010000
0000010011001010
0000001111101000
0000011110010001
0000000000110001
1111000100000101
1110000100000110
1101111100001111
1110011010111100
1111100110000010
0000110001000000
0000000101110110
0000001110001101
0000100100000111
1111101100000010
1111110000110010
0000001011011011
1111111110000010
0000000100100110
0000000001111111
0000001010111101
1111110101101000
1111111111011001
0000010101101100
0000010001111111
0000000110100111
0000000100111010
1111100100110100
1111111100011001
1111110111111010
0000001011010101
1111111010000000
0000010110101101
1111101101111011
1111010001101100
1110010100011001
1110101111110100
1111110011010010
0000011011100101
0000000100010101
0000100000100110
1111101010111011
1110110000001110
1111000010111011
1111110111010011
1111110001011010
1111111101000010
0000001110010100
1111111110100011
1111101111000000
0000000010111100
0000001001101000
0000011100001010
0000000001001100
1111110011111110
1111110100100011
0000010011001001
0000000100111110
0000000011000010
0000000010111010
0000000001011011
1111111001001011
1111101011111001
1110100011010111
1111001001111111
1111111011101111
1111111110010101
0000100000101101
0000100001110011
1111101100010011
1111010110101111
1111100000010100
1111011100010101
1111101101000011
1111101000010110
1111111010001011
1111110010111100
0000000011111010
1111101110101111
0000001100010101
0000100000011011
0000000000100100
1111101010011001
1111111101100001
1111110000101110
1111111010000000
0000000101010010
1111111000110000
0000010001101011
1111111011001010
1111101100100110
1101100000001101
1110100000011001
1111101010101110
1111111010011000
0000011100100000
1111111010001111
1111110000111011
1111101101010100
1111110011001101
0000000110000001
0000000001110100
1111110001100000
1111110111100101
0000010111011110
0000000100100101
1111110101001001
1111111101110101
0000000111100010
1111110100101001
1111101001111010
1111110100000101
0000000000010100
0000000100001111
0000010001111101
0000010111000001
0000010111011000
0000001010101101
1111101101111110
1101000010001010
1111010001101001
1111100111111101
0000100000011010
0000001110011000
1111101001010011
0000000000001000
0000000110111100
1111110001111110
0000001111100111
0000000011000001
1111101110110101
1111111101101010
1111111100010110
0000001101001101
0000000010111111
0000000100101010
0000000110001011
0000000001110000
1111110101001011
0000001100000000
0000000011100000
0000000011110111
0000000011010101
1111111000111010
1111110010110100
1111101110111011
1111011001101001
1110001101000010
1111000110110011
0000010000100110
0000011110011000
0000010111101001
1111101001001101
1111000111000011
0000010000111011
1111101001000101
0000000011100010
1111101111111100
0000001010001001
0000000100111000
0000000011110010
0000010101101001
0000010111101101
0000100001010101
0000000110001011
0000000000001111
0000000010011100
1111111010000000
0000000010101110
1111111000011001
1111111011000110
1111110101100110
0000000001000101
0000010000101010
1111111111100010
1111010001101110
1111011000110100
0000100111111100
0000000100101010
1111110110110110
1111100100010110
1111000011100101
1111111110110011
1111110011010011
0000000010010110
1111111000111000
0000000100010011
0000001001011000
0000010011011110
0000010010111101
0000001100001001
0000000000011010
0000001000011001
0000000001010011
1111110100100111
1111111101001011
0000000000010001
0000000101011111
1111111000100000
0000000100110111
0000001000000111
0000001010011010
1111010111010011
1110111110000110
0000000110110000
0000011011011010
0000100100000111
0000001101110001
1111111000000000
1111110011111101
1111111111011000
1111110101111110
1111110111101111
0000001010010011
0000000110010010
0000000010111101
0000000111110011
0000000111010000
0000001011110000
0000001110000110
0000001101110001
0000001010011011
0000000111001100
0000001010000001
1111110100111001
1111101111110111
0000001100101100
0000000000100011
0000011110001111
0000000001011100
1111011100010110
1110111111010100
0000010100011000
0000000010100100
0000011000001100
0000011000000110
1111111101110100
1111011010001100
1111110101011100
1111111101111001
1111101101100110
1111101111011000
1111111100111010
0000000100011001
1111111111101010
1111110111110001
1111110110000110
1111111000001111
0000001010110011
0000001001110101
0000000110101100
0000000101111010
0000010010011101
0000001001110001
0000001101110000
1111110010001011
0000001010100101
0000000110011011
1111101110111011
1111101101000110
0000110100110110
1111111101011100
1111111101000100
0000000111100010
1111110001010011
1111000010100001
1111110010000111
0000101001110010
0000100010001010
0000000000000100
0000010110101010
0000000100111001
0000000111101111
0000000110110010
0000001101001001
0000000101011011
0000000010100011
0000001011001110
0000011011011101
0000001010111011
1111111001001001
0000000011100000
0000010001100101
1111100010100111
0000010011000101
0000011100110011
1110111101010111
1111111100010010
0000111101110010
1111111111011111
1111111100101101
0000000010111000
1111111101101100
1111010010010110
1111011110000010
0000000010010111
0000000100001011
1111101011100101
1111100001001011
0000010010111000
1111110000011100
1111110011001100
0000000010001010
1111111000111000
1111111010100111
0000000000111000
1111111001110100
1111111000111010
0000010011000100
1111111110000100
0000000001010000
1111011000111011
1111111000011001
1111101010001000
1111100000001111
0000011011010101
0000100101111001
0000000110110110
1111110101000010
0000000101101100
1111111100100001
1111100110110100
1111001101000010
1110101001101011
1111000101000000
1111101101110101
1111001000001001
1111011011100010
1111100011000011
1111110010101110
0000001000000100
1111111010011101
1111101011110001
1111101101010000
1111100001110011
0000000100111011
0000001100010111
1111110110100110
1111101010100111
0000001011101001
0000010011000101
1111101001000000
1111011110011010
0000001000100111
1111111110001010
1111111011011011
0000000100011001
0000000010101010
0000000101100111
0000001000101001
1111100111110110
1111100010010100
1111011100110101
1111101000100001
1111011111001011
0000000111011101
1111100110111001
1111101011000101
0000000000100101
1111111010000010
1111101001001101
1111100111101010
0000000110010100
0000011010010101
1111111011110001
1111110001100111
0000011010001100
0000011010101100
0000010010000101
0000010010111010
0000000000010101
1111111010000100
1111110101011101
0000000001010110
0000001010100000
0000000001110011
1111110111111000
0000000011110001
0000000100100000
1111111101010111
0000000011001001
0000000010100000
0000000111110001
1111111101111100
0000001100111001
1111111110100011
0000000000100111
0000000010110001
1111110101010011
0000001000111110
0000000010010110
1111110111001101
1111110111001000
0000000001011011
1111010010001001
1111100111111000
1111011001000001
0000000011100100
1111110111111001
1111110111000101
1111111001101001
1111111111010001
