0000000000001011
0000000111100100
1111111100101001
1111111100001001
1111111110011110
1111111001110111
0000001001110010
1111110111010001
1111110110010010
0000000101100111
0000000010100110
1111111010101011
1111111001101100
1111111000100110
0000000000000011
1111111110100110
0000000110011001
1111110110101100
0000001010110000
1111111001111010
1111111011011011
1111111011010111
1111110111101110
0000000100000100
1111110110001011
0000000010111001
0000000011100100
1111111101001100
0000000111000110
1111111001001110
1111111010000000
0000000111001001
0000000110111110
0000001000111110
1111111011011011
1111110010000100
1111110100111111
1111110100101001
1111111000010000
1111111011100110
1111111110010010
1111110001011110
0000000100010101
1111111011000001
0000000010101101
0000000010011101
1111111001100110
0000001000110101
1111111011001111
1111110110101011
1111110101100111
1111111001011010
0000000000000110
1111111110001101
1111110110000100
1111111000000010
1111111100010000
1111111111111000
0000000101000001
0000000000101111
1111111100100000
0000000101011110
1111110100101001
1111111000010011
1111011111001101
1111000111000011
1110111111110101
1111101110110100
1111001100010111
1111010001100100
1111001100101110
1111100101110000
1111010111101101
1111101010010000
1111111110010010
0000001011110001
0000001101010101
1111110100001110
0000000001101011
0000000000100101
1111111010110111
1111110101110011
1111111101101101
0000000010011100
1111111010100101
1111111101001111
1111111010000001
0000001000110111
0000101111101010
0001000100111010
0000110000000001
1111110011111101
1111101011011101
1111101010000000
1111101110001010
1111111101101100
0000000000000001
1111100011111011
1111110100010100
1111110011110111
1111110111111011
1111101011110010
0000000000100111
0000000000111110
0000000011111010
1111100000101110
1111010111110100
1110101100100001
1110111110101110
1111101010100000
0000001010010001
0000000100011010
0000000010111110
0000100100010011
0000011100011001
0000101001011000
0000110100110111
0000101111100111
0000110101010101
0001000011100011
0000001100011101
1111111010110100
1111111100010000
0000010101000001
0000001111100110
0000000011100001
0000000101001010
0000010000101010
1111111000101100
1111111001010110
0000001011100100
0000011101000101
1111101101111111
1111111011011000
1111111100110000
1111100101010000
0000000000110101
0001010011001100
0000110010000011
1111111001000111
1111111000010111
1111110111010111
0000011101110000
0000110000010000
0000011110001000
1111111100100110
0000000110001000
1111111011100010
0000010110011000
0000000011001011
0000001101110111
0000011000011101
0000001000011001
1111111110110111
1111110011101010
1111111011000101
0000000101000001
1111111010101100
1111111000011101
0000000000110101
0000000001111011
1111111011101100
0000001011010111
0000100010111110
0000100111110110
0000011101101000
1111111110010011
1111111001011100
1111111100000100
0000101010110110
0000001100100100
1111111000101110
0000011111110101
0000000011001101
1111110111100110
1111111001001101
0000001110000101
0000000100001000
1111111110010110
0000000001101101
0000000001100011
0000001101110010
0000000101001110
1111111100000011
0000010000000111
0000000110100100
1111111010111000
0000000111000100
0000001100101111
0000000111110010
0000010111111010
0000001101101101
0000110001110101
0000010111011110
0000001001101110
0000111011111011
1111111000010100
0001011001100101
0000001011001111
1111101000101010
0000001100011000
0000011010100100
1111111101100101
1111110011001011
0000001000011100
1111101100010010
1111111001001100
1111111101100000
0000001001100111
0000001101000101
0000010100010010
0000010011000110
0000001101001100
0000000110110000
1111111110010010
0000001101100011
1111111110111011
1111111011101011
0000000101010110
1111101111101011
0000010001100011
0000101101000000
1111101111011110
0000101001011110
1111111001111000
1111100110110100
1111001100001101
1111101001111101
0000000110111000
0000010110000011
0000000011101100
1111110000111010
0000000100110111
1111111101010111
0000001000010011
1111111110100011
1111101111111110
0000000101110011
0000000100001010
0000001001001011
0000000111110001
0000000101100101
1111111101101001
0000000001111000
0000001000011101
1111111001010000
0000001101101111
1111101100000100
0000011001000010
0001000010100001
1111110111110101
0000010000000100
1111110100010100
1111111001011001
1111100000100101
0000000011101000
0000000101010110
1111111001100010
0000001010111110
1111111111010010
1111110101101101
1111111100111010
1111111011011011
0000000011101011
0000000010110101
1111111001010101
1111111110010110
1111111001111111
1111110111100011
1111111111110000
0000000011001100
1111111011000111
1111111101111110
0000001101010110
0000010011000101
1111111110101000
0000101111100110
0001011001100011
0000011011011100
0000010101100010
1111110011100101
1111110111000110
1111011110100111
0000100110111011
0000000101001111
1111100010100110
1111101010111011
1111111101010010
0000001011101011
0000000010001101
1111111110100001
0000000100100000
1111111001011101
0000000000111000
1111101011010011
1111111000001011
1111110110011011
1111110110111001
1111110001000001
1111110101100110
1111111101001000
1111101000110011
1111111001111100
0000011000100010
0000100101100011
0001010110101100
0001011111110101
0000100011001011
0000001000010110
1111100010100101
1110111111001010
1111111100100001
1111100011000010
1111110001111110
0000000001100010
1111111111011010
0000000110111100
0000000000110010
1111111001100111
0000000011100100
0000010001011000
0000000011001111
0000000111100000
0000010011000011
0000000100011010
1111111111110110
1111111001010001
1111110110101011
1111111010101010
1111101000001110
1111010000100010
1111100111000101
1111110010100000
0001101000111011
0001001001000001
0000100101001101
0000000010010010
1111101101110011
1110101110010101
1111100100001011
1111101011010101
1111111011011000
1111111000010010
1111111011110010
0000000111001100
0000000001000111
0000001111010101
0000001100101110
0000001001010111
0000011111001011
0000010011100010
0000000101001110
0000000011000000
0000000010111110
0000001011100110
1111100110011000
0000000100101000
1111100010100100
1111101000101101
1111001110011001
1111000000001000
0000011000111101
0000000001110111
1111111011110001
1111111111111001
1111110011001011
1111001010111011
1111010100100001
0000001010011110
0000101111010000
1111111111101011
0000001001111101
0000000010101010
0000001000101010
0000001110100010
0000000101011110
0000011000110100
0000100110010000
0000001111101100
1111111011111110
0000001101111101
0000001011000010
0000001001111100
0000000111001100
0000000001001000
1111110010100111
1111110011000011
1111011101100111
1110111111001110
1110111110000000
1110111111010001
0000000100100001
0000011111001100
0000101101100100
1111110111111111
1110101011101000
1111110111111110
1111110000111010
0000010010001111
0000010111100111
0000000000100101
0000000100111010
0000000000111110
1111111110110010
0000011101010011
0000010010110010
0000001001101011
0000010000011100
0000001100000100
0000000111100101
0000000000111011
1111110100000101
1111110100000101
1111110101010101
1111101111001001
1111010101001110
1111011100000100
1110100101100001
1111001001011001
1111111000011110
0000001011000000
0000100000110000
0001000001100001
1111000111000011
1111000000101011
1111010111001100
0000001000110110
1111111101101110
0000000110000000
0000010111001101
0000010100010111
0000011001010011
0000100001101001
0000000100011010
1111111001111010
0000000000110010
0000000001011100
1111110111100100
1111111100101110
1111110110100101
1111111101011111
1111111001010100
0000000110000101
0000011011100111
1111101100000110
1110111100101011
0000011110111101
0000001111111100
0000000110111110
0000010101011011
0000001001110000
1111010100001000
1110011011001100
1110110001101011
1110110000001100
1111000001111011
1111101110011010
0000001101011000
0000011110010010
0000110011011010
0000101011101100
0000001001010110
1111111011101111
1111111010010000
1111101110011110
1111110101000010
1111110111110011
1111111100001000
0000000010000111
1111111010010110
1111110111010110
0000010010000110
1111111011100010
1110010110001101
1110111101111001
0000000100101010
0000000000010111
0000100010011010
1111111111100011
0000001110010011
1111100000000100
1110111000100000
1110011101010011
1101101110111100
1101011110001101
1101110101000110
1110111111101001
0000000101011000
0000001001101001
1111111111011111
1111100110001000
1111110101100001
1111110111101110
1111111101010000
0000000001101000
0000001001010011
0000000000100110
0000010010110111
1111111111101101
0000001011011011
1111100000110100
1110110100010111
1111010101001110
0000000110111001
1111110001111110
0000110011111101
0000000010101001
0000110111010000
0000010000000111
1111100000000011
1111110000101110
1111000000010001
1101101000111100
1011111000010010
1011001111101111
1011111001000100
1101011001111111
1110101111010001
1111010010000100
1111011101000110
0000000000000111
1111110111111111
0000000011110001
0000001111101100
0000000101111010
0000011000101000
0000001101011110
0000000111010101
1111101100101001
1111110101011101
1111111000101000
0000000100110010
1111111110011001
1111100011010001
1111111011001010
0001010111110001
0000011001011111
0000010100110111
0000100001011011
0000010111101110
0000100010000111
0000011001110001
1111110111000101
1111011011011000
1111000100001011
1111010110001011
1111011111111000
1111101000011000
1111101110100000
0000000000101011
0000010011001000
1111111010101100
0000001100100100
1111111110101001
1111111000101111
1111111001101001
1111110110011110
1111111101100001
1111111111010000
0000000000111010
1111110101011001
0001000100110010
1111110001011100
0000011001110001
0000101001011011
0000010101110011
0000100101011010
0000010011010100
0000110000111101
0000110100010000
0000111000101000
0000101110010111
1111111101000000
1111111011100000
1111110110011100
1111101111110101
1111110000010101
1111111010010111
1111111111001111
1111111000011001
0000001011011011
1111111010100101
0000001000100000
1111110101001110
1111001100100101
1111011100111110
1111111000001101
0000001100010101
0000001010010000
0001000010111010
0000000000110010
1111111010111101
0000100001100000
0000000110001001
0000010101010110
1111111001001111
0000001001010011
0000001011100111
0000000100100110
0000000010111110
0000000101011000
0000000001001011
1111110010101111
1111111001011000
1111110111010100
1111110110011100
1111110101010111
1111111010110011
0000000010110110
1111111010011111
0000001111000100
1111111001001010
1111001000101010
1111001110100000
1111100100100010
0000000101000010
0000001001101011
0000101101111111
0000000111000101
0000011101011010
0000000011000010
1111101011101000
1111101111011110
1111110110010100
1111111010001000
0000001011000010
0000001101101110
0000001111101101
0000001001000111
0000010001100011
0000000001101100
1111111101110110
1111111000101011
1111101100100000
1111101010101111
1111111101000011
0000001011011001
1111101010010110
1111111111000010
0000001001100011
1111001010000011
1111001110010000
1111110011111010
1111111001111011
0000000111001110
0000000101001010
0010011111110000
0010101001001111
0000111111101110
0000010000011010
0000000101111110
0000000001000110
0000010110101101
0000010100101010
0000100101100001
0000010011100010
0000000111001110
1111111110110001
0000000110001100
1111111100110101
0000000101000011
1111111010100011
1111110101010010
1111111110101010
1111111001011011
1111001011101110
1111001011101010
1111111000110011
0000011010101010
1111100110101101
0000100011101110
1111111101111011
1111111010001110
0000000010000000
0000000001100100
0001000101001110
0001000100110110
0000101010011000
0000100010000100
0000001010111101
0000001101111111
1111111110110101
0000010100001110
0000000011110010
0000000101110011
0000001101011100
1111111111100110
1111111101010100
0000000011011110
0000010001010000
1111110100011110
1111011101100100
0000010011101010
0000010010110111
1111111100100101
0001000001001011
0000001001100100
1111011101100110
1111101111010101
0000001010101011
1111110110001100
0000000111010010
0000110011011001
1111010001000100
0000011001000010
0000111101010111
0000010111111000
0000010100010000
0000010111010111
0000010100101110
0000011011001011
0000001001000010
0000000001100100
0000011010001000
0000000000101101
0000001001110011
1111111101110110
0000001110010000
0000010101100010
0000001011000010
0000110111000110
0000110001000100
0000101110001010
0001011100000110
0000111010000111
0000001110010100
0000000011010110
1111111011100010
0000000011100111
1111111010100111
1111111111011111
0000011010111001
0000101100100101
0000011101000101
0000000010111101
1111101110010000
1111101101100011
1111111100010111
0000000010100100
0000000010011000
0000000010110111
1111110110110010
0000001000110100
0000000110001010
0000000010010000
1111111110110010
0000000010101011
1111110110101110
0000011111111110
1111101111101010
1111001001100001
0000100101111111
1111111011110100
1111110101111011
0000000010111101
1111111001110001
0000001000000000
1111111110100110
0000000111010101
1111110111010000
1111110110101100
1111101010001001
1111101010000010
1111101111101101
1111110000100110
0000000101000011
1111110011111011
0000100001001110
0000011110100010
1111010010011001
0000001110000100
0000100011010101
1111111001001010
1111011011010010
1111001111000100
1111000100111010
1111100100000111
1111110101000001
1111100101000101
1111111000101000
0000001001010011
1111110110010000
0000001010000001
0000000001101011
