0000001010001100
0000000011111001
1111111111001110
0000000010100111
1111111010110101
1111110111001100
0000000100110010
1111111001110010
1111111111010001
0000001001001000
1111111000010010
0000001001101011
0000010100001011
0000101011000111
0000011110010101
0000100111000110
0000000101001101
0000001000000001
0000001000011111
1111111100001011
0000000101101011
1111110111101011
0000001011000111
1111110100111010
1111110111111011
1111111100111010
0000000010011010
1111111100000011
0000000011100100
1111110110111110
0000000111100010
1111111011111100
1111101110101001
0000001010111011
0000010010101111
0000100000101001
1111111101111000
1111110000000011
0000001001111100
0000101001011010
0000010001110101
1111111000010011
1111110010001001
0000100011100110
0001000000011010
0000100111010110
1111111100001011
0000100110100010
0000101000000111
0000010101110000
0000001010101110
0000010010101001
0000001010110110
0000000100100001
1111111000001110
1111111100111000
0000000001001100
0000000001010101
0000000101001010
1111110110011011
0000100000001000
0000000111110110
0000011011111101
0000100101011101
0001000101101110
0000110100010001
0000101101001011
0001001111111010
0001010000100101
0000101110101001
0000101100101101
0001010010010010
0000110001111101
0001000001101011
0001000101011010
0001000110000000
0000111101001101
0000110000101111
0000011110100001
0000100011000111
0000110110100011
0000110000011101
0000000110100101
1111111010110001
0000000101000011
1111111111000111
0000010001010111
0000100000100100
0000010011111111
0000100100000100
0000100100001001
0001000101101001
0000111110001111
0001001111100010
0000110100111101
0000110010011100
0000100111010100
0000111010011001
0000010000110011
0000010100111110
0000011010100000
0000001001100000
0000100000111110
0000100011111100
0000011001000110
0000000000101011
1111011000111011
1111000011100011
1111011001111011
0000101110000010
1111111000001111
1111111100111000
1111110110011000
1111111110001011
0000001101111100
0001001000000101
0000000110011010
0000101011100111
0000100000101111
0000001001101001
0000001001110010
0000001001001100
0000010001100010
0000001001011110
0000011011110111
0000010001001001
0000010110010111
0000010101101111
0000010001101111
0000001101100011
0000001000101000
1111110100100101
0000000111101001
1111110001101000
1110100010011110
1110010010001000
1110001100111110
1111001011110001
0000011001101100
1111110100000001
0000000100011001
0000000010100010
0000110000000110
0000101001011000
0000011010100110
1111110001010101
1111100010001101
1111111101001101
1111110111000010
1111100010011000
1111111100101110
0000000011011111
0000000110000110
0000001111001101
0000000010000001
0000000101100000
0000011010110010
0000001111101010
1111111011010111
1111111011101110
0000000101100100
0000010001100001
1111100110001010
1111010001101010
1111010111001101
1111010001000011
0000101100101100
1111111101111111
0000000011010010
0000010100001100
1111111010111101
0000001101110110
0000011010001111
1111110001111010
1111100101001001
1111110100101000
1111101101110001
1111110001100100
1111111100000111
1111111010101001
0000001001110111
1111110001000100
1111111100001010
0000000100111000
1111110101001001
1111101010010100
1111111100010100
1111111010000011
1111100111000111
1111100101001101
1111101100001110
1111101100101111
1111100100100000
1111111011111000
1111111000100010
0000110011111001
0000001100001000
0000110001110101
0000000001110010
0000000001111011
0000011101010011
1111110000010110
1111111111100110
0000000010000010
0000001001100111
1111110010111110
0000001010110110
0000000111011111
1111110100001010
0000000101111001
1111111000010110
0000000110101001
1111110111101110
1111111110001011
1111111001100101
1111110011001010
0000000000101010
1111111001010101
0000010010100111
1111101001010010
1111100111011000
1111010110011100
0000011111101110
0000101101001110
1111111110110001
0000101111101110
0000000111001101
0000001000100011
0000101010000001
1111110100011011
0000001101000000
0000001010010111
1111111010111011
1111101011001010
0000010100110001
1111111010110100
0000000001101110
0000011010100111
0000010000111101
0000001100111001
1111111001000111
0000000011101111
1111101000111100
0000010000010000
1111110100010000
1111101011100010
0000001100011011
1111101101000011
1111010111000101
1111110111011111
0001010000101100
0001000000001111
0000011000101101
0000100110111001
1111110011101100
0000011101011010
0000011011110000
0000011000011011
1111111100101001
0000001000101111
0000010001111011
0000001111001000
0000000101101001
1111111000111011
1111111010010010
1111110110100111
0000010010000010
1111111001101101
1111110110000011
1111111111100101
1111100101000010
1111110001000010
0000000000000010
1111101101001001
1111111010110101
0000000101111010
1111101111100001
0000000010000011
0000111011011011
1111000110101100
0000010010000011
0000100001110100
1111110011011011
1111111100101111
0000001111011011
0000010011011001
0000110011101010
0000101000010100
0000100000000111
0000000101110110
0000000111110000
1111111110101011
1111011111110001
1111010001110010
1111101001100111
1111011011110000
1111110001011001
1111110111001101
1111111100101101
1111110011010000
1111110110011010
1111111111110000
1111110001011010
1111110111011101
1111011101111001
1111001110000111
1111001110111100
1111011011011101
0000010011010111
0000011011010101
1111111100100011
1111100011001010
1111110110010010
0000010001110110
0000010101110100
0000011010110010
0000000000010100
1111100010011111
1111001101010101
1111011100001111
1111001000000101
1110110010001001
0000000000100100
1111100011111110
1111100110011010
1111101101110000
0000000000101010
1111111111010100
1111111111111010
0000000101001111
0000010111010010
0000101000100011
0000000010001110
1111110000100111
1111110100001010
0000000011100100
0000011001001000
0000011111000100
1111111000100000
1111010001001000
1111011001101010
1110110101111011
1110011010001010
1110101000110111
1110101111011110
1110110110100110
1111010010110000
1111001011100110
1111000000010110
1111011001001001
0000100100100100
1111110101000101
1111101010101110
1111101111001000
0000000011101010
0000001001001010
0000001110010110
0000001100000000
1111110010100100
0000000001110101
0000100110000000
0000110011110110
0000100010110001
0000010010100110
0000001110001101
0000000010111100
0000011010010001
1111110000101011
1110000101111111
1101111100110110
1100111111101010
1110000011111010
1110100111001010
1111011001101110
1111001001000111
1111011110110011
1111100001011001
0000010011111011
0000100110101011
0000000010001011
1111111001101010
1111111110100000
0000001001111010
1111111110100010
0000000110100110
1111110011110101
1111011101101111
0000000101000001
0000000100001010
0000100111000101
0001011100111110
0000100100110000
0000000010000001
1111110110010111
0000100010001110
1111101110011101
1101111000110001
1101111101011110
1110100011010011
1111010100001010
1111010011001100
1111011100010011
1111101111000001
0000000101101100
1111110010111001
0000100110011110
0000100000110001
0000000110011011
1111110101110001
1111110011100110
1111111011111011
1111111000101011
1111110111011001
1111111100100111
0000010000110101
1111111011010111
1111111011001001
0000000100001111
0010001111010101
0000110111110110
0000000111000111
0000000110111100
0000010100110001
0000011001101111
1110110011110000
0000000011110000
0000011010101101
0000010101101101
1111111100010101
1111111100110100
0000001001111110
0000000101010100
0000001101001100
0001000110011001
0000100111000010
0000000101101010
1111111010100101
1111101100011101
1111100010011101
1111110110011110
1111011101010001
0000000011011001
1111110110000010
1111101101100100
0000000111001011
0000000100001110
0001111001000100
0000111101111010
0000001011000001
0000100000010100
1111110000101001
0000001111110111
0000000001001110
0000100011010100
0000010100100011
0000000001101101
1111110000100010
1111111110101010
0000001110110101
0000011010000011
0000011110110111
0000101110001111
0000110010110010
0000000110110110
0000000111010101
1111110111000100
1111110111010000
1111100111011111
1111100010110100
0000000101010010
1111111100100001
0000011101101100
0000010111000111
0001000000111000
0001011000100111
0000110001100110
0000000010001101
0000001111010011
1111110111110000
0000010011001110
0000010001010010
0000001011000011
0000010011101010
1111111110111110
1111111100100110
0000000101110000
0000011111000111
0000010100111011
0000011101011011
0000011110010010
0000011110011011
1111111100110110
0000000000111101
1111111110010110
1111111100001000
0000000110010101
0000000110101111
1111111011011101
1111111011101111
1111111001000000
1111101110001000
0001000111010010
0001000100011001
0000111110100010
0000001000001001
0000001110111011
1111010111111011
0000001001110000
0000010001001100
0000000011110111
1111101110000010
0000001100001001
1111111011010000
0000001111100000
0000100000010100
0000011100001111
0000100110011010
0000001110001110
0000010110010110
0000001011111100
0000000110010010
0000000111001010
0000000100101011
0000000011000001
0000000111010101
1111110001010111
1111110110100101
1111111111001101
0000000100000111
0001111010011110
0001000111001001
0001000101010000
0000010111000011
0000001101001001
1111000010010110
1111010001000000
1111111100111101
1111111010100110
1111101111111101
0000000101101111
1111111100010101
0000011011001101
0000100110000101
0000001110000111
0000011000001000
0000010110100001
0000011000101111
0000010100011001
0000010110000100
0000011000001100
0000001010110001
0000000100001100
1111111010011101
0000001011000100
0000001100101100
0000010111101010
0000011010111110
0001111111110100
0010101101100100
0000111011000111
0000000111101010
1111111011111011
1111001110111011
1111111011011000
0000010000110011
1111110001010010
0000010011100010
0000011101111010
0000011100011111
0000001100010011
0000100101110100
0000100001101100
0000010001111010
0000010100100000
0000010011101110
0000000111110111
0000001110100001
1111111111111001
0000010010101000
0000001101100100
0000010011011111
0000100010001001
0000011100000011
0000101011101000
0000111110101010
0001000010010011
0001100010100101
0000010011010010
0000010101101010
0000011000100111
0000000010100000
0000001000001000
0000001000001001
1111111010101000
0000010001010100
0000011000011011
0000001001101010
0000010100010101
0000001001101110
0000010001101110
0000000000001000
0000001101001101
1111111110110001
0000000001111110
0000000100011010
0000000111001101
0000010110100010
0000010101001111
0000000100110010
1111110110010101
0000101001101000
0000101010101110
0000101010101001
0000011000010011
0000101001000010
1111111101100010
0000001000101010
0000011011100100
0000000110101101
0000001000011101
0000011010101010
0000111111110011
0000100111011010
0000100010001111
0000010011001111
0000000011100011
0000000100010110
1111111010011011
1111111010100110
1111110001010010
0000000010000010
1111111110001111
1111101101011000
1111111010001000
1111111111010000
0000001111010100
0000010111101110
0000000000000010
0000011000100010
0000011010101010
0000001101110010
1111100010110101
1111011100110111
1111111001110000
0000001010101110
1111111110011100
1111110100001001
1111100001101100
1111010011100110
1111101110100010
0000001010000000
0000010000101110
0000011010011111
0000001100110111
0000000000101111
0000001111011111
0000001101100111
0000101010101010
0000001101101100
0000100110001111
0000011101100110
0000000001100101
0000010011010010
0000100100100010
0000001010001100
0000011100101110
0000100010110011
0000010011110001
1111111110101101
1111000101011000
1111111101111000
1111111111000010
0000000100100101
0000000110100111
0000010001001110
1111000011010101
1111000010011000
1110101111100010
1111010101110000
1111010000101110
0000000001100001
1111111001110110
1111111010111001
0000000110100100
0000010101010000
1111111000001011
0000010110000100
0000010000100011
0000001100011010
1111111110000011
0000001000011010
0000001001111110
0000000101111110
1111111110101101
0000000011101111
1111111100111001
0000110010001011
0000000100111000
0000110100000000
0000000010110100
1111110111110011
1111110110101000
0000001101110101
1111011100010011
1110011110101100
1110101101001010
1111000000111101
1110111101000110
1111000111110000
1111010101001111
1111101010100010
1111101010110011
1111110111001110
1111011110111100
1111101010101001
1111110011001101
1111101100000110
1111111101000000
1111110101100111
1111111111000111
0000001010010110
1111010100001011
1111001110110010
0000000011010010
1111110000001011
1111100110001010
0000001100011001
1111110101001101
0000001000101110
1111110110010011
1111111010010000
0000000001000100
1111101011000000
1111011100100000
1111000000101011
1111110010011111
0000001100001001
0000000001110100
0000100100010111
0000001100010000
0000000101110110
0000000100000011
0000011100000001
1111110101001100
0000000101000010
0000011100001111
0000001110010011
0000001111110111
1111111101111001
1111001100111000
1111011101011011
0000011001001011
0000001011110001
1111110110110101
1111111001000000
0000000100010011
0000001001010101
0000000000011100
0000000000110111
0000001010000101
1111111010101101
1111111100000001
0000001000011011
0000010011000110
0000100100110011
0000100001011010
0000101001010011
0000010101001101
0000100110111011
0000011010011111
0000110111110110
0000110011011010
0000110100111111
0001000000010100
0001000001100010
0000011111010001
0000011011110110
1111011101101111
1111100000000000
1111111110101000
1111111110101000
1111111011010110
1111111001001111
0000000110001001
