0000000001001001
0000000001100101
0000001000101001
0000001000010110
0000001000011011
1111111001100000
1111110101101100
1111110101101100
1111110110010000
0000000000010100
1111110111100111
0000000001100000
0000000010000111
1111111101100010
0000000001110011
1111111010111110
1111110110101110
0000000011000010
0000000000111000
1111110110001011
1111111001100011
1111111110001000
1111111011000000
1111111101100011
1111111101010011
0000000110000010
0000001001100111
1111110101101011
0000000110101010
1111111000100110
1111111000011111
1111110101110101
1111110111101101
0000000011111010
1111101011001111
1111101001100010
1111110101101110
1111100010100011
1111001001000011
1110111111011100
1111001000100011
1111010011010001
1111110001100100
1111011111001011
1111011001010000
1111010110011111
1111110100111111
1111101010001000
1111010101111000
1111100011101010
1111011000001000
1111001011000011
0000000001001101
0000001001110100
0000000000010100
0000000110110110
0000000100101000
0000001001001110
0000000111100010
1111011011110000
1111011101010000
1111111100000111
1111100110110001
1111011001101011
1111010110111111
1110111110101011
1110100010101100
1110100111010001
1110111101010111
1110111110100100
1110111111010011
1110110001001010
1110110010111000
1111010101001010
1111000010111001
1111001001110010
1111011011100111
1111001010011010
1111010010101111
1110110111000000
1111100010001000
0000001001001111
0000000001011000
1111111110010011
1111111101101001
0000000011011001
0000001101001111
1111010111111011
1111010011111101
1111011111111100
1111001010010100
1110110001001110
1110010010100011
1110101001100111
1110000100010000
1101111101111000
1101101100111100
1101101101011110
1101101000111100
1101101000111001
1110100001001010
1110101111000001
1110111011111011
1110110111001111
1110111001110011
1110000000101001
1110100010000111
1111110101011100
1111111011011100
0000010010110001
0000000100110100
1111111001000001
0000000011110011
0000000101010111
0000001111000100
0000000010001100
1111010110100000
1111110001010101
1111101100100011
1111011010110110
1111011100001110
1111000001100100
1111001011101010
0000000011011100
1111110010011011
0000000100000111
1111100110111001
0000001111101001
0000001001110110
1111111111010101
0000001010000010
0000100100010100
0000010101000101
0000011001110001
0000001110111010
0000101011011111
1111011000100001
1111001001111110
1111100011100100
1111101010010101
1111111001110110
0000000000100011
0000001001000000
0000100001001111
1111101000110111
0000011101100001
0000000100001001
1111100111100001
0000010000100001
1111111111100100
1111100011001011
1111111001110110
1111110101010100
1111100000110011
1111101101101010
1111111111101101
1111100100001010
1111101000101011
1111110110000000
1111111001110101
1111111100001010
0000010011010101
0000011100100110
0000000101110110
1111111001011111
1111100001000000
1110101100101111
1111100001011111
1111111100100110
1111100011111001
1111110101000111
0000101011010001
1111110000111001
0000010011100101
1111111100100111
0000011010100001
0000000010001110
1111110001101111
1111101100010010
1111111110101011
1111111001101100
1111110110011011
1111111010011001
1111110011010100
1111110001111011
0000000110100000
0000001001001010
1111111000001001
1111110111010010
0000010001111011
0000011001100110
1111101010011100
1111111000011000
1111101110010011
1111110111001110
1111101001010100
0000010000001110
1111100010101100
0000001001110001
0001110011011011
0000001000001110
0000000000000000
0000010011110000
0000000000101001
1111101101001011
0000000100110100
1111111101011000
1111110001111010
1111110111100110
0000000011111101
1111110001001001
1111110110000010
0000000111101110
0000000110001010
1111111111001100
0000001010100110
0000001011101101
1111111110010101
0000001100100000
1111110000000001
1111100110101100
1111000100010000
0000011101011001
1111111111011010
1111100101100001
0000101000111110
0000010110010010
0000110101001110
0000001101111111
0000000110000101
0000000000101111
0000010010011001
0000011000011100
0000000111110000
0000000001001111
1111111010110000
1111111011010001
1111111011010101
1111110111100011
1111111100011100
1111110100100001
0000000001101001
0000001101011101
1111110111010011
1111110100101111
1111111000100010
1111111010101001
0000000010110100
1111001111000111
1111001011110101
1111100101010110
1111100101101110
0000100100011111
0010111010010111
0000110101111101
0000010100001101
0000000100100000
0000001011010101
0000010100000011
0000001010011110
0000001000000111
0000000101100110
0000000010101110
1111111111010110
0000001101011000
0000001100000010
0000000110001101
0000001111001001
0000010000011001
0000010110100000
0000001101100100
1111111100010010
1111111101011111
1111110001110001
1111101101110111
1111010101000001
1111000000010010
1110100000101001
1110101001101000
1111110001000100
0000100000011110
0010101010101001
0001011100011001
1111111011000111
1111111011010000
0000001011101010
0000010100100101
0000000100110111
0000001111001010
0000001111101010
1111111111110000
1111101000010011
0000001111010000
1111101110000111
0000001011101011
0000011101010010
0000000111011101
0000000100111010
0000000100110011
0000000010011011
0000000000111001
1111111010010000
0000001001010010
1111001110001110
1110011100110100
1111100001001000
1111000010001000
1111111010111000
0001000101101101
0000110011000000
0010001010110111
0000010001101000
0000000111001110
0000001000110010
1111110010111110
0000000100000100
0000010101100100
0000000101101110
0000010010000101
0000000100001000
0000000010111111
1111111111010001
0000101001111100
0000100000111111
0000010111011110
0000010110011001
0000010101010010
0000001000011001
0000000010111001
0000000010010100
0000001111111100
1111000111111011
1110000101001011
1110011100001111
1110111110100010
0000010010101111
0000011001100110
0001110010100111
0011001000100010
0000010111001011
0000010001011000
1111110101001000
0000001101000001
0000010110111100
0000001100101111
0000000101111011
0000000100010111
0000001010101110
1111101100001001
1111111010001000
0000000110001001
0000011000110101
0000011000000110
0000010110010011
0000011001010011
0000001010100110
1111111001100011
0000000100110001
0000000010001010
1111100011101100
1111000001000001
1111000010011100
1110110111100000
0000100000011110
0000001111111010
0000111110000001
0010100110010110
0000011010010101
0000100101011011
0000011101011111
0000100100000110
0000100111111111
0000010100000101
0000000011101010
0000010001111000
1111100110101111
1111010111011000
0000011001000010
0000001101010110
0000000011010100
1111111111010010
0000001101111000
0000001111011111
0000001100111101
0000011000111001
0000100000100000
0000000011011100
1110101000001000
1110110000101100
1111000101110101
1111000001110011
0000000100001110
1111111111101000
0000100110001111
0001110010001000
0000111110111101
0001000100000011
0000110010001100
0000011111001000
0000011110011111
0000010000100110
1111111111111011
0000000011011001
1111001011110100
1111110110000011
0000010000000001
0000001001100010
0000001111111001
0000000101010111
0000010010100111
0000011001010011
0000101101011011
0000100100010110
0000000100011100
1111111001001110
1111010111110010
1110111100110101
1110111011111110
1110111111101011
0000000111010100
0000011111110000
0000000011001010
1111100100011110
1111111101000101
0000001110110010
1111101001111111
0000010010000000
1111111010011100
0000001011001110
0000000011001011
1111110011011001
1111111011101001
0000001110111110
1111111100000011
0000001000011110
0000001100110010
0000001101011011
0000100111100000
0000010101100000
0000001100000010
0000010100000111
0000001000110010
0000011011101010
1111100011000111
1110010111000000
1110010000100001
1110111000110111
1111101111001110
0000011000001010
0000001010101011
1111100001000000
1111010000101101
1111011100011011
1111110000011100
0000000001110100
0000011011000111
0000010100010001
1111110110000111
1111101110101110
1111111101011010
1111111101111011
0000010010101111
0000100000100010
0000001100001111
0000001111010110
0000010011010110
1111111011100101
1111111000100100
0000010011000001
0000101101110101
1111110000001110
1111000011100001
1110010110011111
1101110011101010
1111010001110111
1111011011101110
1111111010110110
0000101010110101
1111011000011111
1110111101011101
1111100110101010
0000000011100111
1111111111101110
0000010110100100
1111111010100011
1111101000000110
0000000000010000
1111110100100100
1111111000101010
0000010110001100
0000011111111010
0000010101001101
0000001100111011
1111110101001100
0000000011100010
1111110101011100
0000001000001001
0000001111110001
1111011101011010
1110010111000001
1101110010001111
1110110111101100
1110110100011011
1111001100000011
0000110000010000
0000110111011001
1111100000000101
1111011001111001
1111101100011010
1111101101101101
1111100111000011
1111100001110010
1111010000111111
1111111100111101
1111100101011000
1111110111000000
1111110110011111
0000001100001000
0000001001100100
1111101111010100
1111101111011010
1111101000111000
1111100101110100
1111101011001111
0000000010000110
1111100111110010
1110100001011001
1101110001111010
1101011011001101
1110110010101110
1111110101100001
0000101010110010
0000010110111010
0000000111001111
1111100011111010
0000000011011100
1111110010110111
1111100101100010
1111010100001110
1110111000110110
1111001110011100
1111001100101100
1111001101110001
1111100001001001
1111100011000011
1111111100111101
0000000110110011
1111101110010010
1111100001011001
1111101100000011
1111100000101110
1111100101010110
1111010001010100
1110110000111100
1101111100100101
1101111111101110
1110001000111001
0000000011011101
0000010010011101
0000100010111111
0000000000111101
1111010111010001
1111001111000111
1111010011111010
1111010110011111
1110010111001100
1110001011111110
1111001100000111
1111100101100101
1111010001100110
1111011100110110
1111110011000011
1111111110100010
1111111101111011
0000000101000000
1111111000001011
1111110000000011
1111111100010101
1111001000101111
1111000011111010
1111000001100111
1111001001111111
1111001000010111
1111000101000100
1111011001111110
0000001010010100
1111111000110011
0000010101010110
1111111111001101
0000001111010100
0000000011101010
1111000011111001
1111000000010110
1110011011000111
1111010111010010
1111110110000001
0000000000100011
0000000011111101
1111111010111100
1111101001011011
1111101000010101
1111100001100101
1111110000011100
1111110110100110
1111101111101000
1111010111010010
1111010110001110
1111010111110111
1111110010100111
1111111011101101
1111100011101001
1111010111101110
0000001111110010
0000011101001100
1111011111111111
0000000111011101
1111111101100010
0000000100111010
1111101000011101
1111000111100111
1110110001110000
1111101110100111
1111101010101111
1111101001010011
1111110101011101
1111111100001111
1111110011110000
1111100101100111
1111100011011001
1111011110100001
1111110100100100
1111110100101001
1111101010010111
0000000110011001
1111101111100001
1111110011011111
1111111010100010
1111011110111110
1111110001100011
1111101101101101
1111111011001100
1111101010111110
0000000000010111
0000000001101000
1111111110000010
1111110101110111
1111000010000110
1110100101011000
1110100110100000
1111101111100001
0000001010010100
0000001010100000
1111111111100100
1111110010101111
1111110110000010
1111110010110100
1111110110000000
1111111000011001
1111111000110010
1111111000011101
0000010011010010
0000011011010101
1111110110010111
1111110001001001
1111101000010111
1111100101011110
0000000010110100
1111101010110000
1111100000001111
1111011011010000
0000100101000110
1111111101101010
1111111100110111
0000000011111010
1111011010100101
1110111000101100
1111011000000000
0000011010111110
1111110100101110
1111101100010100
1111110011001010
1111110000000111
1111101111011010
1111110001010110
1111100101111111
1111011110001011
1111001110101110
1111011011010111
1111000101001010
1111011110010010
1111111100011111
1111101100010110
1111101111000000
1111100111010111
1111101100101100
1111100010111101
1111010011010100
1111011100111110
1111110001010011
1111111101101010
0000000110010110
0000000110101111
1111011111111001
0000111000000111
0000010100100111
0000100010001111
1111101010001010
1111110101011111
1111111101010101
1111110011000011
1111100010111111
1111101010011011
1111110001110011
1111101101110101
1111111011000101
1111110001111001
1111011111000001
1111100001100000
1111101100101101
1111100010001010
1111110000001001
1111110000001010
1111110101011100
0000010100000011
0000001101110001
1111101011000010
1111110110000010
0000000010100011
0000000101001111
0000001000011011
0000001011000001
0000000110101111
0000100100000011
0000101111010010
0001010001000001
0001110101101111
0010000010101111
0001011111100000
0001011001011111
0000111011010100
0000011101000111
0000010100101001
0000110101000100
0000100100111001
0000001100110100
0000000110011000
0000000001010010
1111111101001011
1111111100101100
0000011011101100
0000010110010011
0000100000011100
0000010110111001
0000100011110000
0000000100010001
1111111011000110
0000000011111111
1111111110101000
1111111110001100
0000001001111000
0000011111011100
0000110010110111
0001101001011100
0001100001010110
0001111111001111
0010111000101010
0001111101011101
0001100001010010
0001110100001101
0011000110000111
0100101111010100
0101000000011100
0100011110110111
0100010001101011
0010101001110110
0010000111101000
0000101000101101
0000111001101110
0000111011000101
0000111011001101
1111111100011011
1111111110011010
0000001001001100
1111111001111010
