1111110110011010
0000000010011101
0000000110101011
0000000100101011
1111111110011010
1111111011101010
1111111011111100
0000000010101100
0000000100100011
1111110101010010
1111110101001011
1111111000110001
0000000100100001
1111101110000010
1111011011100100
1111011000101101
1111111110000111
1111110111010101
0000000011001111
1111111110000111
1111111010110101
1111110111111100
0000001001101011
0000000110101100
1111111001011011
0000000000111100
0000000011011001
1111111110011010
0000000110100011
1111110111001111
1111111011111111
0000000001000100
0000000101001010
0000011110001111
0000111111001011
0001010000010111
0000111111011101
0001001100111110
0001000100011001
0000100010000011
0000110100001011
0000101111010011
1111011111100111
1111011001011111
1111000110100101
0000001101111001
0001101000101011
0001011100100011
0001001110110111
0000111011000100
0000110000010110
0000011001000001
0000000110001100
0000001000010100
1111111111000010
0000000100010101
1111111101000100
1111111110111001
0000010111101001
1111100111001000
1111110000001000
0000100111010101
0000111001000101
0001000111000101
0001101100000110
0010001100010011
0001110101010011
0001010111001011
0001001001100001
0000000111001101
0000010101000010
1111110000001001
1111111000001000
0000011101011010
0000000100001101
0000100011000100
0000110100100110
0000111111101001
0000111110010010
0000101111000011
0001001101100100
0000100110000011
1111110111011010
0000001010001111
1111111111011100
0000001000100011
1111011011000101
1111100111110010
1111110010011100
0001000101011000
0001011101111110
0000101011001011
0000000100001010
0000010010011000
1111100111000101
0000000111111111
1111110001010100
1111011111110011
1111111100000110
1111111100110010
0000000011010010
0000000111110010
0000000000101111
0000011100010000
0000001100000010
0000101010010010
0000100110101110
0000011110101101
0000110010011111
0001010101111101
0000010011001001
1111110110110101
1111111111111100
1111111111100110
1111101100101010
1110111000010100
1111110111011100
0000010000010111
0000011110100001
0000010110001110
0000010111011010
0000010000110111
0000001000010011
0000010000101100
0000010101001011
0000000100110000
0000000010100000
1111110011011000
1111111101100000
0000001010100100
0000000111011101
0000000100000110
0000001110010001
1111101101000011
1111100100001001
0000000011001010
1111101010111000
0000001001101010
1111111001000001
1111110101010011
0000001000111101
1111111011001111
0000010001011011
1111011100001000
1111111100100101
1111011111111101
0000011101001100
0000010000011110
0000011100010111
0000100001000100
0000000101110111
1111110100001000
0000001101010001
1111101010111010
1111111000111110
1111101101000100
1111011111100001
1111110001011000
1111110001010010
1111111000010010
1111111011111101
1111110011100101
1111010010011000
0000001100111100
1111111110100010
0000010000000100
1111110101100011
1111111100111011
1111111011010001
1111101000000011
0000001101111010
1111011000011000
0000011101010110
0000001010000010
1111101101000101
0000001101000100
1111100101110100
1111110110001101
1111100000010101
1111101000101011
1111110110111110
1111101001111110
1111110110110101
0000000001111101
1111111000100010
1111111110100000
1111111000000010
1111110000110100
1111100110011100
1111100100111000
1111101010011111
1111110000101100
1111100000010101
1111100111011010
1111010001100000
1111000100101011
0000000001010101
1111100011001000
0000100000001101
1111001011010111
0000001001100100
1111111011010101
1111100101100101
1111100010010000
1111100111011000
1111010111111000
1111011100101110
1111111000011001
1111101011110111
1111111110011100
1111110100111011
0000000101011001
0000001001000011
0000000110101011
1111100101000001
1111110100001001
1111110010101110
1111100100001110
1111111000100100
1111011110101001
1111101101000011
1111010011010101
1111110010001101
1110110100011101
1111001101110001
1111011011100111
0000000111010000
1111001110110101
1111100101010011
1111101001100001
1111101100001001
1111011000001111
1111011101111100
1111111110110000
1111100100001110
1111101001001111
1111101110111100
1111111011110010
1111101101011001
1111101000010100
1111100100100111
1111011110101001
1111100111010110
1111101101101100
1111100011010001
1111111100110000
1111101000101111
1111011000101010
1111001011001101
1111010011011011
0000001001011100
1111010101010001
1111110011001101
1111110001111111
1111101100001011
1111100011010000
1111010111100110
1111010010111000
1111110110001010
1111101101000000
1111101111110111
1111101111110111
0000000010000010
1111100010111010
1111101011010110
1111110011010000
1111111001010000
1111101000010010
1111100110101101
1111011101001001
1111110100011111
1111100011101110
1111101101000111
1111100110001010
1111011000010000
1111010011000000
1110011111111101
1110101010111101
1111101001110101
1111100011111011
1111111000010001
1111111111011010
1110111110001011
1111000101010010
1111000110010000
1111110010010001
0000001110001111
1111111101000110
0000000111000100
1111111011100111
1111111111100101
1111111110010011
0000000100101000
1111111000000111
1111011110111000
1111001100011011
1111011100111101
1111111001110010
0000000110100010
1111110100110010
1111100011001110
1111100010010100
1111110100010011
1111001001111000
1110011010011010
1110110001011100
1110001100111010
1111010001111100
1111110111111011
1111100001000010
1111001110111011
1111000100100101
1111010011111011
0000011101110110
0000000010001110
1111111010100001
0000000110111010
0000001010111000
0000000100101001
1111011000010000
1111101001101100
1110111000101100
1110111110010010
1111100000111110
0000000110110101
1111111001100100
1111110110000011
0000001100000011
0000001111001000
0000001011111011
1111110011001111
1111010000000101
1110010011011001
1110100001000110
1110010011110111
1111011000011000
0000001011110011
0000000100110000
1111100110000001
1110110111111101
1111101100111010
0000000100011110
1111111001100100
0000001000110111
0000000100110001
0000001000001101
0000001011110000
0000001011111010
1111111010110001
1111101111101100
1111110100000110
0000001111010011
0000010010011101
0000001100001101
0000001011001011
0000011101011011
0000001011010010
0000101000010111
0000000011000101
1111111110001000
1111110111011001
1110101110111000
1110011111101001
1111011000011001
0000000001001111
0000001010011000
1111101101101100
1111000110111111
0000001110110100
0000001100100000
0000011110001000
0000010101001011
0000001110101001
0000011000101001
0000010100010001
0000001110111101
1111110100110000
0000000100010100
0000001011111110
0000001110111010
0000001110110100
0000010110010011
0000011010111101
0000010001010001
0000001101111000
0000101010111010
0000001001000010
0000001111100010
1111111111100010
1111000001010100
1110101101100111
1111101100111110
1111110111000001
0000000101101001
1111010011001100
0000000011010101
0001000101001011
0000001111011111
0000010100110010
0000011101011111
0000011011010001
0000011100110010
0000010011000111
0000101011011001
0000010010110011
0000000101001110
0000001101001011
0000000101001000
0000011001010001
0000010110010101
0000000111011101
0000010100111000
0000000101001100
0000001011011101
0000001111011110
0000000001111101
1111110000001100
0000001010010110
1110110101010101
1111100110100010
1111111010100011
0000110011111010
1111101111011010
0000111011101111
0000010010000110
0000000010001110
0000101001011100
0000010111111011
0000010101101100
0000001010101001
0000001010010110
0000100111111010
0000010101001010
0000000010100110
0000001001011101
0000011000101001
0000100101001000
0000100001010101
0000000001100000
0000000010011100
1111111011111000
1111110100001000
0000001110111100
1111111000010101
1111101010001101
0000100110101010
0000000100100010
0000100011011101
0000000100101100
0000000101111111
1111101000101011
1111101000100110
1111100101100101
1111111111111100
0000010101111111
0000010101000111
0000001000001011
1111111111110101
0000100101011000
0000110101110111
0000001000101000
0000000010010010
0000010100001111
0000100010011101
0000100100001101
0000100001000010
0000000101111100
1111110111001100
0000001011101100
0000001001011111
1111111001010011
1111011010101000
0000001011100001
0001110001000101
0000001000010110
1111110100001101
1111110101100100
1111010010111000
0000100110001010
1111001100000101
1111101011011000
1111101011010101
1111111011110010
0000010101111001
0000100111000111
0000010010110000
0000100001101010
0000100101111010
1111110000100111
0000101001011100
0000011000001000
0000011111101111
0000011000001001
1111111110100000
0000000110101010
0000000001110010
0000001101111100
0000100010111110
1111110010111110
1111111101110101
1111110110111001
0001011011001111
1111110011011001
1111010010100011
0000000001100100
1111100010101001
1111100101100110
1111101010110111
0000000110110010
1111101001010011
1111111000011000
0000011010011100
0000010110001111
0000010110001111
0000001101100101
0000000100000011
0000000010010111
0000010110111000
0000100000000011
0000010111110100
0000010101000110
0000001111000111
0000001110101010
0000011001100100
0000000010010001
0000000111100010
1111111111111101
0000001010101001
0000000011111010
0001010000010001
0000111000101011
0000100100110000
1111111011010010
1111001100011101
1110111110110110
1111110101000011
0000000101000101
0000001001000100
1111101101001010
1111110100100111
1111110101000100
1111101110100011
0000000100000110
0000011100101000
0000001101011011
0000000101111100
0000010101001101
0000011110111111
0000010100001110
0000010011001101
0000011110100111
0000001100101000
0000000101000100
0000011000111101
1111101001100100
0000000001000001
0000101100001111
0000011011100010
0000100100010111
0000100101110100
0000000010001111
1111011101101100
1111010001000001
1111111111000011
0000001000110111
0000001101111000
1111101011111001
1111110011100011
1111101100010101
1111100101110111
1111101010010111
0000000011001100
1111110010001110
0000000000001010
0000000110100010
0000011000100100
0000001111111101
0000000011001001
0000010000001001
0000011010101010
1111111100011111
0000000110010001
1111011011101000
0000000000101001
0001001000001001
0000011001101010
0000100000111110
1111111010110011
0000000100111111
0000100011101100
0000001010110000
1111111110100011
1111111110010000
0000010101111001
1111100111111000
1111100110000010
1111111011110101
1111101111010100
1111110000100100
1111110000101000
0000001011111011
1111111110001000
0000001101011101
1111111001010000
0000000101001011
1111111110100000
1111111111010011
1111110111010110
1111110101110011
1111111000111110
1111110101001111
0000010111001101
0000010111110000
1111100100001111
1111101001101110
1111111010001011
1111111100011010
0000000100101001
0000100011100101
0000101000011111
0000011101110110
1111110111100111
1111100111010000
1111110101001001
1111110000110111
1111110000001111
1111110010010100
1111100011111101
1111100101110100
1111100011110010
1111011010111001
1111001110100000
1111100010101101
1111001001110010
1111001111101111
1111101111010010
1111101000100110
0000000001110001
0000001011000111
1111100100000010
1111110010100011
1111010111010100
1111110011100011
0000001001010000
0000000011011010
0000000111111000
1111111111010111
0000001100000100
0000001111100010
0000000010000110
1111100100111111
1111111111100111
0000000011000000
1111100001111010
1111011011001100
1111011110100100
1111001011010010
1110111010111001
1111010101100011
1111011001100000
1111001111001101
1111011111111111
1111101011100100
1111100010010100
1111100111010111
0000000011101001
0000010111001001
1111010010001000
1111110110100011
1111100100111001
1111101010111001
0000000100101001
1111111001100101
1111110111100111
1111111000000011
1110111010100001
1111011011100010
1111110011010000
1111010110111100
1111110111010111
1111101010001100
1111110001111010
1111101110000010
0000000110110100
1111110100011011
1111111100100101
1111111011011000
1111111001111110
0000000111110111
0000001100000000
0000000100101011
0000001100011000
0000010110100000
0000101100001010
0000011110001111
1111110100101000
1111101010000111
0000011011100011
1111101100000111
1111111100100000
0000001010010011
0000000001111001
0000001110100111
1111101111111100
0000001101110101
0000110110011001
0000100001010110
0000010110001110
0000011011000100
0000010000011011
0000001110101100
0000011000101111
0000011011010011
0000010101101001
0000010110001100
0000000000011010
0000100001100001
0000001101011100
0000110010001000
0000101011110101
0001111100111110
0001011111100001
0000000111001011
1111010011101111
1110111000000111
0000001000000001
1111101100101111
0000000010101101
0000000101001001
0000000001101011
1111111101101001
0000100110100010
0001010110001011
0001010011010110
0000111111010101
0000111001111001
0000110010100001
0000011001010101
0000010010111010
1111111101011011
0000011110101011
0000000010000100
0000010100110101
1111111010101110
1111110001100001
1111111111101111
0000010011110000
0000001001010110
0000101111010111
0000100100011000
1111111001100000
0000101000011110
1111110110111010
1111111010001000
1111111001100110
0000000101010111
1111111100000100
1111111100001011
1111111010101101
0000001000101100
1111111111000110
0000000011000100
0000001011100010
0000000111001100
1111010110101000
1111100010110000
1111111010101010
1111101100000000
1111111010110011
1111011001011011
0000011110111000
0000001101000110
1111011111101011
1111100111010101
0000001000010011
0000010011100101
0000010111000111
1111110110101110
1111010101111000
1111101001010111
1111111000101001
1111110111000000
0000001000111011
0000000100100110
