0000000011101111
0000000010110100
1111111010011110
0000000100111000
0000000011011101
0000000011100111
1111111011100011
0000000101111010
0000000010001000
0000000110100100
1111110110000110
0000000011011100
0000001111101001
0000000010001011
0000000110100101
0000000100100101
0000000000001010
0000000000111100
0000000111111000
0000000001110011
1111111100000010
1111111011011000
1111111001011000
0000001000001111
0000000110010100
0000000111111111
0000000011010101
1111110110011111
0000000010101110
0000000111101000
1111111111011011
1111111111110110
0000010100001000
0000100000010101
0001001101001010
0000111110110001
0000111000011000
0000111010111011
0000110110101100
0001010010001100
0001100101000000
0001101001101010
0000000111101001
0000101100001111
0000100000111001
0001010110001000
0001111011010100
0001010100010000
0001010111000101
0001000010110001
0000100000111110
0000101001111001
1111111101000001
1111111101111001
0000000010000100
1111110111000111
1111111011101001
1111111110001100
0000010010101101
0000100101110010
0001001110110010
0001000101101000
0001000111011010
0001010111101011
0001011101011101
0000011111001011
0000110000110001
0000111011101000
0001000100010110
0000111001101001
0000100100100011
0000010110111110
0000011111111100
0000101101100000
0000111101100100
0001000010001010
0001010010101110
0001011000111000
0001010111100001
0001010011100010
0000110010111010
0000100010100110
1111111101100100
0000000010100010
0000000000011010
0000001010001011
1111111010100111
0000110110011011
1111111000010010
0000001001010101
0000111110111010
0000110001010010
0000100101011000
1111110110110011
1111111110100101
0000011000011111
1111111011011010
0000000110000010
0000010010110111
0000011101001110
0000010101011110
0000011001111011
0000010011110111
0000101010101001
0000000011011110
0000100010110100
0000001100000100
0000001001010110
0000001010100111
0000001011001011
1111010101010010
0000001000001011
0000000100011110
0000000100011101
1111111001101000
1111111110110111
1111101110010110
1111101011100101
1111111001001000
1111100010011111
1111101101100100
1111100100010001
1111101100101001
1111101101001111
1111100100011001
1111110101100001
1111100010001011
1111110000100011
1111110101110110
1111111111010000
1111110110000001
1111101111000000
0000000110001010
1111111001101100
1111111000101101
1111100101011011
1110111001101001
1111010011110101
1111111000100001
0000001000100010
0000000100111100
0000001001101000
1111100011001010
1111011000110110
1111010001000010
1110110111000001
1111001110101111
1111001110001110
1111110010000000
1111101101111111
0000000101001100
1111100001110100
1111110101011010
1111101011001001
1111110100101100
1111110011110101
1111101111111010
0000000001111100
1111110000110100
1111111101110001
1111101110111100
1111011110100001
1111101011000101
1111110100111010
1111010010110000
1111011010110111
1111000101001110
1111010010111011
1111110101000101
0000000010000011
0000011101100011
1111001110000011
1111010001000100
1111010110011110
1111010110110001
0000000011000101
0000001100110000
1111100001000000
1111110100000101
1111111010001010
1111111101000010
1111111111011001
1111111110011101
1111110100010111
1111110111001011
1111110111000001
1111110110101000
1111101010011010
1111110101010001
1111101100110011
1111110001011100
1111110000101011
1110100001101011
1110100111110110
1110011001101101
1111000000101100
0000000011101010
0000001100110010
0000000011101011
1111001001010111
1111000101000111
1111010011011011
1111101000110011
0000010000010111
1111110101011110
0000001000110010
1111111100101111
0000000111000101
1111110111110110
1111101010110100
1111111011111010
1111111001001000
1111111000101011
0000001000010001
1111111100110101
1111110011110011
1111100011010000
1111110100011100
1111101111010011
1111110001001010
1111000111001000
1110100111101100
1110100101110111
1110111000110100
1111110110101000
1111111000000001
0000011110001011
1111011111111011
1110010110111001
1110101111001011
1111110001011000
1111101101100000
0000000001110001
0000001000100101
1111101101000101
1111110011100101
0000000010101000
1111111111110110
1111111100110000
0000001011101111
0000001000110101
0000000001011100
1111100110010101
1111101000100111
1111111011010011
1111110000110001
1111101110000010
1111110010110001
1111000000010101
1101010101110001
1110110110110100
1111001101111100
0000001001000101
1111111101111110
0001000111000111
1111011101111110
1111001000110111
1111100101011000
1111110111110101
0000000100110000
0000000000110011
1111110011010011
0000000110001101
1111110111101101
0000000001100110
0000001110111100
0000001101111011
1111110101000001
1111110100101100
1111101001100001
1111101011111001
1111100110011110
1111111010011101
1111100110000000
1111100110111110
1111111011100110
1110111100111000
1101011001011010
1110101100101011
1111111011010111
0000000011010111
0000000010010001
0000101100100110
0000000011110010
1111001110101011
1111110001111110
1111110001000101
1111111111001110
0000000111000110
0000000100000001
1111111011100011
0000001000001101
0000000100111001
0000001000000100
1111111000111110
1111111000111001
1111100101111000
1111111001100001
1111110110101011
1111101011000000
0000001011001101
1111110001110101
1111111100010010
1111111100111010
1110111000010100
1101100101100001
1110100010000110
0000000111010011
0000000010101011
0000001101110100
0000001100001001
1111110100111001
1110011011110101
1111010101101010
0000001011110000
0000001010010111
1111110110111111
1111111111011100
1111111110001111
1111111000110110
0000000001001010
0000001110001110
1111100100101100
1111001001101010
1111011101111011
1111110110111011
1111101111010001
0000001100111111
0000001111110111
0000010111000010
1111111011111011
0000001100011110
1111100100001010
1101110001101111
1110001000001000
0000011011100100
0000000111110111
0000010110000111
0000001110111000
1111111111100011
1110001011100100
1111101111111000
0000011100101101
0000010100011101
0000001001010001
0000001001101111
0000000010000000
0000000110000100
0000010111111111
0000000001101001
1111001110111100
1111010101001001
1111101110010101
1111101100101011
1111101100000011
1111111000110011
1111101001111111
0000001100011011
0000100111101000
0000101100110000
0000001001110010
1110010001000010
1110000010110100
0000000111100110
0000000010100011
0000100001010111
0000110011100100
0000000011011011
1111001111111000
0000000101001011
0000101000111111
0000000101111111
1111110001010010
0000010000100110
0000011000010011
0000001101111111
1111111011111001
1111011110001110
1111100011101001
1111111001000111
1111101111110111
1111011111010111
1111110111011100
1111101001100010
1111110011011100
0000001110010001
0000011011111100
0000110100001001
0000100010111001
1111000100011100
1110000000101101
1111101110000110
0000010111110000
1111111000011011
0000010001001110
1111001011010001
1111000111010010
0000010000110100
0000001011100000
0000010111010110
0000001011110110
0000010000000100
0000000011011101
0000010101010000
1111111110001100
1111100110111111
1111110001011001
0000000000110011
1111101001010010
1111100011111100
1111110011000110
1111110110000010
0000001001010011
0000011111100100
0000001011010000
0000100010011101
0000011111000011
1111101000011110
1101100111000110
1111110111011101
0000100010101100
1111111100101011
1111110011011110
1110110011001101
1111101110110000
0000000101101011
0000000000010101
0000101011000000
0000010100010100
0000011010011101
0000010111011110
0000000000111100
1111100101010101
1111100111001010
0000000011000000
1111100000101111
1111011001001001
1111110010100101
1111110011110000
1111101101111100
0000001101010011
0000001100100111
1111111100111010
0000001111000110
0000001111101001
1111111010110101
1101011110001010
1111001111100111
0000001100101001
1111111110011101
1111111000011110
1110110111111010
1111110011011011
0000001111001010
1111111100011010
0000011000100001
0000000100010111
0000011100110001
0000001111000111
0000011100011100
1111101100011111
1111011110101010
0000000000110111
1111100000101111
1111001101011101
1111111000000011
1111111111010001
0000000001101110
0000001000101100
0000001110000001
1111111110111010
1111110110100101
1111111100010111
1111110011110111
1101000111011011
1111011101001100
1111111010111001
0000001000100011
1111111100001111
1111001000011110
1111101011101000
0000000000010011
1111110111100011
0000000101101001
0000000010111000
0000001000100110
0000011011111011
0000100010000111
1111110010111111
1111110000111001
1111110111000111
1111011000110111
1111101110010000
0000010111110111
0000000000000010
0000001010101111
0000001010001100
0000000001010000
0000011000011010
0000001100100111
1111111011000000
1111111101000001
1110000011110100
0000011000101100
1111111111110110
1111111110111010
0000001100101001
1110110100000001
1111101110100010
1111101101101101
1111100100010100
0000000010011110
0000010100100011
0000011001101010
0000000100100010
0000010010100101
0000001101000011
1111101100111001
1111101100001111
0000000000111111
0000000011001010
0000001001001101
1111111011111101
1111111111110010
1111111100001110
1111111110111011
0000001001000011
1111110001110100
1111101110110101
1111100000110000
1111010100011111
1111000001100101
1111111101111000
0000010101101011
0000100010110101
1111001110001011
0000000111110111
0000010000101001
1111110110011100
1111111110011111
0000000101111100
0000001001000110
0000001001000111
0000110011000111
0000110000111011
1111111010010110
0000000001001111
1111111000110000
0000001110011001
0000010001010111
1111111001001110
1111110010010101
0000000111000100
1111110000001010
1111110111100111
1111110001000111
1111101011110100
1111000000010100
1110100111010110
1111100001100011
0000000110100110
0000010100010100
0000010010001010
1111000111100001
0000011100011001
0000001011111100
1111110110000011
1111101110010101
1111111100100110
0000000110011101
0000011101001010
0000010011011011
0000101111011100
0000011001111011
0000011000001101
0000100000111100
0000000111000101
1111110101011110
0000001100100010
1111111000011111
1111111000111111
1111111110110010
1111101000101011
1111011000101101
1111010100011001
1110111110111101
1111100101110011
0000000000100010
1111111000111000
0000000101011000
0000010110011100
1111110010000101
1111111101110010
0000000011101001
1111101000001010
0000001000100001
1111111111110111
1111110000110001
0000001111110100
0000001111111010
0000011101101010
0000010011100100
0000011001111110
0000011110111010
0000001000001110
0000001101011100
1111111011011010
1111101100111010
1111111011011100
0000000011011110
1111110110111101
1110110010100001
1111000000110000
1111100111111101
0000011100000111
0000100000111100
1111110111011111
0000000111011110
1111110011000101
0000000001111010
1111010110111001
1111111101100000
0000001111000001
0000100010000110
0000001100001011
0000011100100001
0000001010000111
0000000110110011
0000010100111001
0000001101010110
1111111111010010
0000010010110101
0000001111100100
0000001001111110
0000000010101001
1111110101111110
0000000000101111
1111101101101011
1111101001010010
1110110111111111
1110101011111110
0000000001111001
0000100010100011
0000010100101111
1111110101000111
1111110111000011
0000000111100000
1111010011101110
1111000001111011
1111110000110101
0000000101111111
0000000111101010
0000001000110111
0000010010100110
0000000111101001
0000001111011000
0000010101101100
0000011011001000
0000001010111011
0000001101110001
1111110110001110
1111111000101011
1111111000011001
1111100001011010
1111010100100001
1110111110010101
1111000100111110
1111010010001001
1111001100111110
0000001001111010
0000000110100100
0000001000111010
0000000011111011
0000000011110110
1111111011011111
0000000010001111
0000000000000110
1111101011011000
1111101110010001
1111110001110100
0000000001011001
1111111010000100
1111100111110111
1111110001010100
1111111110001010
1111101010101111
1111100000100110
1111101101101101
1111101001100100
1111111001011101
1111011100001100
1110100010001010
1110011111010010
1110010100110001
1111000000001000
1111111000110111
0000000101110110
0000011000000010
0000000111000110
1111110111101011
0000001000111101
1111110110010000
1111110111010101
1111110111010110
0000010101000001
1111111000011111
1111100000001011
1110101001101011
1110101100101001
1111000100010101
1110010001100101
1101111110000111
1101010011111101
1101100110101010
1101100010010100
1101011010100101
1101101000110011
1110001110010100
1110110100010011
1110100001000100
1111000100111110
1111100001010010
1111100110011000
0000010000011001
0000000010111001
0000001000000011
1111110110010100
1111111110101011
0000000001001101
1111111010011010
0000001000100001
0000000001111101
0000000001110001
1111110100000010
1111110001011001
1111011100111101
1111001100110001
1111000110111101
1111010000100010
1111111011010100
1111110000101110
1111001111111101
1111100101011101
1111011011000011
1111101000100110
1111011101111001
1111100001000100
1111101110101000
1111011001000000
1111101001000101
0000000111110111
1111111100111011
1111111100100000
1111111111010101
1111111010110100
1111110110101011
0000000011000010
1111111100010001
0000000101111010
1111111010111100
1111110111110011
1111111001100001
1111111000101010
0000000101011010
0000000000110010
0000000111011100
0000010010000011
1111111110100000
0000010100110011
0000010100010011
0000001011101010
0000000101001111
0000000010111001
0000010000001111
0000001101000001
0000001010111011
1111111010100110
0000000101100110
0000001100111011
1111110111000000
1111110101011011
0000000100011001
0000000100010100
1111111111000011
