1111110111011101
1111111010000110
1111110111010010
0000000010110111
0000001010011001
1111110110010100
0000000101101111
1111111101011010
0000001010110100
0000000111000011
0000000010111110
0000000100100010
0000001000000011
1111111010001011
1111111001001100
1111111100100001
0000001001010000
1111111110000110
1111111010101001
1111111110000111
0000000111101110
1111111101011010
1111111010010011
0000000111101001
1111110111010010
1111111011000010
0000000011110111
1111111011000101
1111111110111010
1111111101011110
1111110101001010
0000000101111110
1111111010001101
0000000001111011
1111111100101100
0000000111100011
1111111001111000
1111111000101010
0000001001000001
1111110101000000
0000000010110011
1111110111101000
0000011010011100
0000101000000110
0000011010101011
1111111000111110
1111111100110011
1111111110001111
0000001010001011
1111111110111011
0000000110100000
1111111111011001
1111111000010001
1111111010110111
1111111100110001
1111111000000010
0000000001100000
1111110111111111
1111111110100000
1111111000101000
1111111111111110
1111110011111000
1111101110111000
1111100000101100
1111010111010010
1111100100100110
1111011110000101
1110111010110000
1110111100001001
1111101100010111
1111111000101011
0000011010111100
0000001101111010
1110111001100011
1110110010011100
1111000110100000
1111101111111001
1111110100110111
1111111111011001
1111111001110100
0000000110011010
1111111000000010
1111111001111110
1111110111000011
1111111011110010
1111111000011101
0000011001100110
0000010101110010
0000101001011011
1111110101111110
0000000010111110
1111101101110110
1111101111110111
0000000000001110
1111111011011000
1111100100110110
1111100010100010
1111001011111011
1110101110000101
1111010010111000
1110110100010110
1110010111100000
1110110100011100
1110110100100110
1110111111010111
1111110100011010
1111111110110010
1111110100000111
1111011001101100
0000000110000111
1111110110101101
1111111111100110
0000000001000101
0000100010010000
0000101101010000
0001001011100110
0000010110001000
1111110011000101
1111110001111000
1111111101001000
1111111011010111
1111110010101001
0000010011111101
0000001111010001
0000001000011000
0000010111110010
0000001100111010
0000001001011111
0000001000000011
1111111010001111
0000010101100010
1111111101001110
1111111101010101
1111111110100111
0000000011001101
1111110101110101
1111100000000110
1111101100100101
0000100001111100
0000001100100101
0000000011001000
0000000001001100
0001010001001001
0000001010011010
0000011110000001
0000011010101111
0000010011011001
0000011001100011
1111110000001001
1111111010011001
1111100110010100
0000000101011001
0000010100000111
0000010111100110
0000001001011010
0000010101100010
1111110110000100
1111100101101011
1111110100001101
0000000111101111
1111111111001001
1111111110001001
1111111111101010
1111110101001101
0000010011001100
1111011110010010
1111110101100001
0000010101100110
1111111111000001
0000101010110000
1111101110000000
0000110010001010
0000110110111001
0000000101100110
0000000100111110
1111111000110111
0000000000111000
1111111110111100
1111111011011100
0000001110101000
0000010000001010
0000011111000110
0000011110110100
0000010101010011
0000011000011010
0000010001110101
0000010010000011
1111111100100010
0000000000001111
1111110010100111
1111010010011011
0000001001000101
0000001110100111
0000010111101001
1111111011011110
1111111101010001
1111110010011011
0000011111000110
1111010110100101
0000001111100100
0000001010100010
1111101100111001
1111111101011011
1111111111010001
1111111001100100
1111110010100000
1111110010111101
1111101100100100
0000010010011100
0000011001100100
0000011100100010
0000100000001000
0000010100101111
0000000011100011
1111110110011101
1111111011111000
0000010110001010
1111101110111011
1111101101101000
1111101111011111
1111100101111010
0000011110111010
0000110101011000
0000001101101101
1111100010001110
1111000101000001
1110111110011001
1111111111001111
0000010110011011
1111011101110010
0000001111011010
1111100011101001
1111100110110010
1111100111111001
1111111100011110
1111101010010001
1111111111010000
0000011010101111
0000010110100001
0000011000111001
0000000000110111
1111111111000110
0000001111111000
0000000111100111
0000000000101000
0000010001001000
0000000110010001
1111011101001001
1111000001000110
0000000110111000
0001000111010001
0000001011111001
0000000110001010
1111101100011111
1111011000111011
1111110111010010
1111100001100111
1111100001011000
0000010000011000
0000001110101001
1111110111101000
1111111111010100
0000001111000000
1111111111100001
1111110111001100
1111110111101101
0000001100111010
0000010000001011
1111111101100000
0000010010111001
0000001001101011
0000000011001000
1111111001010001
0000000010100111
0000010100011110
1111000110100100
1110110011011110
1111110101001000
0000011010001010
0000011001111100
0000000100001100
0000000100000101
1111011010001010
0000001110011001
1111111011000110
1111110010100011
0000000110000010
0000000000011111
0000010010100100
1111110010011000
1111111000111010
1111110100100111
1111100001000100
1111101111111000
0000010011111100
0000011010001000
0000010110000100
0000000110100111
0000000110110011
0000011011000111
0000011001010100
0000010110000110
0000101001111001
1111011000101010
1101101111111001
1111100100100101
1111110110000110
0000111101000011
0000000011010111
0000001011010111
1111010001101001
1111110011001010
1111100001101000
0000000001011101
0000000100101001
0000000110110001
0000010100110100
0000000011011000
0000000001000001
1111111001000100
1111111100101000
0000000100100110
0001001011100000
0000100100111111
1111110101101000
0000100000110100
0000100000000110
0000100101101001
0000111101011111
0000110101100100
0001000101000011
1111001111111111
1101110000100011
1110111011011001
0000010001001000
0000100110011001
1111101011111110
1111011011011101
1111100010010111
1111100100101110
1111111110110110
0000010001100100
0000001010110101
0000000110010010
1111110000011100
0000001010001010
1111111011001001
1111111100100101
1111111011110110
0000001000001001
0001010000010100
0000100001010110
0000000111000010
0000100110001010
0000011001110100
0000011100010010
0000011011011001
0000000100111101
1111101111100011
1111010000111110
1110111100100011
1111010011010110
1111011100000111
0000101000001001
0000001101100100
1111110000101110
1111100100101000
1111101111111000
0000001111100100
0000010010101001
0000010000010010
0000000011100011
1111111101000110
1111111001100110
1111101100101001
1111110010011001
1111110110011010
0000101111000010
0000111001101101
0000011110010111
0000001100011101
0000010100101110
0000011000001001
0000000000111100
0000000111111101
1111011101010010
1111001110011110
1110111100011111
1111000001001010
1111110100111100
1111010111010110
0000000101001000
1111100101010000
0000100101000110
1111101000110111
0000011111000001
1111110001101000
1111111011011101
1111111100000000
1111100110010001
1111111001001001
1111111001011100
1111011000011000
1111111010100010
0000000101110101
0000110011001000
0000110101001010
0000011100001010
0000000010011111
0000000110110100
1111111111111001
1111111000110101
1111010101011011
1111001000000101
1111000111011110
1111010011001110
1110110100011011
1111011001010101
1111011111001100
1111111111011110
1111010100000111
0000010011101010
0000100010111001
0000001101101101
1111100000101010
1111011011011110
1111110010011010
1111101100000001
1111110010110001
1111110110100010
1111101000001010
1111101111100101
0000000011100101
0000101100101111
0000101010000010
0000001010101001
0000000001000000
1111111101101001
1111110111101010
1111100111100110
1111110000000101
1111011001011001
0000001011111101
1111010001000010
1110001000111101
1111001001101101
0000001000111011
1111110101010101
0000000111001101
0000111001001101
0001001010010000
0000101101000000
1111110110100110
1111100000111111
1111111011001001
0000000011001011
0000001110010000
1111111100010101
0000000111001100
1111101101011001
0000000100010010
0000011011001110
0000100010101111
1111111000011100
1111110111111101
1111111110101111
1111110000010111
1111100101111010
1111110000001001
1111111001111011
0000010000010101
1111011000110110
1101010011000001
1110010010100111
1111111001111011
1111101100110001
1111110110010011
0000111100111000
0000101011111100
0000011001010110
1111110000101001
1111100111000011
1111010110001011
1111111000010001
1111111011101001
0000000111001011
0000010001110100
0000000000000001
0000101001010101
0000110110000111
0000001110000001
1111100111110101
1111110011010111
1111110001010000
1111101010000100
1111101011100010
1111111100011001
0000001001110110
0000100100000010
1111100010010101
1100111001000001
1110110101001100
0000001011010001
1111110000000000
0000101101101101
0000111100110110
0001011110001101
0000000110100000
1111011001000001
1111100011101011
1111100100010101
1111011011100101
1111001101000101
1111100100000010
1111100100011110
1111111000000110
1111011000011100
0000000000000011
1111111100000111
1111110011011100
1111110101000111
1111110100001000
0000000000010100
0000001010110101
0000001011101011
0000010011111001
0000010000011000
1110101111001011
1100011100001110
1111001001001100
0000001011001010
0000100101100100
0000010100010001
1111110001110101
0000011101111010
0000010010111110
1111110011011011
1111110111001000
1111110110110010
0000000010000011
1111101110001010
1111100010000000
1111001101010011
1110111100011010
1110101001110001
1111010010100111
1111011000000101
1111101111111010
1111110111001111
1111111101101111
1111111111101001
0000000010101000
1111111010010010
0000000001100011
1111110111110001
1110100010011111
1101000000100110
1111110101010011
0000011110001000
0000110111101110
0000000011110001
0000001001111010
1111111001011010
0000011111100000
0000000100001101
1111111010000000
1111111110000011
0000000101100101
1111111000101001
1111111000010010
1111111100000001
1111110001100111
1111100110001110
1111100111110111
1111100110101101
1111100111100001
1111101110011101
1111100100100011
1111111011110101
0000000000100110
1111101101010111
1111110110011110
1111101001111001
1110001110000111
1101111110111000
1111100100000101
0000010011011011
0000011011100001
0000011110001111
0001000000111111
0000100101100010
1111111011000011
1111101010100001
0000000110110110
0000000010000111
1111110011110011
1111110100101100
1111101101111100
1111111100110110
1111101110000000
1111101100101111
1111101110001101
1111110010011001
1111011110011111
1111101000010100
1111011011110011
1111101001101000
1111101011101001
0000001010110000
1111111101001000
1111000010101100
1101101000010100
1110111000101011
1111110100100110
1111101101010001
1111111000101101
0000010011011110
0000011101000000
0001001000011111
0000101010010100
1111101010000001
0000000111011111
0000000100100000
0000001100101001
1111111000110110
1111111110000100
1111110110011001
0000000000010110
1111110000010110
1111101011111011
1111111110010011
1111111001010010
1111101110111111
1111111101000101
1111100111111011
1111110010001001
1111101011100010
1111100111001101
1110001100101111
1111000100110011
0000000110001001
0000100001010111
0000101000011001
1111111101111100
1111110110011111
1111111001000001
0000111101111100
0000011010100010
1111101111001111
1111110000010001
1111101011010101
1111111101111100
0000001010100100
1111110100110101
1111101111100011
1111111011101100
0000010001100010
0000001111101011
0000001011111101
0000001100111011
1111111110101011
0000001010100111
0000000101111000
1111011000010001
1111100110010011
1111000111111100
1111000101010111
1111100111110110
0000111000100000
0000011111011000
0000101110000000
1111111000010010
1111111000011000
0000001000100101
0001001101101001
0000001010000011
0000000001001110
0000011101001011
0000001101010111
1111111110001100
1111110000110100
1111110000011110
1111111111111100
1111111110101001
1111101001111101
1111101100000010
1111011110111101
0000000010010001
0000000110110101
1111111011011101
1111110100010111
1111101010000100
1111111111000010
0000010100111100
0000000101101010
1111111011100001
1111011101011000
1111111110001111
0000001001011011
1111111111001010
1111111000000001
0000000011001000
0000101110110011
1111001000110010
1111001100010001
1111111000001100
1111101011110100
1111100110001111
0000001011011100
1111111111101000
1111110100001001
1111110111100111
0000001111011000
0000000111000100
0000001111010111
1111100111101000
0000000011111010
0000100010111100
0000111010101100
0001010110110000
0001011111001100
0010001001000101
0000111010111110
0000011000110001
0000001101011011
0000110000100001
0000000110111101
1111111110011000
1111111000100011
0000000100100011
1111111011011000
0000100010111111
1111111001110010
1111101111101101
0000001001101111
0000001010010000
0000100100100010
0000100101011000
0000100110111110
0000100000111010
0000100100001010
0000011011011010
0001010010100010
0000110010011101
0001001001100100
0001000100001111
0001000101110010
0001010010101111
0001110001110000
0001011001110111
0001001000010101
0000111000101100
0000000100101101
1111100111011110
0000001001111001
1111111111101000
1111110110111111
1111110101000000
1111111011000001
0000001000011011
1111100010100010
1111010011110010
1111010111101000
0000000110111101
0000010111111010
0000000011100111
1111100011111011
1111111011001111
0000001110101100
1111100110001000
0000001101101101
1111101111110111
1111010111100111
1111001101011111
1111110000010010
1111000001111001
0000001100101101
0000111000000011
0000100111100001
1111110011010001
0000000011010001
0000000011101001
1111111011101101
1111111011110110
