1111111111111100
1111111011110111
0000000000011000
1111111100111101
1111111110001011
0000001010101010
0000000101001101
0000000111110000
0000000001010110
0000000110110001
1111111101001101
1111111001011000
1111110111111001
0000000101110110
1111110111011101
1111111010101100
1111111011100111
0000000000001100
0000001000001101
0000000000101100
1111111001111001
0000000110000110
0000001010111001
0000000111101010
0000000001111101
0000001010001000
1111111110010111
1111110111000110
0000001001010110
1111111001001001
0000001000100100
0000000010101010
0000000110000111
0000001001001010
0000000001111111
0000001011000001
0000000100100010
1111111001111000
0000010001101100
1111111010010000
1111111001101010
1111111100001010
1111111111001101
0000000111000100
1111111000001111
1111111100010110
0000001111001111
0000011000010100
0000001100001100
1111111111110111
1111111011010111
0000001000110110
0000000000100100
1111111000111101
0000000001110111
1111111001101110
0000001001100101
0000000110000001
1111110111110010
0000100001011111
0000010001001000
1111110110110101
0000001101100001
0000011111110010
0000011101101101
0000000111010000
0000000011111010
1111010011100010
1111000101001100
1111101101011001
1111010100010101
1111010100010110
1110111100011101
1111011101000111
1111011111010101
1111111000010011
1111100010011110
1111110011011110
1111111111101100
1111101100111111
1111110010101010
1111111010010000
1111110101011101
0000000111000110
0000000111000100
1111111010101100
1111110101001011
0000011000000001
0000011010101110
1111111111000001
1111011110001000
0000000000000111
1111101001010100
1111100010001011
1111100101001100
1111011100011010
1111010101010111
1110111011001101
1111010011000001
1111000100000000
1111001011001001
1111000111000100
1110111011110110
1111010011101001
1111111100000101
1111101000100101
1111100100010110
0000010010010011
0000110101110111
0000010100000000
0000001001111101
0000000110010100
0000000111110111
0000000001111111
0000001100000001
0000010110000001
1111010010111001
1111101101001000
1111011100001101
1111101111010000
1111010010000110
1111010100000110
1111011100100000
0000001000010001
0000001010010000
0000001011001110
0000000100010011
0000000000011100
1111110010101111
0000000001101110
0000001110110011
1111100001001010
1111011010101000
1111100110100111
1111101111101101
1111011100001101
0000000001110111
0000001001001001
0001000101001000
1111111110101101
0000000100100111
1111111011000000
1111110010001111
0000001111110111
1111100101101100
1111100110001010
1111110011011001
1111100001101000
1111101001011011
1111101101111001
1111100010011011
0000001010011001
0000000110010111
0000010011001111
0000000100100001
1111111001101000
0000000111011100
0000001100000010
1111111010100001
1111111110101001
0000010110110100
0000000000000110
0000000100011110
1111100111000110
1111101001010100
0001001110011111
0001101010110000
0000011011111110
0000000001011001
1111111011010001
1111110010100000
0000001101110000
1111100100101010
1111110010010101
1111111011011010
1111001101010101
1111101101000001
1111010111101101
1111111001011010
0000000011010000
0000010110001001
0000011000001101
0000100100010101
0000101011010000
0000001100101101
0000100101110000
0000011011111101
0000001110100111
0000001101010011
0000010101000111
0000000101000111
0000001110010100
1111111011000001
0000111111001000
0000100001011110
0001000110011011
0000000000001100
0000000101011100
0000000000111111
0000001101111010
1111100010011110
1111101110110100
1111110011111000
1111111010010100
0000000110010010
1111111110011101
0000000111011011
0000010100101111
0000010101010101
0000010000100100
0000100000101111
0000111000111011
0000110010111001
0000011011001000
0000100100100111
0000000010011001
0000001001001100
0000000100100101
0000001001111011
1111110111001011
0000000010111001
0000001001011101
1111100111111111
0001110010011011
0000000110010001
1111011111010111
0000010111000111
0000100010001101
1111110100010000
0000001110111111
0000001001011010
0000000000110001
0000001101110000
1111111110011001
0000001101000000
1111111110100111
0000010101011110
0000000111011001
0000001001111100
0000100100001110
0001000000010000
0000010101101010
0000010100011011
0000010101011100
0000000111101010
0000001011110000
0000000101000001
0000010111101101
0000000010011000
0000010100110100
0000010001100111
0001001010000001
0000000001100100
0000000110010110
0000010001001000
0000010001100010
1111100111001000
0000011010110110
0000000011011110
0000001000110111
0000011010010011
0000011111111011
0000010000110111
0000001101001101
0000001001101101
0000001111011100
1111111101000100
1111110101110001
0000001111001101
0000011101100010
0000011111111000
0000010101010000
0000100011010101
0000010010100000
0000010000101101
0000101001001100
0001000110110001
0001011101111011
0000101011100111
0000100100011000
0000010000011110
0000001001101111
0000001101000010
1111010110101111
1111110000000111
0000010110110110
0000100111000001
0000011101100011
0000101100000011
0000100011100110
0000100000111110
0000101100110011
0000010100011100
0000001111100101
1111101110110100
1111001000101111
1111111000100011
0000000110000101
0000001100010001
0000000110011110
0000001100101010
0000010101101110
0000011100011111
0000100111011010
0000110000001111
0000110001000010
0001101010100000
0000000000000111
0000001111111111
1111111001110100
0000001001110001
1111001010101101
1111111110100110
0000010010110101
0000010011100100
0000100001001111
0000101001110011
0000010101001101
0000011010100111
0000100000001011
0000100100000111
0000110101111101
1111110101110001
1111001101100100
1111011001010000
0000000010000101
1111111101011011
0000000101111000
0000010101011110
0000010001011110
0000000101110110
0000010110101000
0000010101010100
0000010010111101
0001001100001100
1111100100000101
0000000010000001
0000000100111111
0000000110000101
1111010110010000
0000010001110111
0000011110011001
0000000001101101
0000001011000101
1111111010101001
0000001010101001
0000001110001111
0000001101000001
1111111101010110
0000000001110101
1111110110011110
1111101111010110
1111100010001011
1111110001101001
1111110001101101
0000000110000010
0000000000111100
0000001000111100
0000010010111111
0000101101000011
1111110011110111
1111110011100000
0000101011000011
0000000010110011
1111111101001101
1111111010010010
0000001010010100
0000010100011110
1111111100001100
0000001111111010
1111110100000100
1111110101010010
1111111001011000
1111111111011111
1111110001111000
0000000000000011
0000000011001000
1111110101010101
1111110001111111
1111111011000110
1111110100000100
1111110100000010
1111110110111111
0000000000111000
0000000010001100
0000000010000011
0000100110010100
0000010100010010
1111101110001001
1111101010101100
0000110010101111
0000000100101111
0000010110111001
1111100110111011
1111110110101010
1111110001101111
1111110101011000
1111100001001100
1111011101111111
1111110011100101
1111101011101111
1111110111000100
1111111011100110
1111110100001010
1111100110011100
1111111001111000
1111111101100111
0000000001101111
1111101000111111
1111110010101101
1111011000010011
1111010101011111
1111110110000110
0000011000101110
0000000110000010
0000010011100010
1111111101111101
1111010011100100
0000000000110100
1111100111010111
0000001110101110
1111111110101001
1111110001001110
1110111111001100
0000000011110001
0000000011110011
1111101110111101
0000001001011110
1111110001010011
1111110001001011
0000001000100111
1111100110111010
1111101001000110
0000000101000101
1111101111001010
1111111110000001
1111101000011000
1111011111011110
1111101001100001
1111101000000010
0000000101101001
0000001011110111
1111111010011100
0000010110000001
0000010001011100
1111011101101101
1111001010010111
1111111000010101
0000000111011011
1111110010010111
0000011101011001
1111001011110100
1111110101101101
1111111110000111
1111110110011110
1111111011111000
0000010000010101
1111110110011000
0000000101011000
1111110000011111
0000000011010010
1111100001101010
1111100110101111
1111100101010110
1111101011000011
1111100111000101
1111011110010101
1111110001100111
1111101110011110
1111101100110111
1111011111110011
0000011010000110
1111111010100000
1110011111101100
1110011111101011
1111101010101111
1111111100000000
1111100010010010
1111101010111001
1111101100010101
1111111100000010
0000001000100110
1111111000111100
1111110011000010
1111111000101001
0000000100101100
1111111110011001
0000000100101010
1111111101101111
1111101000100111
1111110000010000
1111110001010000
1111111010011110
0000000110010010
1111101000110001
1111110100010111
0000000000011000
1111111010000001
1111110011101110
1111101000010000
0000100111010011
1110000010110110
1111010101011111
1111110110000001
0000000011111101
1111101010000101
1111110110111111
1110111011011010
1111110011000001
1111111001100010
0000000101010100
1111111011000010
0000000010000111
0000001011100010
0000000101110001
0000000000011100
1111011001100000
1111000101110110
1111100100001100
1111111101111000
1111110110011110
0000000101001011
1111110101101101
1111101100010010
1111110100100101
1111101111111000
0000001111110110
1111011111011001
1111101011001111
1110111101110011
1111101011001101
1111100110101100
1111110111000101
0000001100101010
0000001101000110
1111000111111100
1111100010100100
1111110001100111
0000010001000110
0000010000110011
0000010110010111
0000001011011011
0000001000100011
1111110011101000
1111101111011001
1111100111000101
1111101101011011
1111101111010011
1111111000111100
0000000000011100
0000000100011011
1111111011100100
1111110010011110
1111100001001100
0000001011011101
0000000001101011
1111101010011010
1110111001000101
1111110000101110
0000000010100100
1111111011100111
0000000001110111
0000001001000100
1110111111000110
1111101100111100
0000000000100010
1111110100011111
0000001000101101
0000010111101001
0000001011000111
0000001100000110
1111111010100011
0000000111100010
1111110111011011
1111011111011011
1111111000100101
1111011111111000
1111111010011010
1111110001110111
1111111000101100
1111110101001100
1111101100101011
0000001001100101
1111101000000100
1111001100001111
1110111101001101
1111100001100010
0000000010101010
0000000110001011
0000001000010010
1111111100011111
1111001101011001
1111100010111001
1111101100001110
0000000110001101
0000000010010000
1111110001111001
0000000000011110
0000010010110111
0000000100001111
1111110100110010
1111101000010010
1111100101001001
1111101001111101
1111100001001001
1111011010000011
1111101001110100
1111100110100011
1111101101011101
1111110011101111
1111111011101111
1111101000001011
1111000111110110
1111101001111100
0000010011111111
0000010000110010
1111111110101100
0000010101000110
1111110100000111
1111001011010101
1110110010111101
1111010111111011
1111111110010011
1111111100111100
1111111001011010
1111111110101111
0000001011011110
0000001011101111
0000011000001110
0000001010100000
0000001100100100
1111101001110011
1111110101000111
1111101011000100
1111110010011000
1111101101111100
1111010101110111
1111000100110100
1111111011100111
1111100101000100
1111011001000010
1111110000010101
1111111000101101
0000001111100110
1111111101000110
1111110110100110
0000000110010111
1111110010000001
1111001101001001
1111010101111001
1111110001011101
1111101111101011
1111111101000010
1111101110110101
0000000000110101
0000010001010100
0000010010010001
0000101001100011
0000011101101111
0000011010011101
0000001000011100
0000010001001110
1111111010011000
1111011111001100
1111101110101010
1111100111110100
1111111001010011
0000000111011000
1111111101101000
1111001101111111
1111010010010001
0000000000000000
1111111000011011
0000001011000000
1111111110101111
0000100101010100
0000000101111110
1111010110001010
1111100100010001
1111111000100110
0000000110001010
1111101111101000
1111110011110000
1111110000111111
1111111110011001
0000000101010100
1111111010101011
0000010101011101
0000011111101001
0000010100110000
0000110100100011
0000011001011010
0000110110010001
0000110100010111
0000010110111001
1111100100111111
1110100101110111
1110110000110100
1111100111111001
1111111110010001
0000000110011010
0000000101000000
1111110111100001
0000011011101001
1111110011011110
0000001001001010
0000011101111100
0000000111001111
0000010110001110
0000000011010111
0000001101110011
0000010011110111
0000000111101110
0000000110011010
1111110100111001
0000011000110010
0000100001101110
0000101000110000
0000111101101111
0001000110001010
0001001101011001
0001011101000011
0000101100100101
1111111000111111
1111110000100001
1111111101000101
0000000011100011
1111110110000001
0000000111100001
1111110101111011
0000001001001111
0000000111110000
0000010010010111
0000000011010101
0000010010010101
0000110010001100
0001001001101100
0000110011010101
0001000011110001
0001101011110011
0001010010100000
0001110101011011
0001111001010101
0001000000011000
0001101111011110
0001010100001001
0001011111011001
0001011110101001
0001100101011101
0001011010011110
0000010111100110
0000001011110110
1111110001000110
0000001011010110
1111111110001001
1111111100000010
1111111101011110
1111111100111011
0000000001000010
0000001000111001
0000001101000010
0000010111111111
0000000111100010
1111111010111010
0000000111100010
1111101110111000
0000011011111101
0000011100000001
0000101111001000
0000100000011111
0000000000100000
0000000110000111
0000010011000101
0000010110111010
0000100110100100
0000010110110000
0000001000001100
0000011110101111
0000010100010001
0000000000011100
1111110110010100
1111111100100110
1111110111000001
0000000111110101
