1111111001111111
0000000000011011
1111111110001000
0000000010110100
1111110111101100
1111111000110010
0000001010100101
1111111011100110
0000000001011010
1111111101111001
1111110110001100
1111110110000001
0000001000100100
1111110110110111
0000000111011101
1111111010100100
1111111000011001
0000000100110100
0000000000110100
0000000011100011
0000000100100100
1111111010111100
0000000110000010
1111111010001000
0000001001110100
1111110111011000
1111110111011000
1111111100101111
0000001000011110
1111111110001000
0000000100101001
1111111110101000
1111111000000111
1111111010100010
0000000101111001
1111111100101111
0000000000011110
0000000001100100
0000000000000110
0000000001111001
0000000100000001
1111110010110111
1111110010110101
1111101110011001
1111100011111010
1111100000100110
0000000000101101
0000000000011111
1111110100000000
1111110101001110
1111110110111110
1111111000010001
0000001001001001
0000000110000111
1111111101110011
0000000111011011
0000000001111011
1111111110001000
1111111101011010
0000000100000110
0000001100011100
1111110101100111
1111111010000101
1111110111000101
1111110110100000
1111101100000111
1111100000001111
1111100011000010
1111101011001101
1111001100011110
1111010101010010
1111011011100001
1111000111100010
1111010101011010
1111110010101100
1111111111100011
0000000010011100
0000001010101010
0000000111001001
0000000011100110
1111111011111100
1111111000010000
1111111010010000
1111111111111001
0000000010001101
1111111010111111
0000000001001001
0000000000001001
1111111010010101
0000011101000001
0000001101101100
0000001010101110
1111101001100001
1110111010001101
1111000000100000
1110100111011111
1111010001000000
1111000100110110
1111000101100000
1111001110000100
1111100001011000
1111100011011111
1111110111100011
0000000010011010
1111100011101010
1111110011101001
0000001011100111
0000001100011100
1111111010101101
0000000111100001
1111111011000110
0000000000101010
0000000010101000
0000000110000001
1111110101110011
0000100110001101
1111110100001010
1111011101001100
1111011110001011
1111110111000000
1111010100100111
1111010000110000
1111000010111010
1111011011101000
1111011011101010
1111010110111110
1110111111110100
1111001000100110
1110111000110000
1110111100111011
1110111111110111
1111000001101100
1111001000100001
1111011110001011
1111001010101110
1111011011000110
1111110011101011
1111110111000100
1111110111111101
0000001001010011
0000000001010101
1111111010001000
1111111111010100
0000010000001001
1111100010010110
1111101101110101
1111111111011100
1111110110101010
1111111111011100
1111101001111010
1111011010100000
1111100111011101
1111011000011001
1111000111110110
1110101111111111
1110101110100110
1110111011010011
1111000011110110
1111011001001100
1111001101011111
1111000011110110
1111100100110110
1111010111011000
1110100010110100
1111010110010101
1111111010111110
1111110110100010
0000000001100111
1111110110011011
1111101011011010
0000101010101110
0000110011001100
0000001110010110
0000001100010100
0000010011111001
0000000011100111
0000010100001010
0000001111110000
0000000100110110
0000010010100101
0000001100011010
0000010100001000
0000011010110010
0000011111011000
0000011001111011
0000010011010011
0000001011111011
0000000010100001
1111110001111111
0000010001110101
1111001111110001
1110110001100011
1111000011100010
1111110001100111
0000000011000001
1111111100100110
0000011100000100
0000011001000101
0001001011011000
0001000111000011
1111100000000111
1111101010110110
0000011000000001
0000001011110011
0000000001000101
0000001011010100
0000010011000101
0000010010100011
0000101011000011
0000101000000101
0000101000011100
0000110010000111
0000011111111101
0000100100100110
0000010000100101
0000001011000000
0000010011100011
0000000111111010
0000001000101001
1111011110010111
1111011001011100
1111001001011001
1111111011011101
1111110110111011
1111010011111000
0001000100110100
0000010011101011
0000100010101001
1111111100101010
1111111000011011
1111111010111100
0000010001001000
0000011101011000
0000001100010010
0000000111101110
0000011011000011
0000011010011101
0000010100101100
0000101101010100
0000101000010010
0000011100101111
0000001001000000
1111111110100001
0000000110111111
1111101101010110
1111111000000011
1111111110011000
1111111010011000
1111100011000011
1111001101100111
1111101111101011
0000000001101000
0000101010011101
0001011010001011
0000101110101010
0000001111000001
0000001111100011
1111111101111100
0000010001100010
1111111111111010
0000000011001100
0000000101000000
0000001111110111
0000011101011100
0000011100101000
0000011000101100
0000100010101001
0000011011010000
0000001010111100
0000010001110101
1111111011111001
0000000000000011
1111111001111010
1111110001000001
1111101110011101
1111000110100100
1111101100011001
1111000011110010
1111011101011100
1111101101100100
0000011100101011
0001110100011111
0000111010110000
1111110111001101
1111111011100011
0000010110001010
0000011001100101
0000000110001111
0000001101001110
0000010000101101
0000000111111101
0000011011111100
0000001100001001
0000101000110010
0000011100011111
0000011000100001
0000100011101000
0000000101100100
0000001100000000
0000001011110110
0000001011111001
0000001010100100
0000000111011110
1111100010011110
1111100101000011
1111001111011011
1111000011110101
1111111110001101
0001001001011100
0001000100010000
0001100001011011
0000010110111001
0000010010110000
0000010100100101
0000001100110001
0000010011000100
0000010001000010
0000000110001001
0000001110011010
0000011010011010
0000000000110110
0000001011111010
0000000010101110
0000010101111000
0000001001101011
0000011001000001
0000011111101110
0000010100101100
0000101001001110
0000011010001011
0000011011000001
1111110110111110
1111010110110100
1111010011010100
1111011011110110
1111111110001110
0000101111110001
0001100000110001
0001100001111111
0000001111110101
0000100000110001
0000010110001010
0000000001100100
0000001111001010
0000000011101110
1111110110100101
1111101001000001
1111100100100101
1110111010010000
1111000110000110
1111110010000011
0000010000000111
0000010101011001
0000011110011010
0000011100100111
0000010011001101
0000001100101001
0000000111011101
0000001011110001
1111111000010010
1110100101100101
1111100000111111
1111100001010000
0000001000100011
1111110101101110
0000101110000100
0001010101100011
0000000011010111
0000100000110010
0000001001101011
1111111001110111
0000000000000000
1111111011100111
1111101001011100
1111101101101001
1111101011011110
1111001101010000
1111011101000111
0000000110101010
0000000000110010
0000011001001110
0000010001110000
0000010001000000
0000000000001011
0000001101111000
0000001001011010
1111111000100000
1111100101011001
1110110000010100
1111110100111110
0000000101110111
1111111100111000
1111101011101001
0000101010100011
0001011010101100
0000000100101100
0000000100100010
1111111110001100
1111111110101100
1111110111010110
1111101110011011
1111110000011000
1111110010010100
1111100111100011
1111100000010100
1111111010000100
1111110000111011
0000000010111010
0000001000111100
0000001001110011
0000010100010110
0000011010101101
0000011000110100
1111110111000010
0000000110111001
1111101101010111
1111000001101100
0000100110111010
0000001100110100
1111111111000000
0000001100101001
1111111010110010
1111011100000011
0000000100000011
0000001011010101
1111011100011110
1111111010100000
1111110000110010
1111011111110111
1111101110000011
1111111010111010
1111110011110110
1111100111110110
1111100001100110
1111100000101100
0000000101101001
0000000011111010
0000100011111000
0000010101010011
0000001110001111
0000000011010001
0000000100010110
1111111000100010
1111011011011110
1111110000000010
1111101101000000
1111110100010111
1111110110101010
0000100101000101
1111011111111011
1111010100101011
1111110000000001
0000001001010001
1111100000010000
1111110000110100
0000001110010010
0000000000101100
1111110100110101
0000000011101100
1111110111110011
1111111011001111
1111011100100001
1111010101000001
0000000010100000
0000001111010101
0000010001111110
1111111111100011
1111111101011000
0000000000110110
1111110001110101
1111010110000101
1111011101000000
1111100010101110
1111110011110110
0000010000111000
1111100111100110
0000000111000100
1111111100001111
1111110110110111
1111010011010100
1111101011000111
1111110101001100
1111101111011101
1111111001001001
0000011000111000
0000000100010110
1111110110101011
0000001000011001
0000000100100110
1111100111110100
1111110011000011
0000000001100100
1111111011110000
0000000111000000
0000001101110001
1111111101110001
1111110111110000
0000000110010011
1111100001101000
1111110100110000
0000000010111001
0000100101001111
0000100000011101
0000000110000101
0000101001100100
0000010001100000
0000011111000101
1111000100100011
1111101000111101
1111110100111010
1111100011010000
1111101101010111
1111101100110101
0000000000000011
0000000100110011
0000000000110010
1111010111101111
1111111101111000
1111111110010000
1111110101100100
1111110111001111
1111111101100010
0000001000101001
1111101101100001
1111101111101000
1111101001011100
1111100100110010
1111001010101101
1111001111000010
0000110111011110
0000100001011101
0000011100111000
1111111100010111
0000101010000011
0000110101010011
1111011110011010
0000000100101011
1111011111001010
1111100001000100
1111010101111101
1111110011000111
1111101001001100
1111100101100110
1111110101000010
0000000001011001
1111110100000010
0000000010111010
1111110100011001
1111101110001101
1111110101000001
1111101001001000
1111101101110111
1111110100011001
1111011001110101
1111011101010110
1111110011101100
1111100100100110
0000011100011111
0000010011101001
0000000100001011
0000000001111100
0000001001010011
0000001011100000
0000001100010101
1111010111010000
1111000011111110
1110101010111100
1111010000101011
1111010101011111
1111000110010011
1111001000111000
1111101110001101
1111111111101011
1111110101010001
1111101000100100
1111100111001101
1111100110111001
1111100011001001
1111010000011010
1111100010111010
1111001100001110
1111010100101011
1111011110111001
1111101101001100
0000100111111101
0000000111010101
1111111100011011
1111111111010001
1111110111110111
0000000011110000
1111110001001001
1111101110111011
1111010001010111
1111001010001011
1111001000011000
1111000111011110
1111100000000100
1111011010000001
1111100101111000
1111100000000100
1111111110011110
1111110011101001
1111101100110110
1111101010101001
1111101011101011
1111100011011100
1111001000001011
1111011001110001
1111101000101010
1111100001001110
1111010110010111
1111101010101111
0000010000010101
0000000010111011
1111010000010000
0000000111101101
0000000001010100
0000001101111100
1111011001001101
1110111110001001
1111101111011001
1111111001010010
1111100101100001
1111110011100011
0000000100101001
0000000110000011
0000000000010000
1111100011101100
1111110000111110
1111011011100001
1111101101010001
1111101000010111
1111101000100110
1111101001111101
1111010010011101
1111100101010101
1111100101101111
1111100011101111
0000000110111110
1111111100011011
0000011010011111
1111101100011001
1111001101010001
1111110110111110
1111110110101100
0000000111101100
1111000110011101
1110010111010100
0000000011001101
0000001011111001
1111110001111100
0000001010101011
1111101000101001
1111101111101111
0000000101100101
1111100111001010
1111100000110100
1111101010001100
1111100000100100
1111101010110110
1111100010101101
1111100111100100
1111100011000011
1111101001100010
1111101000101000
1111101000110010
0000001011101001
1111111100001011
1111111001100001
1111001010110001
1111101000100101
0000000010110010
1111110101111111
1111111010011101
1111011111101001
1111010000000111
0000010110000111
0001001011000010
0000000011000000
1111111010001110
1111111001100101
1111011111011011
1111101000111011
1111110001100011
1111100100001010
1111101010101101
1111100011101011
1111101011011111
1111011110110011
1111111101010001
1111101010000101
1111110010001000
1111111011001000
1111111010101110
1111111000101100
1111110011110110
1111010010101111
1111010110000111
1111111101001110
1111111111100001
1111111110110000
0000000101101111
1111010010111101
0000010110110111
0000100100110100
0000100110101100
1111110110101010
1111110001011000
0000000110101111
1111111100001010
1111110001100110
0000000111100101
0000010011010110
1111111000110001
1111111100010001
1111111011001001
0000001100110000
1111111010010100
0000001010111101
0000000101110100
0000010110000000
0000010001011111
1111110010011101
0000000010110010
1111110110000110
1111110110101010
1111111000101110
0000001000111010
1111110110100111
1111111010100110
0000000101011000
1111111011101001
0000010101011010
0000011001101111
0000101110001110
0001100000111100
0001101011011101
0001101011010001
0001010101110011
0001000100101101
0000101010000111
0001001010011011
0001011011011011
0000111000101000
0001001001000101
0000110001110000
0000110000010000
0000100100010011
0000010111010111
0000110100011001
0000101101110001
1111111011111011
1111010101010010
0000010110011001
0000000000011110
0000000010110101
1111110110101111
0000000101000001
1111110101101110
0000000110100110
0000101000100010
0001001001110100
0001101110100001
0001010100111011
0001110111000101
0010001010001110
0001011011100100
0001010010001111
0001000110011000
0010111111010111
0010101010100010
0010011010011010
0010011110001110
0011000001010010
0001011010101110
0001010010001110
0000001010011101
0000011111000100
0000101001011010
0000110101110000
1111110110100001
1111111001010001
0000000011001001
1111111011110011
