0000000110011100
1111111010100000
0000000111101001
0000000111000001
0000000010000010
1111110111001100
0000000010111110
0000000100011101
0000000111100010
1111111011000111
1111111001101011
0000001001001000
1111111110010110
1111111000011011
0000000100010100
0000000001100011
0000000001001101
1111111111000011
1111110110011110
0000000001001111
0000000001101100
0000000011001000
1111110111010111
0000000110110101
1111110110011101
0000000001010010
0000001010110000
1111110101111110
0000001001110101
1111111101110100
1111111111010000
1111111011101111
0000000101100010
1111111000111010
1111111111101110
1111111111111101
0000000011110011
1111111000010101
1111111100010110
1111111011011010
1111110110100111
1111110111110100
1110110110010001
1111001000000101
1110110101000101
0000000010000001
1111110101011111
0000001000100100
1111111010100111
1111111011100000
0000000101100000
1111110101111110
1111110111001010
0000000101000000
1111111110000000
0000001010000000
0000001001000111
1111111011100101
1111110101110010
1111111001101000
1111111111000010
1111111000000001
0000001100111011
1111111111100101
0000000100101100
1110110100000010
1111010100010101
0000111001101010
0000001001110011
1111000011110010
1111101010100000
0000010110000010
0000001001101111
0000001011101111
0000000010011111
1111100010111001
0000000010001101
1111100001111010
1111110100110001
0000000111100101
0000001000100010
1111111000011011
0000000001011110
1111110100111100
0000000101011000
1111110111100011
0000000110011101
0000001011100000
0001101111111110
0000101011000110
1111110001110111
0000000111100110
1111110000010111
1111100011010010
1111010000000001
1111011101101001
0000011101100011
0000000100110000
1111110101101011
1111111101111101
1111110011000010
1111111101100100
1111111011000000
1111100101000110
1111111110000010
0000011100100011
1111110010010101
1110111101001100
0000010100100100
1110010001011100
0000000000111101
0000000110110111
0000001000111001
0001000001110100
0000111100111000
0000111010011110
0010010101101001
0000101011011001
0000110110010100
0001010010111110
0000000110001100
1111111001110101
1111101001101011
0000001101011011
0000001111010111
0000010010000001
1111111010000100
0000100010001110
0000000111101110
1111110111010010
0000111011110000
0000001110100110
1111010001001111
0000011100111101
0000010001101010
1111100010111100
0000110110100010
0000011000010001
0001100111100101
1111111010001100
1111111111101010
0000000110111100
0001101011111011
0001001000011010
0001100000001010
0000011111000110
0000010101111010
1111100000110111
1111111111010011
1111111101011010
0000010110010011
0000001110010111
1111110101110100
1111101110011100
0000000001101110
0000010000010011
0000000011000111
1111111010010101
0000000110101111
0000000010111000
0000000011101010
1111111010010110
0000010000001100
0000011111111110
0000000100001010
1111111010110101
1111111101110101
1111110010100000
0000000001010000
0001010000101101
0000101100111111
0000101001111000
0000101000010010
1111101111000111
0000100010100010
1111111011111111
0000100011001110
1111110011101011
1111110100001001
0000001000011100
0000000110100001
0000010111111100
0000000011010100
1111101010100010
0000010001100100
0000000001010010
0000001011000110
1111110100100001
0000001000100010
0000000001100100
0000001010100010
0000110000011100
0001000111111001
0000000101000010
0000001111111010
0010001111100010
0000000110001001
0011000000000111
0000110111100111
1111110000111111
1111100101011010
0000000000011010
1111111111100011
0000000110000011
1111111110001010
1111101000110011
1111101000110111
1111110001111000
0000001000000100
0000000111100111
0000010111111111
0000001111011000
0000001010010001
0000010100101100
0000001011111011
0000001000001111
1111111100100110
1111111101010110
1111111001101111
1111101000111101
0000100000001011
0001000000010001
1110110100101011
0010011111001011
0000000010101110
1111101001010111
1111000110100000
1111011111101100
1111101001101101
0000101001011111
0000010000000110
1111010101111110
1111111101011100
1111110111111000
1111111001100010
1111101100000000
0000000000101110
0000001001000110
0000000011010010
0000010000011010
0000010011100001
0000000101100000
0000000110011111
1111111010100011
0000001010001010
0000000010101101
0000010000011100
1111100100111101
0000110011111100
0001011000001110
1111001000110101
0000111111100011
0000000001111110
0000000000010000
1110100111011110
1111100001110101
0000001010100000
1111101111011001
1111111111101100
1111110110101011
0000000010001100
1111110001111000
1111111110011111
1111111100101001
1111110000000011
1111111000110001
1111111001001001
0000000100111000
1111111100111001
1111110001111101
1111110110000111
1111110010010111
0000000001011011
0000000101100000
0000011011001010
1111111100010000
0001010001010110
0001111011010000
0000000010011000
0000101001001111
1111111101100001
0000010000111111
1111010111111001
0001011001010111
0000001000011100
1111011110100001
1111100110011101
0000000110111101
1111111010010110
1111100101001100
0000001011010110
0000000111001010
1111111000001100
1111111111011100
0000001101000001
1111111100000001
1111111001001101
1111111110111001
1111101111000010
0000001100011110
1111100101111110
1111100110011011
0000011010001010
0000011111101111
0001110000111101
0010111111110100
0010000100101101
0000001101000011
1111110101000111
1111111001011000
1110100010001011
0000101100001010
1111110000100000
1111101101011011
1111110110011010
1111100100111100
1111110111110001
1111110010111101
1111101000110010
1111101110101001
1111111011110011
0000000010010011
0001000001111100
0000010000100011
0000000100111000
1111101010010000
1111111011101011
1111110010010001
1111110001010110
1111001001000011
1101111111011001
1111110001011111
0000010100000101
0010110011000001
0010001000110010
0001011110011100
0000000100111100
1111100101101111
1101111111110110
1111111010100000
1111100001111001
0000000001011100
1111010000001010
1111111000000001
1111111110111100
0000000110010100
0000000011010101
0000010101001111
0000001011100011
0000011100010110
0001000111000001
0000000001001100
0000001101000001
1111110100000000
1111111111010001
1111011101100101
0000001111001110
1111100001000010
1110000000100101
1101110100110100
1101111111101010
1111111010001101
0000110100000000
0000111111101010
0000000111101110
1111110000100110
1111000100111001
0000011111001001
0000011101000010
0000110100101010
0000001001101011
0000010010000101
0000001010100011
1111111111111110
1111111111100001
0000001100111011
0000001111000110
0000101001011110
0000100011100111
0000001110000010
0000010001000001
0000000101100010
0000010010000111
0000001000111110
1111000010010000
1111011110000110
1111000110110011
1110011011011100
1101010110110100
1110101010000000
1110110011111011
1111110110011000
0001011001001100
0001011011110101
1111111101100000
1111000011001001
1111101010110111
1111011000110011
0000001010100000
0000010001011110
0000000001001000
0000011000010001
0000001000111010
1111110000000100
0000010111100010
0000011100010101
0000011001100111
0000001100001110
1111011100110011
1111110010110000
1111110000111101
1111001111101110
1111010000000001
1111110110111010
0000000011110111
1111101111011110
1110110011010001
1110100111101011
1111101100111111
1111110010011011
0001001110101010
0001000000110011
0001101001001101
1111010110001100
1110000111111000
1110001101101001
1110111100001111
1111000010111000
1111111100000011
0000000000000100
1111111111100110
0000001000111100
0000101000111101
0000100000110101
0000001100000000
1111111111011111
1111110101011011
1111101011000110
1111110000001101
0000000101111110
1111111100110011
0000011001110011
1111110110100001
0000100101101000
1111011110100001
1110011000001001
0001010100101111
0000000001011100
0000000101100000
0001100111111111
0000100011100000
1111111001011011
1110110111000110
1111000011101100
1101100110011110
1101001010110101
1110001101100100
1111101100101001
0000110000001111
0000100110011011
0000110001110001
0000001100001000
0000001010010001
1111001110011010
1111110001101000
1111100000111001
1111110101001101
0000011111000101
1111111100100001
0000010110001000
0000011011001100
0000010011001011
0000100111010001
1101101110001101
0000100001100110
0000000111101100
0000001010011100
0010001010001110
1111011111101010
0001010111011010
0000011011110111
1111111001100100
1111011001000100
1110000100010111
1100011000001101
1010111000100000
1011010000100001
1101001101111011
1110110101000001
1111010000011111
1111100001000010
1111100101101000
1111110110011010
1111110100101011
1111111001110100
0000011000110001
1111110010101011
0000010110000000
1111111101000100
0000011011111100
1111000111000011
1101100111111010
1110100100011100
0000011010100100
1110101101110011
0010100000101111
0000011100111111
0010011010011000
0000010001100011
0000011011001001
0000110011100000
0000110000101010
0000010000001100
1110011110010101
1101011110000011
1100110100000001
1101101111100010
1111000111101000
1111100100111100
0000000001100111
0000010000000010
0000001010110101
0000000111111000
0000011001111110
0000001100101100
0000100111110011
0000000110111110
1111010110111110
1111000000011010
1110001010101111
1110010111011000
0000110011011111
0000011001110000
1111000001101110
0000001100111011
0001100110111100
0000100010000101
0000011101100010
0000101100011110
0000110010010100
0001000011111110
0000111100001001
0001001111100010
1111110111011010
1111011001101110
1111110110110100
1111101101111010
1111111000011011
1111110110000000
1111111110111011
0000000100011011
1111110001011111
0000001111110001
0000011100011010
0000001001011100
0000000111000011
1111001011101000
1111100101111111
1111011000001100
0000100111100010
0000000010001111
0010100001001101
1111010000000110
0000001001011100
0000111011001110
1111101011111110
0000010111000100
1111011011101011
0000011011111000
0000010101110101
0000100010110001
0000100011001101
0000000101111101
1111111100110110
1111110011010011
1111101011100110
1111111101101110
1111111011001101
0000011000110010
1111111100011100
0000000101100010
1111110111110010
0000010111111101
0000001101101100
1110110111101010
1110100100110000
0000101000000110
0000100010100010
0000010000000001
0011000110000111
1111010011010011
1111011000101100
0000011001000010
0000001110010011
0000101111001001
0000001000111010
0000010101101010
0000000011010110
0000000011000100
0000001110111100
0000000100100010
0000000011110001
0000000100011010
1111111111001011
1111110000101010
1111110111101110
0000000101100011
1111101110001000
0000001110110100
1111111011011001
1111111100010111
0000001010101111
1110100101100100
1111000110101101
0000011011101011
0000000100001001
0000011111111000
0001010100110000
1111110000010000
1111110010000100
0000011001010100
0000010001011110
0000011011001000
1111101001000000
1111100100010111
0000001010010011
0000011110100100
0000001010100001
0000000101011101
1111111110001001
0000000011000101
0000000010011001
1111110110110101
1111111001111010
1111110100011101
0000010110000010
0000100101010100
1111101101110111
0000010011110010
0000101011000001
1110101111000011
1111001110001000
0000111110011111
1111110111111001
1111111100000110
0000000111000110
0110101110010011
0011100010001010
0001111001111100
0000110100101100
1111101011101010
1111011111111001
1111111110001101
0000110100010010
0000110101001000
0000010010000101
0000010111100101
0000000111100000
1111111100100000
0000000011110111
0000000010010101
1111100110100010
0000010011000110
1111101001100001
0000001001000111
1111000111000001
1110111011011001
1111001011111101
0000000001010100
0000111111100111
0001011001000110
0000000101001100
0000001000011111
0000001001001101
1111100000001000
0001110010011110
0000110010110100
0000110011110000
0000101010100111
0000010110100110
0000011010110000
0000010011100010
0000001100100101
0000000001001100
0000000101001000
0000001010111100
1111111110001011
1111111000110001
0000000110100111
0000001010101111
1111010000111010
1110101010110001
1111110011011110
1111110101110100
1111111111111111
0000010011011111
0000000101100100
1111010111100001
1111010001010011
1111111100100010
0000000101110001
1111111011100000
0001011100000110
1111100101111101
0000100100100100
0001001100001100
0000101111010111
0000011011001100
0000100000001101
1111101001011010
0000001000011010
0000010010001101
0000001111100010
0000001110000000
0000000110101100
1111110000000001
0000010011100011
0000000110100100
0000101101011001
0000101000010010
1111100110001000
0000100101110010
0000000011100100
1111011110000111
0000110110101100
1111110100111101
0000000010011100
0000001000110110
0000001001111110
0000000000011001
1111110101001111
0000111100000011
0001011011000010
0001100001001011
0000001101100111
1111111100001100
1111011010000100
0000101100001101
0000010110000001
0000010100001001
0000010000010101
0000010011101111
0000011110111000
0000011011110011
0000011000001101
0000011111111011
0000100110100110
0000100110100001
0001010111001110
0000110100001000
1111111010111011
0000100101101111
1111111101100101
0000000011101111
1111110110001110
0000001001101010
1111110111011011
0000000010110010
1111111001100100
1111111111110011
0000000000100100
0000000100101010
1111101001001010
1111100001111101
1111110110011001
1111111101111111
0000101000011001
0001000100111001
0000011100000100
1111111111000011
0000010111010111
0000101100101100
1111001111110001
1110101100111001
1111100111110111
1110111000010111
1110001110010000
1111010100101100
1111000001101101
1111110110000100
1111111100001000
0000001001100110
1111111111110101
1111110111011101
