1111111101001011
1111111110011101
10010011
1111111111100100
11000001
100000101
1111111100010110
1111111100110011
10101001
100101011
1010011
10101
1111111010111001
11011000
1111111111011000
1111111110011010
11010011
10100101
1101100
1111111011001100
1111111101000001
1111111100100100
1011
1111111101111001
1111111110110100
10000110
10001011
1111111111110101
1111111111100100
100111010
11110011
110101
10
1111111111011011
1111111110110000
100111001
100111
100001001
1000101
11001111
11111
101001110
1111111100010011
11011
101000001
1111111111010010
11011101
1111111110000000
1111111100110111
1111111100001001
1111111110010011
1111111100110000
1111111100111110
10010100
1111111101010110
1111111110001011
111101
11111
1111111101010101
11100110
111100
1111111011000110
10100
11011111
1111011
11100111
10010011
1111111101000000
11011011
1111111101001101
1111111111111100
1111111011111011
1111111101110010
1111111001101110
1111111011100001
11111111
1111111011110011
100000000
11100011
1111111101000000
1111111100110100
11100100
110010
101000001
11101010
11101100
10010111
1111111101110101
1111111111100111
1111111100000101
1111111110011100
1111111011111100
1111111101000110
1111111100001110
100010001
1000010100
101100100
111001101
1001111110
1101011
1111111111000110
1111111001011001
1111111111101001
1111111110100110
10000
1111111110010000
1111111010100011
10001111
1111111101100000
11100001
1101
1111111011100010
11001100
100111100
1111111100101010
11111
100100
1111111000111111
1111111011001101
100100010
110000000
1001100110
101100101
1010011000
1111111101101011
1010000100
100001010
101111110
100001101
1010001111
1100010111
1111111111111101
1111111011111000
1111111001101001
11000001
1111111011101111
1111111011110001
100111
1111111111101100
10010000
1100
11101100
10010001
1111111110110110
1111111101001011
1111111001111101
100110100
10011001
1101101101
11110111
1001101011
10010010011
1001010010
10010010101
1101000010
10010100
1011010011
1011100100
11011100
1101101110
1111111000001111
101111001
11001011
1111111111001001
1111111001110110
1101100
10110011
10100100
100000001
1111111111100011
1111111100010111
101000110
1111111101010010
1111111010101111
1111111000100001
100010000
1111
11001000
1101100100
1101000010
1010111001
10111011001
10001010111
1010001
101010110
10101111
1111111111101010
11010001
1111111111100011
1011111101
1101111101
1111111111101011
1111111001001100
1111111010101111
11101000
10000110
1111111011101100
1111111101100110
1111111111000110
1101100
10001010
1111111010111000
1111111010111101
11100110
1111111111010110
100010110
101000110
10010111011
1001011111
10110011110
1011100001
1111111110010100
101000000
1111111000010010
1100000
110111101
1001110
110000110
1010011
11110101
1111111010101100
10101111
1001111
1111111010111000
1111111110010001
1111
1111111010110101
11100110
1111111001001010
1111111110111011
1111110111011001
1111111100111111
1111111111111110
1111111101000001
1111111000100010
1000000
1100000111
110001101
100011110110
10110110011
10000011010
110101010
1001000001
1111111110000100
1111111000000101
1111111110111110
110110
1011001001
101110101
1100110
1111111100010010
10101101
1111111100111101
1010110
1111111111011000
1111111100111110
1111111111011110
11001110
1111111111011111
110010
1111111010110010
100011110
1000110011
1111111110001000
110101111
111101101
111000
10111
1000010010
110100111
10101011111
11001100
1111111111010001
1100101110
10010111
1110001000
1000101110
1111111111110000
1101010
1111111110010100
100011001
10111110
1111111101111111
1111111100010110
11000
1000000101
101101100
1011010
110010110
10011000
1010110010
1011011010
1000100001
1111111010001111
1111110110100110
1111111001110100
111011101
10001110011
10111000101
1111111101000010
1111111111101111
1001001100
1100111001
1011001011
1011010010
100110110
100000010
1111111110010101
100100101
11000010
10101001
1111111110010101
1111111011111010
1000100010
10001100101
1001111111
1111111111000101
110000001
101000110
101111000
1111111010011100
1111110010000011
1111101010010000
1111101001100001
1111101010111111
1111111000011011
1101110010
1111111100110100
110110
11000010
1111111101100111
101110
1110010100
101011010
1000
1111001
1111111111000001
1111111011101010
1111111111001111
1111111110110111
10100001
1100000001
1111111110
1111111101000100
10110001
1010011100
1111111100010001
1111110111000000
1111110001111110
1111100101101001
1111100101110001
1111100000101000
1111101110010111
1111110010111101
1111110010010111
1111110010111011
1111111001011111
1111110101000100
1111000
110011110
111010100
1111111100110100
100000001
100100010
1111111101111001
1111111110100110
100000010
1111111011101101
1011
10000101
110100001
111100000
100101000
111010011
1111111111100101
1111101111011010
1111101000100011
1111101101011010
1111110010111011
1111101101110000
1111100110011010
1111110001011101
1111101100011010
1111110100010110
1111110101110000
1111111100010100
110101011
10111100
1001101100
1111111100111100
1111111110001100
1111111101010101
10000111
11100010
1111111111100100
1111111101101100
111010000
101010101
111100111
1010100101
1111110011111000
1111110001001011
1111110011000111
1111101100110000
1111111110101111
1111101000011110
1111111011010101
1111111000011001
1111101000101111
1111101100000011
1111101011101011
1111110100101010
1111110100110000
1111110011100111
100101000
1001000000
101000111
101010010
11000100
1111111010101110
0
1111111110101000
1111111100100101
1111111001111111
1111111100110010
1111111101100101
1111111110111000
1111111011011010
1111110010110011
1111110110111111
1111111011011100
1111101100010011
1111110010100000
1111101111111000
1111101011001010
1111101100010010
1111101101101000
1111101111110010
1111110000111011
1111110011111100
10001110
11100100
1111111000001010
1111111000110111
1111111011011011
1111111111010110
1111111101110111
1111111011111000
1111111010100111
1111111100110111
1111111110000001
1111111010101000
1111111101100110
10100100
1111110010001101
1111110100101011
1111110011101000
1111110110000011
1111110011101000
1111110100010001
1111111000010000
1111110111001011
1111110101101101
1111100010010011
1111100101101010
1111101001010010
1111101100110011
1111111001110000
1111111100000010
1111111010010011
1111110101101110
1111111011010100
10000100
1101011
1111111101000010
11111001
11010011
100111101
101000101
11010001
1111111011010011
1111111010111010
1111111000101000
1111101011011000
1111110001100011
1111110111111000
1111110101000111
1111101101000010
1111110011101100
1111110111100010
1111101000111001
1111100001001100
1111100001100010
1111110110110001
1111110110101000
1111111010100000
1111111110000000
1111110011100001
1111111110101011
1111111010111010
1111111101110110
11101111
11110110
1001100
1111010
10100011
1101000
1111110111100110
1111110110110111
1111111001001100
1111110101001111
1111111101000101
100001010
1001001110
111101
1111110101111001
1111101111000001
1111101110110011
1111011101011000
1111011111001110
1111110000111100
1000100
1111111101110100
1010101
1111111111010000
1111111100111011
10010011
1111111100110001
1111110101110011
101
1111111011011010
100001110
1111111011110101
1111111111011001
1111111100111010
1111111011100111
1111111001101011
1111111001001010
101011000
111100011
10001011
11110011
1100010
1010011000
111011
110100
1111101011101010
1111110011110011
1111111110011001
10010000100
1111111101001011
1111111011011110
1111100100
1111111001011111
100111010
1111111001111011
1111111111111100
10101010
100010101
11001011
10101100
111010
1111111100000010
10011111
110000001
1110101010
100010110
1111111100101011
100010000
1111010011
1100101110
10011101110
10111011000
100011010
1111111110101011
10010111
1011001100
1111111011010100
1111111000101010
1111100001
1000000111
1111010
1111111111110100
11010010
1111111100011110
11011111
11011011
1001110
100000101
1111111110111111
110010010
1000011100
10110100
110001000
1010011
1010010
111010
1011111000
1100111001
1110001101
1110000011
1000011011
1111011011
11000100111
1110110101
1111111010110101
1111111110111000
1111111001101111
100100001
101001001
1101100001
1011110110
1111111111110110
1000110
101
1111111101101010
100000001
101010
1111111101000011
111001101
1111111111011101
10000111100
1100000011
100111100
11000010100
10101010000
1001010101
1110000000
1110110100
1111101110
1001111010
110001010
1010101110
10001001111
1110001001
1111110110100101
1111111110100111
1000010101
110100110
10111001
10101
10111110
11010
101000111
100100000
11110111
1110101
10111011
1111111101010101
100110000
1000100110
1111111101010110
1111111111001011
100101000
1010010011
1011110011
10000111110
10001101
1101111001
101110101
1001100010
11001110001
1010001001
111101011
11100010
1010011
111001010
1111111110010001
1111111011010010
1111111100000010
100101100
1111111101010001
1111111100001101
100010111
1111111101111111
1111111110101001
1111111011001010
101101101
10010101
110110100
111110010
1101100001
100111000
110101010
1011000011
1101110
1000011111
1010010101
1111011001
10101100000
10110010011
1111111110000100
1111111100001110
10111110
101001001
1111111110110100
1111111110101011
1111111101101110
10111100
1111111111110011
10110110
1011101
1111111110010011
1111111110101110
1111111110111001
1111111101111011
1111111111110000
1111110111110001
1111111011011010
1111111001100111
1111111000001111
1111111111011110
1111111111111000
1111111000000001
1111110101011100
1111111001010010
1111111111111110
100011001
1111111110011000
1111111101001000
1111111101101111
10101000
1111111011010111
101001100
100100001
1111111110101010
1111111111110011
1111001
1110011
10100101
1111111101000100
100001111
1111111110101011
100010010
11010100
1101110
1111111110111101
1110001
1111111111100000
1111111010011011
100001110
1111111110100101
110111110
1000110000
100110101
11110110
101110111
111011010
1111111100001110
1111111101111000
11101
1111111101100110
1111111011111000
1110
11001011
11001010
1111111010110111
1111111101000001
1111111101011110
101001111
100110100
1111111
1111111100110110
101010010
11010010
111
1111111100011011
1111111010101101
111
1111111111011000
1111111101010110
10011001
1111111011101110
101010000
11101111
1111111101111000
100001100
1111111010101100
11001111
1111111111010011
1111111010100010
1111111110101101
11010011
110100
