11110111
1111111111010110
11000010
1110101
11100010
1111111011111111
100010001
1111001
1111111101100011
11101110
111101
1111111111001000
11110
1111111101001010
1111111010101101
1111111101111011
1111111010111010
1111111011001010
1111111011010001
100001101
1111111111011001
1111111101110101
1111111111010011
11101
1111111110101100
1111111101101011
1111111100001001
1111111101111000
1111111110001100
1111111101010110
101001110
1111111111111110
1111111110001010
1111111100100010
101011011
11010110
1111011
1111111011101111
1111111101001001
1111111110101011
100000100
1111111101110000
100111110
1111111111110111
1111111101100011
1111111100011011
1111111101110010
100100100
10011001
1111111011111001
1111111101100100
1111111100110101
101011
1111111011011100
1111111110000010
1111111101100001
1111111010100011
1111111101101111
10101001
1111111010110000
101011010
1111111101001011
100100001
1111111110101000
1001110
10001111
1111111111001110
1111111100101111
1111111011110001
1111110111110111
1111110110011110
1001001
1111111101110000
1011111
101110100
100010001
1111111010011111
10101010
1111111100001011
1111111100011101
10000101
1111111111000111
1111111100010110
10011100
100011111
1111111101110110
100000100
1111111111001101
1001110
1111111100110110
100101110
1111111101011111
1111111010110101
1111111101011110
1011011
1111111101100100
1111111110101011
1111111110111000
1111111111111101
1111111011000101
1111101011100111
1111111100000001
10001101
10001111
1110101
111100000
1001111101
1111111110010100
1111111111111001
101100000
1111111110010000
1010100
1111111101000010
10000111
10111001
1111111010110100
101000101
1100100
1111111001110000
1111111001100101
1111110010011001
1111110111101011
1111111100101010
101000011
1111111111010100
1001010
1111111000100101
110101
1111111110000110
1111111011110010
1111111110110000
1111111101000001
1111111111111101
101011000
10001010
1111111101100111
11110001
110100111
1111111100010001
11000010
1111111011010111
1111111100101100
100101101
1111111010100001
100000110
1111110110011111
1111111000011100
1111110111110001
1111110111000111
1111110010011110
101000
1001100110
1010011101
1111111011101010
1111111010101001
1111110000000101
1111101100010011
1111110100011010
1111011110001100
1111110010011101
1111111010001010
1111111010101000
100001010
100000111
11111111
1101010010
1111111101100111
10101011
101010101
10011000
10111110
1111111011010110
1111111010110111
1111111111101010
1111110001111110
1111110101011100
1111110110111110
1111101111000011
1111110100100000
1101001
101100010
1111111001011111
100000011
1111101101110001
1111100101010000
1111111000010001
1010110
101101000
111000101
1111111010011101
1111111100111001
111010010
1000001010
110110001
101100000
1111111110100111
1111111011111000
1101000
10101100
1111111111010110
1111111100101010
1111110101110010
1111111000100010
1111110010100000
1111111011101110
1111111010100010
101100
1011011111
1111110110110100
1101101
1111110101111100
1111110111100011
1111111001100100
110010011
1100001010
11001011010
1110011111
1001101111
110010001
11000000
1011001000
1001001101
1000101000
11101101
1111111011111001
10011101
101000
10000
1111111101111101
1111111100000100
1111111010110110
1111111111001010
1011010
1010101000
1000001010
1111111111001110
1111111010111101
1001101001
1111111100101111
110101001
10011000
11110100
1111001011
1100010100
1001110
10000010110
1110101
1111111111101100
11010011000
10000010110
1101011
11011010
101001101
100101110
1111111111100110
1111111001101110
1111110011100001
1111110000111010
1111111111100100
1111110110111101
11000101
111011110
1000110
1001100000
1000100100
101010000
1111110110101111
101000
1111111110101000
1001001011
1101101010
1011000100
10111100000
10101110110
10010100001
1010010011
10111101011
11000110101
100011011
1010011
100000110
101000001
1111111001010110
1111111011100011
1111111011000010
1111110100011101
1111110011110010
1111111011011110
1110101100
110011110
1111100110
10011100010
11010011001
1111111010000101
1111111000001000
1111110011001100
1111101011110100
1111101011011110
1111111000011101
11111100
10000010100
10010011110
10000111000
1010101001
10000110110
10010011010
11001011
1111111100100101
1111111111101111
1111111011101100
1111111000100100
1111111010010010
1111110110101111
1111111100111100
1111111011100011
1111110100111000
1111111111101100
1010111100
1001100010
1111111101110010
1111111011110011
1111101110001101
1111100110111101
1111100101010100
1111111001000110
1111101010111001
1111101000111000
1111110010101110
1111110111011010
1111111000110011
1111111010010100
111101001
1000101011
1000101110
1011010110
111111
10001
1111111011111001
10010111
1111111011110100
1111111010000000
1111110010001100
1111111110010111
1110111
111011
110100111
1010111000
1011011110
1001
1000100111
1111111100001100
1111111001110010
1110100111
1111111100101101
1111100110100111
1111101111010110
1111111000010000
1111111101111110
1111110011101111
10010110
1010001
110100111
110000111
1111111101010000
10110101
10001111
101111
1001010
1111111100110010
1111110101001110
1111111000111011
101011111
1010100
10010100100
1000100001
11111000
10010001101
1001010110
10100000000
10101101111
10011010010
11111011
1111110110111111
1111111111100110
1001011100
1111110110110110
1111110000101010
1111101101110101
1111111111010000
101011101
1111111110101100
1111111100010100
101110
1111111100111111
1001001
1111111011100011
1011111
1111111000011100
1111111101100000
1111111111011110
10001000
1011011
1000010010
1000011101
10000100011
110011010
10100011011
1010111001
1000000000
11111001
1111111100001001
0
1111111010101000
1111110000001011
1111111001111000
1111110111011110
1111111101101000
100011
11
11001101
11011100
10110110
1111111011100000
11100001
1111111110010101
1111111111000101
1111111000111110
1111110010101101
1111101001100111
111000
10100000
111010110
1111111101
10001010
1100000010
10011111
1110100
1111111000101101
1111111101001010
1111110111101001
1111110001000110
1111110011101000
1111110101100011
1111110001110111
1111111011100101
1111111110100101
1111111110010101
1111111100001111
1111111110011000
1111111100000000
1111111111110110
1111110
1111111101100011
1010100
1111110010100100
1111110010111010
1111101101110101
1111111010111101
1111111110011010
1111111010011110
1000100000
1111110110000110
1101
1001001010
1111111001110110
1111111001101100
1111110011000001
1111101100101010
1111101011100111
1111110111000111
1111111011000010
1111110000010100
1111111000000110
1111111011001110
1111110111111111
1111111100001011
1111111111111000
10101101
110101
1111111101110101
1111111111111010
1111111001110101
1111111011010011
1111110001001011
1111110101011011
1111111011011010
1111111001110101
1110111011
1111110101110110
1111001
1111111011110010
110101111
1111111100000011
1111110110000110
1111110101110010
1111100100101110
1111110101001011
1111110001110001
1111110100011111
1111110101100111
1111111010001011
1111111000100010
1111111001010111
1111111100100011
111010
11110100
1111111010100000
1111111110011101
111111
10011011
11000000
1111111110011010
1111111110110101
1111101001100001
1111110100110101
1010100001
111011
110000110
10001111011
1011001001
1111111100111011
1111111000111101
1111101100000111
1111101110001101
1111111000010100
1111110000110011
1111110000110000
1111101111010101
1111111011111100
10101100
1111111010110100
100111101
10011001
1111111101011011
1111111101110100
1111111011101010
0
10111101
1111111101001101
1111111110100000
100110010
1111101100010011
1111101001000100
1111101101101010
1111101111110101
10010010
10000000011
110010011
11101011
1111111010111000
1111110111001101
1111110110110111
1111110001001010
1111101110010000
1111101101011100
1111110110110000
1111111110000111
1111111010100001
100101100
1101010
1111111100111001
1111111011100001
10011000
1111111101011000
1111111000001010
11011101
1111110110010001
1111111110000001
1111111111011110
1111110101100010
1111111100010101
1010111100
11110110
1111111011111110
1111111011011010
1111111111111000
101011011
101101111
1111111110011000
100110100
1111110000110000
1111110001101001
1111111001111011
1111110100010010
1001001
1111111101001110
11001
100011011
10111011
1111111111101100
10101110
1111111110011010
11010010
1111111101000010
1111111101010001
100011100
11111000
1000000110
110000100
10110111100
101
1111111010101110
1111111000010111
100010001
1111111001001110
1111111000001010
1111111101010010
1111110110100010
1111101000101100
1111110101000111
1111111111010111
1111111001001011
1111111111101110
1111111110001101
10111110
11110101
1111111100001111
10010010
100000000
10111010
11011100
10011101
1111111110110111
1000011011
1001001110
11100011
1000101100
1001110000
111111011
11110110
1111000010
1111111011001111
1111110101000000
1111111110101110
1111110001110100
1111111100011000
1111101101100000
1111110010111100
1111111110010101
1111111101111110
1111111110000011
100101100
100111011
100010010
10010010
1111111100100001
1111111100000011
11101011
1111111101001010
1111111011100010
1111110111110110
1111111010100110
100100101
101101011
10010000110
1010101001
1101010111
111100101
1011000010
1111110011100011
100000001
1111111100111110
1111111110111111
1111111001000111
1111110011000011
1111111011100010
1111111
1111111000101101
1111111100011101
11000010
11110101
11110111
101011001
1111111010100011
1000011
100101001
1111111101101110
1111111101000011
1111110101110001
1111111100010011
111001101
1110111110
11001100
1111111110110001
11100101
1000111100
100111000
1111111001000110
100010111
1111111000000111
1
100100
1111111101110111
100100101
100011000
1111111101100101
1111111011000000
111010
1100111
1111111011111100
11110010
1111111100110010
1110110
1111111011001011
10101111
1111111011111011
1111110111011100
1111111000111001
1111110010111101
1111110110010010
1111111000001100
1111111111110001
1111110111110111
1000000010
101110101
1111111111100001
1111111011100101
1101
100010100
1111111101010111
1111111110001000
1111111100010000
100101001
10101110
11011010
10100010
10101110
1111111101110010
1111111100111001
100101110
1111111010100100
100110111
10011110
111111001
101111001
1111111010011010
1111111110101000
10011
1111111111101101
1111111101001111
1111111101000011
1111111001010010
10101000
101110011
101010
110110011
100100101
1111111100110111
1111111101111010
1111111110111100
1111111101100000
110111
100001101
100001110
100100
10110111
1111111110010111
1111111111110111
1111111110001101
1111111010100101
1111111101111110
1001001
1111111011101101
1111111110010011
1111111100110001
11011
1100
100011
1111111110010000
1011001
10010100
1111111011110001
1111111011001100
1111111100011100
1111010
100111100
100111100
10100100
1111111100100011
10000000
1111111100111101
1111111011101101
100011
1111111010100011
