1111111011100110
10011101
1111111111001011
101
1111111110001111
101011011
10011110
1111111101001000
1111111111101001
100110101
1111111110101100
10011110
1000
1010
1100011
11111
1111111011010011
1111111111000101
1111111010110100
1111111110101011
100001110
1111111110011111
11001
1111111010111100
100110100
1111111101101001
100110100
11000011
1111111100010011
1111111101100110
1111111111101110
1111101
100001010
1111111100011010
10111010
1111111101110011
1101011
11101110
1111111011000001
1111111100001111
1111111110110100
11110000
11000000
100000000
1111111101101101
1111111111010110
1111111110011011
11000001
1111111110001001
100000000
1111111101101111
1111110
1111111011001110
110001
1000100
1111111101001111
11001101
11100000
1111
11111110
1111111111010101
1111111101110010
1111111111010111
1111111111001000
1111111010110000
1111111000111011
1111111001100010
1111111011110000
1111111001001110
1000111
1111110110010100
1111110111100010
1111111011010000
1111111010100001
1111111100100110
1111111110000000
1111111111001110
1111111100000101
1111111001111011
10110010
1111111111111101
1111111111100100
111010
1101001
100000001
1111111100001111
1111111011011100
1111111101011111
1111111011101011
1111111010101010
1111111110110001
1111111010001110
1111111001000000
1111101111111111
1111110100101010
1111110110101111
1111110000001001
1111101111010011
1111101101000110
1111110010111110
1111110100001010
1111111001101100
1111110011011001
1111101101111010
1111110111100110
1111111001011011
1111111110101100
1111111001011000
1111111010100011
1111111100101101
1111111101100001
1111111010100001
1111111011110000
1111111011011111
1111111110100111
10001011
1111111101000111
1111111101001000
1111111111101110
1111111000011100
1111111001101110
1111110001000011
1111110101000010
100111
1111111111100000
111
1111111111010001
1111111111011101
1111110110101100
10101011
111011110
1111110111001010
1111110101111001
1111110100101100
1111110101001001
1111111111101000
111000000
1010011001
1111111110011011
10110
1111111010110100
11000110
1111111011100100
0
100010010
1001010
110011
1111111111111101
110
1111111101000100
1111110100000011
1100101111
1011100010
11001001
110
101001111
1111110011101101
0
1111110111111001
1111110011101001
1111111111110001
1111111110001111
1111110110000110
1111110111100101
1111111011111001
10000111
1111111111011010
1111
100000000
100111011
101000111
1100100
1000011
100010010
1111111110111011
1111111001011011
1010010100
111100110
1000001101
1100111001
1100010101
11010100111
110101110
10011101
1000101
1011011110
1111111111100100
1111111110101001
110001011
1011100011
1110101100
100010001
1111111010100110
1111111110111000
1111111011110110
1111111110011001
1111111011110011
1111111100011011
1111111111111110
110000001
1111111101111010
1111110101000100
1001010011
1111111100000111
1111000001
10010111011
11010000000
1111111100011111
10101100110
10111001000
100110100
10111010100
101111
1001000000
100000001
1111111010100001
1111111101101101
1111111111111010
11011100
1101010101
100110110
10000001
10111110
10010110
111111
1111111110011100
110000000
110001000
101110111
1111111111000110
1110100011
10110000
10100011010
10011100011
11001001
1001000011
1011001111
10001011110
10011101011
1100111000
11000101111
111101111
1110000100
1111111100010100
10101000
100101000
110111011
1111111110110000
1110000011
11101111
11010011
1111111110011010
1111111111001001
10101000
1111111101110011
101101000
10101010
101111101
1101111010
111111001
111011111
1001111110
10001010010
10011110100
10110001001
11001010011
100000110000
10010101110
10010100001
11010101010
1111010011
1001001010
101110101
100101010
111001110
110101011
110111000
1010011110
11000101
101110010
101000001
11101011
100011110
100010111
111100010
100001110
1111011000
1010101011
1011100
1101011101
1110000110
1100010111
1111111111001010
1010001011
10110000000
100101100
1011001000
1011111
1000110010
1010110010
10010
1110
1101111000
10100001100
1101011110
1101011011
10100011
1111111100010011
1111111010110100
1111111110101111
11010000
1100100100
1010001000
100101111
101111101
111110010
10000110010
100001001
1111111100001111
1110111010
1011000010
1101001011
10011000101
1110100110
1111110010110100
110111101
1111110111010001
1111111001010111
1100011101
1001011
10110011010
10010101101
1101011110
1010100110
1001100
1000111
10110000
1111110
1100011
110011100
10011111110
1101101011
111001001
1111111101110011
1111111100111011
1111111100000010
1111111010111001
1111110011111010
1111110000000101
1111111001010110
1111111011100101
1011001
1111111100000000
1111111110000011
1111111001010011
10111001
1111111100110000
100010010
10000111110
1100101100
1111111100000101
110001010
10011101
1111111110010001
100111110
1111111100001000
1111111100010111
11010100
10000111010
1111001
1111110111010110
1111111111000101
1110110
1111110110100001
1111111000101100
11000110
101010110
1111110101100011
1111111001000000
1111111101110010
110000
1111110111110100
1111111010110011
1111111001111111
101011001
1110011010
1001110111
1111111110011100
1111101110101101
1111111001110010
1111111011101110
111
101111
100000100
1111111110011010
101110000
1001110
1010
1101
1111111010000100
110000000
10111001
1111111001111110
1111111110001001
10001001
1111111001101101
1111101111011100
1111111010110110
1111101111101100
10011001
11000101
1111111100001100
1001110011
101100000
1111111101001100
1111111010011011
1111111100001000
1111111110111110
1001010
10111100
11100111
1111111100100010
11011110
1111111001100101
1000001010
11101001
1000111011
1111111101010110
111011000
1111111101111011
110110110
1110110110
1111111011011011
1111110001111011
1111111010010010
11010
1111101011101111
1101010
11111011
1111111101000011
100100011
1111111000111010
1111111100000010
1111110100101100
1111111011110011
1111101110001010
1111111011101110
11011
1111111100110111
1000001
110000011
1111111010010000
1111111
1000100
10110011
10101000
1111001111
1010100011
100011010
11111010
101000001
1111111010010100
1111101110100100
1111101111011111
1111101100010010
10110
1111111011011110
1111110010100000
10001010
1111101011100010
1111111100111110
1111110111110011
1111110001100110
1111101000000001
1111110111111110
1111111101110000
10101110
1111111100010010
1111111100101010
1111111110010011
1111111100100100
1111111101001100
100011101
1111111010100111
111110111
10001111011
1110000101
11010011
11001111
11101010
10111000
1111111010110001
101001100
1000011110
1111110110101000
1111111000110111
1111110101100010
1111110001110010
1111111111001101
1111111001010100
1111111101011101
1111101000111111
1111110111111111
1111111010100101
1111111100001111
1111111100110011
100000111
1111111000001011
1111101110101010
1111111010110000
1111111110
1000001
100101
1111111110001011
10010001
101100111
1111111111110111
1111111001010110
1111110100110110
1111110010011101
1111110111010011
1001010011
1111111101100101
1111111101100011
1111111100001010
1111110010010011
10101000
1111110110010011
1111110100010011
1111101011011110
10110110
1111111100101001
1111111100110010
1111111111100100
1111111101100011
1111110111001111
1111101111001000
1111111001101111
10100110
111010
10011011
1111111011101010
11111001
1111111000101101
110001011
1111110001010101
1111110011000010
1111110100000011
1111110110110101
1111111110011001
1111111001010001
110101101
1111110110001110
1111101110100100
1111111000010100
1111111010100110
1111110000100110
1111111010100011
1111111000111010
100111101
1111111100010100
1111111011000010
11000100
1111111000000011
1111110111011110
1111111100010000
1111111101001011
1111111010110000
111011
1111101100111101
1111110111001110
1111110100101100
1111101011010010
1111111100101001
1111111010100101
1111111011010111
1111110101101110
1111111100010110
1111110000111110
10011010
1111111100011000
1111110010110101
1111111010100101
1111111011001010
10000011
1111111001011000
11110101
1111111101110010
11101001
1111111100001011
11000110
1111110010110000
1111110111110011
1111110011000011
1000100
1111111101010111
1111110101011011
1111110100000101
1111110111110110
1111111001100101
1111110010011110
1111110000000100
1111110010111011
1111111101011001
11011000
1111110100011110
1111111010100001
1111111010010100
1111111111101101
1011
1111111011011111
1111111000010001
1000000100
1111111110011001
1111111110100010
1111111111101011
101001111
10011010
1111111010100010
1111110111110000
1111111000000101
1111111001101100
1111111110111110
1100001
1111111101001110
1111110111110101
1111111011010010
1111110100110110
1111111101010000
1111111001000011
10011010
110011001
1111111100100010
11101101
10111001
1111101111001101
101101
1111111000100110
1111111101111001
11100111
1000110001
101101001
101001
1111111110100110
1111111111100010
100011101
10000101
1111111101111001
1111111100001101
1111111111101000
11011100
1100110010
1111111111011100
1111110010010010
1111111111001011
1010010
100101111
1010000001
1111111110101100
110010010
1011100111
1000010010
1111111100110111
1111101111110101
1111110001010001
1111110111001010
100111111
111001011
101000111
101001
11101000
1111111010101001
1111111011111000
100011100
100100000
111010001
100100011
1010111000
10011010011
1100100111
100110110
1111111000101010
1100100111
1110001010
1011010010
10000001001
101101110
1011111111
110110100
1111111011111010
1111111100110001
110011
1111111111111011
1111111110111110
111101000
1010000110
1111111110110100
1111111001100001
1111111100100110
11110010
1111111100110101
1111111011011011
1111111100001111
1111111100101110
11
1001000011
111111100
1110000100
1111000000
1110101101
10011111010
10000101101
1110100101
1110011100
11000010111
10011100000
1111011100
10101000011
1100101101
11100110110
10101100010
1101100010
1001010
101110011
11101100
1111111101001111
11011010
10000111
101101
1111111100110011
1111111100011011
1111111110011111
100101111
1100111
11100000
1000101000
10000011011
1011110111
10110101001
10010000001
10011011100
11000100111
100010100010
10110110000
10101110010
11011011010
11001110110
10010001001
1110100011
1010101110
100111100
100100100
11010100
1
1111111010110000
1111111110001111
100111001
1111111100110100
1111111110011000
1111111101001111
110
1111111011000111
100110100
110111010
1111001
10110011
101000111
100110010
1111111101100011
1111111111001001
11010010
1111111100111000
1111111110001111
1111111111101101
101101010
100001101
1111111100000001
10000
11000001
1111111101010011
100000111
1111111101011011
1111111011000011
1111111110011010
