1111111111010011
1111111111100100
1111111011100101
1111111110011001
1111111100010001
100111000
1111111011001011
1111111011001010
11010
11110011
1111111101010111
10
1111111010100010
1111111111000010
11010001
1111111101111100
1111111101101011
1111111101110001
1111111011110111
1111111110001010
1111111111100001
11001010
1111111110101000
10100111
1111111101011110
10010
101010100
1111111101010110
11011
11000000
11011110
1111111101011010
1111111111100100
10111000
11011
100010010
1111111101111110
11000101
10010100
1001100
101100010
1111111100100001
1111111111001110
10100111
1111111101000000
1111111100001010
101001101
1
10011011
1111111110010000
110
1111111011011001
1111111110011101
1111111111101101
1111111010111000
1111111110001100
1111111010101001
1111111011100100
1111111100010100
1010000
1111101
100001
1111111010100111
1111111111100011
1100100
1111111100001000
11100001
1111111101000100
1100101
101010101
100111000
1000100110
1111111101110100
10101011
1001011
100101011
1111111011110100
100101011
1111111101100111
1111111100000101
1111111110100100
111111
100101100
1111111010100001
1111111111001011
1111111010101111
1111111100011011
1111111110000010
1111111101100000
10101101
1111111101010100
1111111010010001
10011011
100010000
1111111111001011
1111111111111110
1111111111011110
101111000
1111111101000110
101110101
101100010
11011000
1111111100001000
11100000
1111111100110111
11001101
11001
10111001
100100010
1111111010100110
1111111110010000
11110
1111111011101010
1111111011100011
1111111100000111
110111
10010111
1111111011110010
1111111010101101
1111111000101010
1111111110111101
0
10011100
1010110
10101101
10111011
1000111111
111111
101100100
1011001101
1011000010
1010000100
1010101010
11101000
100011110
1111111000011110
1111111000010111
10000101
1111111110010000
1010
1011
10000001
11000101
1111111101000001
1111111100100110
1111111101100101
1111111010101010
1111111110101110
100110010
10011110
1001
110010000
10001011011
1001111010
1001001100
1001010001
1111111110100110
10111101
1001000100
10111110
1111111111000000
10011000100
1101100
1111111010001001
1111111101110110
101000011
1111111001111011
1111111101010101
1111111011010100
1111111100010000
10010011
1111111101111111
1111111011001011
1111111001111000
1111111100001111
100000100
1111111101111100
10100001
1111111110111011
111011111
1110110110
110111011
1111001
1111111110111111
11110100
1010111001
11001010
1100001010
101101011
1101100110
100111110
101000101
10101010
101010001
1111111000010111
1111111011110100
1111111100011011
10001
1111111011110000
1111111101100010
1111111011010000
1010101
1111110100100111
1111111101110100
1111101110001110
1111111110111110
100001010
1111111100110011
1111111110101100
11001011
1111111111110101
100010100
1111111100101101
100000
1001000111
1000110110
111000010
10111
1011000111
1001111111
110101001
1111111111100100
1111111011001011
1111111110101110
1110110
1111111111101001
1111111011101101
1111111110100111
1111111110100010
11001111
110000110
110111010
1100100
111111100
101111001
100111000
1011001001
1110000010
10011011
1111110111001100
1111101011010000
111100
110001011
1000010001
1111111
1111110011011110
100111010
10000011110
1111111110110100
1111111011011100
1111111101011100
1111111110011000
1111111100000110
1111111100011001
1111111111001010
1111111111100000
1111111100110100
1010111
111001
1001001
1111111111011111
110110110
1111
1111111111011110
1111111001010110
101001110
1111110
1111111011001000
1111110111111111
100001010
1110101100
11011110
1111110110101011
110111000
1100
1011010110
11011011
1111111001001111
1111111101110000
1010011
10001010
1111111101001100
1111111101100000
1111111010101101
1111111000011010
1111111001000001
110001001
1111111101000001
1011010
1111111110001110
111100111
10000
101
1000011000
10010110010
1011101001
1111111111001110
111111111
1001000011
1011011
1111111100011110
1011111111
1001001001
100111011
1111111100000110
1111110101011101
100010
1111111111010001
10100
1111111111010000
11110100
1111111110010111
1111110100000001
1111111111001111
11000110
10100011000
11001011
1011100101
11000001
110000011
11000111011
11001011110
11110111011
1100110010
10010001
1001010
1111110010110000
1111111101110010
1111111110101010
1111111101101010
101001110
101001101
110110110
1111110010001110
1111110011011010
1111111010101010
1111111111001001
1111111111011011
1111111011001100
1111111100111001
100101
1001100
1111111100000101
1000110111
10
1000100011
1111111001001000
1001100110
1111001001
11011001010
10010100100
10000000101
1111111101010110
101011011
1111111000110101
1111111001010011
1111111110110001
10101001
1110110001
1001010100
111110
1111111001110010
1111111010100011
10111
101111
100000111
1111111100011110
1110101
1111111111100000
1
1111110010111100
1111111110000001
1111111011111111
110101111
11001001
111101010
1111111001010001
100001111
10001001110
11001100011
1110001000
1110011
1111101111110010
1111111100011000
1001111000
1111111010110001
101001
1001101
110011011
1101101
101001010
100010000
1111111100111110
100010111
1111111111100001
101000001
1111111010000100
101000001
1111110101010110
1111110010110100
1111110110100100
1111110100000100
1111101101110100
1111011
1111111110011101
1011011
1010010001
1010000011
1010100011
1111111000111010
1111110011000011
1111111110101100
1111110000100011
1111101110001011
1111111010101010
1100000
1011110
100111100
100000011
1111111111100011
10101
1001111
100101001
1111111110011011
1111111110111011
1111111000011110
1111110100011000
1111110000100110
1111110100001100
1111110111001010
1111110100011000
1111111111001001
100000
1100101101
11100010011
1011100000
10100011
1111101101001111
1111110100111001
1111110010001101
1111101001011010
1111101101011111
1111111010010100
1111111011101000
1000001
11100110
110101
110000
1111111100001110
1111111110001011
1111111111101111
1111111011101111
1111110111100011
1111111000111011
1111111010110001
1111110110000111
1111111110111001
1000110110
1111111011001001
1111111101101011
1111
11011
1010110101
1100010110
1111111001110010
1111101111111100
1111110110100111
1111101010011000
1111101110001001
1111101100000101
1111110001011111
1111111101000010
1001100
1001110110
10001011
1111111101111010
101000110
110110
10100011
111101
1111110010111110
1111101101101001
1111110100001000
1111110010100001
1000000010
1000101101
10001001001
1110110010
1010010011
10010111
1110010
1111111000101010
1111110000000101
1111100101011101
1111101111110001
1111101010010001
1111111010101101
1111111101110011
1000000
1111
10000010
11001100
1111111100001001
1111111101101100
11011110
1111111100010111
1111111111100000
1111111111111001
1111110111011000
1111110101001010
1111111010101101
1111110101001110
1111111111010001
10110001101
10100000100
1110101100
10010101001
1110101100
1111110000111110
1111101111101101
1111100011000100
1111110000011010
1111110011010000
1111101110101100
1010010101
1111111010000111
1111111111101011
1111111111100011
1111111011111011
111110001
1111111111001010
101101000
11010100
100010001
1111111111110111
1111111100110000
1111111001001100
1111110010101110
1111111101110000
1111111110100111
101001000
10110111111
10010010100
101000101
10001011
10110001010
1111101011000110
1111101001000101
1111110001110000
1111101101110110
1111101000000000
1111110010110100
1111111110110010
1111111100011100
101011101
1111111100101110
1111111110000101
10101101
0
10111010
100111000
10010111
1111111100100011
1111110111001011
1111111010100100
1111101111011111
1011100
1110101110
10010101010
11001111
1010111011
1100110100
1111111111
11101011
1111110011011110
1111101110110111
1111101100111101
1111101000010001
1111101110001110
1111111101111111
111111111
1111111100101000
100110
1111111101010111
1111111111001010
1111111011101100
0
1111111011101101
111111
1111111110000101
1111111111110100
1111111101101100
1111111000100110
10101010
1000000110
1000111100
1001100010
10000011100
11111100
100101110
1010111100
101010
1111111011010110
1111101111001011
1111110110101011
1111110111101101
1111111010010000
1111111110001000
1100111
1111011
1110100
1111111101010110
1111111011110111
1111111101011100
10011001
100111100
11100
1111111101000010
1111111100110011
1111111010001100
1111111111000111
1001101011
1010101001
10001111101
101101100
101100000
11011100
1010010111
1111111101110001
110000101
100000101
1111110100100000
1111110101111101
1111111011111101
11011110
1111110110011100
1111111111001000
11110001
1111110
1111111111010010
1111111100101010
1001100
1111111110010010
1111111100100111
1111111010111010
1111111011111000
1111111100111111
1111111100011000
1111111101010001
1111111111110110
1111111011100000
110011100
1
111000101
10010111
1111110110000100
1001010010
1111100010
1111111111110001
1101
1000
1111111101111000
1110000
1010110010
1010101
10110001
1111111010101100
1111111000100000
1111111111000110
1111111100011101
1111111111010011
1001010
1111111111011010
100011000
1111111100000101
1001010
1111111111011110
1100100
111110
1111111101100001
11111000
1111111011100010
1111111111101011
1111111101101110
11101010
111010111
10000010110
101101010
1111111000001001
1111100101011101
1111111011110110
10111011
110011
1111111100111000
1111111101000110
1111111010010001
1111111100001111
10110011
1111111101111000
1111111101010101
1111111100000001
1111111010110000
1111111100110101
101010110
11100010
1111111010110110
1111111111110011
1111111101000100
1111111001000110
1111110100110011
1111111011101110
1111111100100001
1111111010111010
1111111101100001
100011000
1111111100100101
1111101111000000
1111111000000110
1011100
1111110100110000
1111110001011011
1111111100111110
1111111010100011
1111111111000110
1011101
1111111111010000
10011110
1101001
1111111111000110
100000111
1111111110110101
1101110
1111111001111110
1111111001011011
1111111101110001
1111111000110000
101101
1111111100011000
1111110111100001
1111101111110000
1111110110011000
1111110010010111
1111110101111110
1111110101000100
1111111010110110
1111111000111001
1111110111001111
100010
1111111010101101
1111111100100111
1101010
1111111111011001
100011
100000001
1111111100011111
10111110
11110111
10110001
100100101
1111111111000101
1001011
101100
1111111011101011
100011
110010
1111111011110001
1111111111100000
1111111010111100
1111111001111111
1111111010110000
110100
100011000
1111111010101001
1111111011011010
100101100
100011100
1100001
1111
100010111
0
1111111100000010
1111111101001001
1111111010101111
1111111111010000
