11000
1111111111100110
11111001
1111111011100100
101001101
10110100
101011111
1111111101010111
101011110
1111111011100101
1111111111111110
1011110
1111111110010010
1011001
1111111010101111
1111111011111000
1111101
1111111111001111
1111111110011000
10001100
1111111101000110
11100111
1111111100100101
100000111
101001101
100100111
101010010
1111111110111111
1111111010100001
10101100
101000111
1111111011100001
1111111110011000
1111111111110101
10001010
1110011
10101010
100010010
1101
1111111101100100
1111111101100010
1111111111110001
1110100
1111111100111101
1100001
10011010
1111111101001101
1111111011011000
1011101
1111111011000011
101010010
1111111101101111
1111111011111110
1111111101101011
1111111110110110
1111111110011010
11010101
1111111010110011
10010100
1111111010110011
10001
1001111
110101
1111111111110001
11011000
110111
1111111101000111
100101
110111
1111111101001100
10011101
1111111011101111
10110011
1111111110111111
1111111111001011
1111111111001010
100011
1101000
11010100
10011100
1111111110100110
100101101
11100011
1111111111101011
100001101
1110111
1111111011001101
1111111111111101
10010001
100111011
100110
1111111101100010
11100111
1111111101110011
110100010
1001101001
101111110
110011101
110110110
1010000110
11101111
11100
1111111111010010
1111111011010001
110100100
1111111000101010
1111111101110011
1111111100011000
1111111011110000
1111111100111011
1111111110000001
1111111111111110
101001
1111111110010111
11001100
1111111101011110
1111111110001011
101011
100100110
10111100
110100010
100110011
1011010101
1111000010
1101000001
1011100010
1101101000
10011111101
1111000011
110010111
101010011
110011111
1111111111110010
1101111
1111111110101110
1111111111100010
1100001011
1001010111
100010010
1111111111101100
110101
1111111110011011
1111111111011110
1111111111001111
100111111
100100101
11110111
111010101
1010000100
110000101
1110010010
1011100010
1110100010
1001110110
111011100
1000000100
1000011001
1111111111111111
100111110
1011101110
1011111010
1001001
1111111100101111
10011100
1010110011
10110
1010110
1111111111111101
10001101
1111111010111110
1111110
1111111111010100
1111111101111000
1010110110
1000101000
11010110
1100010100
1101110111
1001111
1111111110100001
10001110
1111111101101000
1111110111001010
1111110110110100
1111111111000010
1001101011
1100111001
10000001
1001000000
1111111111110101
10111110
11001
100100011
110001001
11000101
1111111010111010
1111111100100110
10001011
1111111011001000
1111111101101111
101000100
101011011
100101110
1111111110110100
1000011100
101110110
100010001
11000001
1011010
1111111000000011
1111111100001110
1111111000010001
1111111010111101
10011100
10001110
101100
100111011
10001110
100000010
111111110
1111111110010000
10100101
11001010
1111111111100001
101010000
110111
1111111100001100
1111111
11110
1001001
101010000
1111111010101011
11111101
1111111111001001
1111111101001000
10100101
1111111110001000
1001110
1111111111010001
1111111011000110
1111101100010000
1111110011101010
100110011
11101001
100000111
1111111111001101
1111110
1111111110001011
11010100
1111111011111100
111101
1111111011110100
1111111111111110
1100110
1111111101110010
101110
11000000
1111111101101001
1111111100011000
1111111010010111
1111111111110000
1111111001010110
1111111011011011
10100010
1111111011111100
10110111
1011000111
101111001
1101000101
10000101100
110110001
1111111011101011
1000001
1111101110110010
1111111101000110
1111110100001111
1111111111010010
1111111110000010
11010010
100011011
11110110
10110001
1010001
101001000
1111111011011010
1111110011101100
1111110100100110
1111101110110111
1111111000010000
1111111101100011
1111111100011111
1111111100010011
1111111001110001
10001101101
10000010011
100001
100011110
1011111011
1001101011
1101110001
1111110111100010
1111110101101110
1111110011110111
1111111001011101
1111111101111110
100101001
1111111101001011
1011100
1111111111001010
1111111111010110
1111111111111000
1100010
1111111001001101
1111110111000110
1111110010111001
1111110001111011
1111111101111101
1111111101110101
1001011110
1100011000
1100001011
1000110111
10111011
1011001
1111111010010110
1111000101
101001111
1111111001101100
1111111000110110
1111110111011000
1111111000111100
1111110110111100
1111110101010100
1111111001010000
1111111100001010
1111111110111110
101000101
1111111101111110
1111111011000110
1111111111010011
1111111001111101
1111110110000000
1111110000001111
1111110010100000
11011
1111111111100011
1011010000
10000000101
1011011001
101101011
1111111101110011
11111000
101100111
1111111011111110
1011111
10000101
1111111001011010
1111110110011010
1111111001001111
1111110001000011
1111111000000000
1111111010000010
1111111111111110
1111111011011110
1111111011111111
101000000
11011001
1111111100001001
1111111010110101
1111110100001111
1111110011110010
1111110110101111
1111110110100110
1111111101000010
1111110101111111
10111101
1100000001
10000100111
1111111110
110111101
110010111
101
1111111101001010
1111110111011000
1111111001001000
1111111001000000
10110111
1111111110011101
1111111110101101
11010110
1111111111111111
1111111110101011
100100101
11100
1111111110110000
10011101
1111111001000110
1111101111010010
1111110000101010
1111101111100111
1111100110000001
1111011111110001
1111100000000010
1111110011010111
1111111100100101
1111111111001101
1111111110110110
101011101
1111111011000011
1111111101011000
1111111001010101
100111110
1111111010010010
110000100
11111
1010111001
1111111110111100
100100101
1111111100110000
1111111110101111
100001
11001111
1111111011110011
1000111
101011010
1111110110110110
1111110101101000
1111100111101111
1111011111111000
1111011011100100
1111010101001101
1111011110001011
1111100110100110
1111111000111001
1111110101001101
1111111001101001
10100101
1111111011111010
1111111111010011
1111111110010101
11010000
1111111101100100
11011000
110011011
1001110
111010000
1111111111110110
1
1110010
1111111100101010
1111111110111001
1001011
100000101
10010100
1111110011110010
1111101110100111
1111110001101000
1111110011000001
1111110011111000
1111100100010011
1111100001000010
1111101100111110
1111110100000001
1111111000000001
1111111111001000
11011110
1000000010
101111100
110111110
1011010010
10011111
1000111010
1101001
10110010
10001101
1111111111111100
100110
1111111111011100
1110000
1000101000
100101
11110111
1111111100011111
1111110110000110
100110100
1111111101100100
1111110111001111
1111110111101011
1111110101011011
1111110110010101
1111101100110000
1111100101011011
1111111010100111
1001111
110111010
11011101
10001011
1000001101
1111110111101001
100000110
1111111101001111
10010100
100101001
1111111110001011
1111111110110111
11111111
10101101
1101010011
1000000100
111110001
1111000011
1110101000
1111001110
101000000
11111
11000011
1111111110011000
1111111010100011
1111110111101100
1111101101100110
1111111111000010
1111111011001011
1111111010100100
1011011010
1001011001
110110111
1111111111111000
110101101
100110000
1111111011001111
1111111010111010
1111111110110000
11000011
1111111100100001
1010110
110011111
1001110110
10001000100
101111110
10001001110
111000011
1000001110
1101010101
101101110
1100000011
1101111
111010110
1111110010010111
1111110110011100
100010100
1111110111000000
1111111111010111
1111111110001111
1111110110100000
1111110101100100
100111100
1111111111111001
1111111001110011
11101
100111011
1111111101100001
1111111111101010
11000
11001
1001100
111011011
1100101001
110110101
1110101111
11101001
10101100
100110
1111111100110001
10001010
1111111110000011
1111111101110101
1111111100011110
1111111010100011
1111111000111110
1111111010010010
1111111111100010
1111111100111101
1111111010010010
1111111101100001
1
1111111110010100
100100001
1011001
1111111111111100
1111111101010100
1111111110001001
1111111010011100
1111111100010000
10010100
10111111
100100011
1010011111
100110010
1111111110111011
100111011
1100110
1001110111
111011110
110010101
1101111
111011000
1111111010001000
110111001
11001000
1111110101010101
1111111111100000
1111111000011010
1111111101010100
1010001
1110010
1111111111000011
110100
1111111100011111
1111111101000010
1111111111101101
101001
1111111001101001
1111111001001010
101111
111000
1111110111011111
11111111
1101001
1111111111010010
1000001111
1111000
101011111
1010110010
1010011001
11110101
101100
1111111101000010
1111111101010010
110001100
11110000
1111111100011000
1001001
1111111101100010
1111111011101001
101011111
1111111010111101
1111000
110010101
1111111111110111
100001100
1111111101101110
1111111011011010
1111110101001011
1111111001101011
1111111010110011
1000001001
10110101
1000110110
111011010
1000001100
100010
110111110
1011000100
110101110
1111111111100110
1111111100011110
1111111111001011
1011101
101001011
101000111
11101001
1111111110110011
10000011
1111111110100101
1111111101110010
1111111101000101
110
1111111010010110
1111111100101010
101001110
100000011
111101
10111101
1111111111100111
1111111100100100
1111111100111101
1111111111000100
100110001
1010000110
110111101
111000
11000000
1111111101001011
1111111010100100
1111111100000100
100011101
10000001
1111111100100001
1111111100001111
1111111100010111
11011
1111111101100001
11110111
10110110
1111111100010011
101010000
11101111
100001011
10101111
100001010
11011000
100001101
1111111111111010
10111
1111111111100101
11110111
1000100000
1110010
11011
1111111110000011
1111111010010000
1111111111101110
10111000
1111111010101011
1010001
1111111010110001
11011000
1111111110001111
1111111110110111
101001001
100100110
1111111110101000
100011
10001101
1111111101111110
1111111101000010
1110110
11000101
100100101
11110011
1111111001001010
1111111111110101
1111111011011111
1111111011011000
1111111101001001
111
1111111110001011
1111111011001111
1111111100111100
10100101
10010010
1010111
1111111111101110
1111111111000100
1111111011110011
1111111011011111
100000000
1111111101101101
1111111110101001
1111111110101000
100110111
11101111
100100011
1111111100010111
1111111100110010
11010101
1111111100011110
11001101
1111111100101100
1111111110101010
1111111110101101
1100011
1111111100111111
10000100
10110111
1111111010110110
1111111010101000
1011010
100111
1111111010101101
1000100
1111111110001010
1111111100101111
1111111101000101
