1111111110011101
1111111100011100
1111111111101000
111
101100
1010100
1101101
101001100
1111111010111011
11111101
1111111101011101
1111111110000000
1111111101010111
1111111101110001
100111110
1111111110100100
1111111111101010
1111111010101000
1111111101101101
11011100
1111111011111101
1110110
100011000
1111111011011100
1111111011111011
11101011
1111111100110111
11010011
10010010
101000101
101110
1111111011101000
11001101
1111111011111100
11010001
1111111011111101
1111000
1111111110111100
11011011
1110110
10101000
10000001
1111111011000001
1111111101101111
101011111
1111111101011011
1111111111010011
1111111100101110
1111111100010000
1111111110110110
1111111100001001
1111111101011110
100100000
10011000
100101110
1111111101011110
1111111010101110
1111111011000110
101001
1010110
1111111101001101
11101110
1111111111011011
1111111111101001
1111111010111101
1111111100110000
11110110
1110000
1111111100010000
1111111101000010
1000011010
111111110
111010000
1111111011111010
1111111101001011
1111110111010110
1111111111111011
1011101
1111111011010001
1111111110000111
1111111100101101
100101111
100101000
1111111110110101
1111111110101001
0
101110
101000000
1111111101100000
1111111101010011
1111111011000100
10100111
111101100
101111001
111000111
10000110101
10101110001
1101101101
10001100110
10001110101
1000010110
1001000011
1111111111101000
1111111100110001
1111110011100100
1111110100011010
1111111001100100
1111110011000000
1111111110001110
1001000
1111111100010011
100010
1111111100111010
10110000
1111111111001000
11000100
100010
1001011
111101
1111111100101010
111011000
10001001100
10001111101
10111010010
10010010011
11111010
1001010000
10001011100
10010001010
111010111
1101110111
1010100011
100000010
1111111100111001
1111111101111011
1111101111001101
1111110110101001
1111111101001010
1111111010110001
11001001
1111111111011010
1111111100001111
1111111110001111
1111111011101001
101010110
11001010
101001111
111011101
1010000010
1110111111
110111010
10010000000
1001101000
1111111000111100
1111111110011001
1111111111011101
1101010011
1111111101000011
1010100
11001001
1001001100
1100111
11010101
1111111010011000
1111110111000000
1111110101111101
1111111000110111
1111111011011011
100100111
1111111100010111
1111111101100101
10100001
10101101
110110
10000010
1000100101
1011110101
1011100010
10110010001
1001010111
110100111
1000
10010110110
1110010001
1011011
11110010
1011110111
1000001011
1000101101
1111111100001101
1001011000
1111111111101110
1111111110000001
1111111000011110
10111100
1111111110010110
1111111011010001
10111001
101000110
10010
1001101
1111111110111101
1111111101100110
1111111100111000
101111000
1010111010
1010111101
1011011110
111010001
1101010111
10011110110
1100011001
1101101011
1010100001
111000010
1100011100
111011
11011011
1110011100
1111111110001101
1111110101111011
1111111101010110
11
10011000
1111111100010100
1111111010111100
100111001
1000001001
11110101
1111110011111011
1111110001101100
1111110111010110
1101101
1011011011
1001010000
10111000111
10000001000
110011010
1010010011
10011011010
1010011111
1101010111
10111111
1111010
110100010
1101111
1001001001
1111111110000000
1111110000111110
1111111100111100
1111111010010100
1011100
11001101
1111111100010010
101001001
101010111
1111111100010100
1111101100101000
1111101100001101
1111110001111010
1111111001011000
101
101110011
1111110111011101
1111110111100001
1111010000111000
1111011001001110
1111101110100011
1111111100101001
1111111110001010
1111001011
1110000001
10100000
1111110111110111
1011101011
100110100
1111110000010000
1111111111011111
1111111010011000
1111111011011101
10000100
1111111111001011
1001010
1111110101111011
1111110100110010
1111100100000010
1111101000111100
1111100111011110
1111011110001111
1111001110110010
1111000110101011
1110111011111110
1110111101011101
1111000000010111
1111010110011100
1111101010011000
100111101
101000001
1111111110110000
1100000
1111111100101101
1010111
10100011
1111110101101011
1111110101011111
1111111001010010
10110010
10100100
1111111110001000
1111111100011111
1111110101011010
1111110000110011
1111101111101001
1111011111011000
1111011011010100
1111001110011111
1111001010111011
1110111100101101
1111001001001011
1111001111001111
1111100011011001
1111111010001011
1111111101010110
1000100110
1000001000
10001001110
1111111000011011
1111111100100001
1010111
1111110011010101
1111111110111110
1111110110101111
1111111001110111
1111111111100001
101100111
1101110
101101
1111111111100110
1111111001100000
1111110001111101
1111101101011100
1111100011001001
1111011110011010
1111100011100100
1111101110000001
1111101101101110
10011101
1110000
1001011111
10111001
111101010
111110001
1000111001
1111110101100110
100101000
1111110100000100
101000111
1111111001111101
1111101111010011
1111111001111110
10001011
11000101
101100010
1111111010110001
110110
1111111000101101
1111111100010111
1111111001100000
1111110100110010
1111110001100010
1111111100000100
11101011
101010101
1101001110
1100111111
11010001100
1011110111
1010001
100010
1111111111001010
10011101
1111111101000101
10110001
1111111001011011
11010010
1101100100
1111111001100000
1111111011001110
101111011
1111111111001011
11101
10010110
10100000
100000
1111110111111110
1111110111100101
1101010
101100101
11100110011
11001000010
1101000101
10000000001
1010011000
101011110
1101000
1111111111101110
1100101011
101001111
101000110
1111111101111110
11101101
1111111111101001
11110111
1010000011
1111110111100111
1111111011111110
1111111010100110
1111111100111101
101001100
1101111
100100111
11101110
1111110110111011
1111111110010011
1010011010
10101110101
11000111011
101110011
1111110100010111
1111111000011001
1111111100010000
101000
1111111010010010
1111111101100110
11010001
1001101100
1001
1111111100011111
1111111101111000
1111111010110100
1111110101100101
1111111101101010
1111100100111000
1111111111111100
1111111101111001
101110010
1111111111010100
11110100
11000011
1111111011111010
1111111100010110
1010100001
10110000011
1011110010
110100000
1111110011000001
1111110001110101
1010
11100001
1101111
1111111100100000
1111111110000101
100010101
101010100
1111111011100101
11110
11011001
10
1111111010110001
1111111010001010
1111101110001000
1111111010010011
1100101
1111111111001101
1111111111011110
10011110
1100000
11110001
10100010
101000101
101100110
111111111
1111111111000100
1111110011000000
1111111000001111
1111110100100001
1111111001110001
11111101
10100110
1111111010000000
1001010101
1111111101010110
1111111001110111
1111111110100100
1111111111001001
1111111111101111
1111110101101010
1111111000110001
1111110111101000
1111111000111000
101110010
1011010100
11101100
10001110
11010011
1111111111011110
101111111
101001110
110100
10011001
11000111
101101100
101101100
1111111101011111
1111110111101101
1111111100100001
1001011
1011110101
1100000101
101110010
111000001
10101011
1111111011101111
1011110010
1111111111011011
1111111100110111
1111111110001000
1101000
10110010
10110111
11001101
10100
1111111110101100
1111111100101100
1111111101011011
10001111
101010
1111111110000011
1001001001
110000001
1111111101000100
1111111110101001
1111111100011111
101000
1111111010000110
1000111001
1111110101110110
1111111110110010
1111111110110110
1111111110011010
1111111100101001
11011011
1011000010
1101110001
100110111
101100010
101010001
1111111101110101
1111111101111101
11000000
1111111110110101
1111111110001011
1111111110010010
1110111001
111000101
1111111111101001
1111111101000111
100010111
1111111101100100
10111
11101110
100011010
1111111111011101
1111111110000110
111110001
1111111101111011
101001111
1111110101010001
1111111111000111
11011
110011001
1011101000
11011
1010000001
1000000101
1111111110010011
1111111101000001
1111111111101011
11001000
1110111
10010011
1010011011
100010010
11111001
1011000
1000000000
110100110
1111110111101001
1001011000
1111110101101010
1111110111011011
101110
100110010
1111110001000010
111001
1001111100
1111111111100111
1111111100011011
1111111111001100
111
1111111001111101
100100001
10110111
1111111101111110
10011110
1111111011110010
1111111101100111
1001111
100100000
1111111110010101
10100101
1000011010
1111110010010101
1111111100100110
0
1111110011100100
1111111100010000
1111111101110000
1111110111110111
1111111101001001
1001000110
1111110100111000
100000110
1111111110110101
1111110010110101
1111111011111011
1111111010001000
1111110100011100
1111111001101000
100011010
111110100
100001100
1111111110000011
100001111
11010
1111111111111010
1111111100001100
1111111110100001
100101111
111100011
100100010
11001
1111111011101000
1010000
1111111001111000
1111111110110011
1111111010001110
111100111
1111111100000100
1111111100001111
1111111111100001
1111110111010001
1111110101111110
1111110011111001
1111111001101101
10110110
1111111100110110
111100001
111000001
1111111110000111
1111111100110101
1111111110110001
1010101
1111111011101111
100101101
10101110
1110011110
11111010
1111111111001110
1000011100
110111000
1001100010
11100101
1111111101000000
1111111110001010
100011010
101100011
1111111110001110
1111110111111100
1110111
1111111011100011
1111110111100110
1111110110011010
1111111011110010
1111111111101011
101001110
1000101
100111000
1111111110100010
1111111010100110
1111111111101100
1111111110000101
101010010
1111111100011101
1000010111
100111011
1011010
110101
100000010
100110111
101001011
1011010010
1000000111
10000100
1111111011010010
1111111010101111
1111111100110111
1111111110100011
1111111010001101
1111110011111111
1111111001000111
1111111001111000
1101010
100001
10010100
1111111111000010
11001001
10110010
1111111101111110
11011
10111111
1111111010100111
10000111
1111111011000101
1111111010000100
110101001
100001011
10001011
101011000
101100111
1111111111110011
10110100
1111111110011101
1111111101000100
10111000
11110100
1111111000100111
1111111011100100
1111111011111100
1111111100000011
100000000
1111111110110000
101001010
1111001
1111111010111010
10101001
100001001
1111111110110100
1111111101000010
10001010
1111111110100101
10011011
1111111101101100
11110001
1010100
1111111011111010
1111111011011100
11110110
1111111111110010
1111111111011100
1111111011001111
1111111010100100
100001010
1111111101011110
1011010
1111111100001110
1111111011011101
1111111110100111
1011101
11110000
1110110
100000010
100111110
1101010
