101000001
1101010
101001010
1111111111101001
1101110
1111111100111100
100011000
10011011
100100
1111111100010011
1111111111000110
1011011
1111111111101110
1111111011101100
1111111100110110
1111111101011101
10010
10001110
11110
10101
1111111100110011
1111111101011001
1111111010110100
1111111111001001
10100011
1111111010110101
1111111011101100
100001011
1111111010111100
1111111011001010
10110111
1111111010111101
1111111101101001
1111110
1111111101101101
1111111010110111
11001110
1111111111111101
1111111111001100
1111111101010111
11010111
1111111111000011
10111110
10111001
1101000
1111111010111000
1111111100111010
10001011
1111111011111110
1111111011100001
101000111
110111
1111111011110110
1111111010111101
1101001
1111111111000110
1000100
1111111011010010
11001101
1111111100010101
1111111111110111
1111111111000111
1111111010100010
1111111011111011
100111001
1111111000111111
1111111101010000
1111111001010111
1111111010001100
1111110111110110
1111110110000001
1111111000100111
1111111101100001
1111111011001001
1111111111001111
11111001
1111111011011100
1111010
100000011
1111111011011110
1111111111011101
1111111011000101
1111111010111010
1111111101010010
1111111100000010
1111111101101001
1110001
1111111111000111
11101
101101100
101000001
1001
1111111011001011
1111110111010000
1111110100101000
1111110000101010
1111111011111000
1111111001001111
1111111000011100
1111110110000111
1111111000001101
1100010111
1001100010
11111011
110101111
1111111101100011
1111111101000101
1111111001000001
1111111011100000
111011100
1111111111110010
11101101
1111111011111100
1111111111011010
1110011
101000111
1111111010100111
1000101
1111111100100001
1111111000010101
1111111011110101
1111111010000111
1111110111100101
1111110111001110
1111111000101010
100011001
11010010
1111111110111011
1111111010001101
1111110111001100
1111111011010111
11
1111111010001111
1111111100011110
1111110100110010
1111110100011101
11100010
1111111110000000
1101011
10000000
101001000
1111111011001101
1111111010100110
101010111
1111111110111110
1111111100110100
1111111110000001
1111111111001110
1111111001111011
1111110101001111
1111110010110001
1111110100001100
1111110001111001
1111111100110100
1111111010110000
1111111101010110
101110010
1011
1111110110010010
1111111110101110
1011001110
1111111111100111
1111111110100100
1111111010100011
1111111100000101
1111111011111110
1111111111010101
111001
101000110
1111111111110110
1111111111010001
11101010
1111111100000010
1111111101100110
101001
1111110011111101
10101
1111110100100011
1111110010101101
1111110001010111
1111110100011011
1111111111000011
1111111111100000
1111111101000100
1110000010
100100100
100111010
100101111
1111111101010000
1111110101100111
1111111101100100
1111111110100011
110100
1111111100110101
111100000
1111111100010001
1111111101111111
1111111100100010
1111110
1111111110000110
1111111111010110
1111111011001100
1111110110101101
1111110011110000
11101111
1111110111111100
1111110111111011
1111111110110101
111100111
100000010
1101110111
1001100010
110001010
11011111
1111111110010100
1111111111010011
100001100
1111111111011000
111100101
1001110100
1111111010010101
1111111111100101
100100101
100000000
1111111100000011
1111111111111100
1111111011000110
11101
110101
10010001
1111111001100111
1111111101011011
1111111000100000
1111111100101011
11100011
10010110
1110011
10011001
1111110101111100
1111110000000110
1111111000111010
100010110
10000110
1111111100100010
100001000
1001100111
1011001011
10001110010
10011100000
10010011011
1111111100010111
11010010
10110011
1111111111011010
1110010
101101111
1111111101100110
1111111010111111
1111111110101101
1111111010010110
1111110110100100
101010011
1111111010101011
1111111010011111
1111110011100100
1111111001001010
1111110110111111
1111110011010100
1111111000011001
10100100
10110101
1111111011010100
1111111101101101
1111111011100011
111001000
1011100110
10110010010
1111101111
100110010
1111111110110101
1111111100001110
1111111111110000
1111111100010101
1111111101101000
101000
1111111011001001
1111111001010001
1111111010101011
1111111111010110
101010010
1001011101
111000101
10111111
1011000101
10000001101
101100001
1000111101
1100001
101010101
101101101
1111111101110000
111000110
1111101110
1111011110
11100010111
10110110101
100010001
1111111010000100
1111111110000001
10001
1111111101001001
110101
101000
1111111011011011
1111111011111000
1111111110010101
1011011101
1111111000010111
1111111011010101
1000111
1111111110011010
10010000011
10001100101
10001000110
1010100001
10000000111
1001101
1111111100100101
10010100
1001111010
111100001
110000100
10010101000
11000100110
1011000010
100000000
101010011
1111111100111000
1001100
10100111
1111111110001111
1111111010101000
1111110001111101
1110
1111111101111000
1111111011000110
1111110100101100
1111110111100100
1010001011
11000010001
100010001100
1100101100
1111111101001111
11
1111110011011111
1111110101110011
1111111000011000
1111100101110010
1111101010011101
1111110110010111
1111110101010101
1111111110101001
101010010
1111111101110110
1111111011011010
101010011
1111111111011100
110010000
1110011
1001
1111111001001010
1111111000001011
10001001
10110000
110111101
1011000
10000111110
1111111101011111
100111
1111111111010111
111011110
111100110
1111111101101001
11000010
1111110111010111
1111110001101111
1111101110100110
1111110100100100
1111110001010011
1110111
1100000
1111111011001000
1111111011111010
1111111010101111
1111111101110111
100011110
101001110
1111111100010010
1111110010000101
1111100000100001
1111110001001010
1111111101110010
100011100
100111
1111110111101010
11111101
1111111010011010
10100
1111110001110110
1111111101101011
1111111101101100
1011011
11101
1111111110011001
1111110100000011
1111110010011101
11000011
1011001
1111111111000101
1111111101100001
11101110
100001001
1111111111010100
1111111010000111
101100111
111001110
1100000
1111111010011010
1111110010010001
1111111011111110
1111101011011010
1111101010011101
11000110
1111111100111110
1111111110101101
1111111110010101
1111111000001011
11100011
10010001100
110100100
1111111011101110
1111101111101010
1111101001011010
1111111110001100
10111111
1111111100110011
1111111100110111
1111111011100101
0
1111111101110010
1111111111101110
1111111100110010
1101011111
1110110001
11010011
1111111010100011
1111110101010101
1111101101100100
1111101011111111
1111101110010111
1111111000000000
1111111000100100
1111111111010011
1111110111011110
1111110101011110
1011001000
11101010
1111111100110100
1111111101001010
1111110101110111
1111111010001001
1111111001010101
1111111001101110
1111111000001111
1111111001001101
100110000
1111111110000101
1111111011001101
1111111101000111
100011010
1010111000
11001011001
1100111110
101110001
1111111101011010
100100001
1111110101001110
1111110010111000
1111100101011110
1111110000110101
100100
1000010100
1110001111
10000111000
1111111100000100
1111111110110111
1111110101100000
1111100011110101
1111101001110100
1111110011100001
1111111010101100
1111111010101110
10110010
1111111101011110
10000110
1111111101100001
1110101
1000110
111001100
10000110010
10011111100
1111010010
10101010110
1111011001
10000111111
1001011011
1111111111101111
1001000
10010111000
11010011011
1000011000
1100100
1111110011010010
1111101101001110
1111100010011000
1111100110000001
1111110000111001
1111110011111000
1111110111110011
1111111110001000
11011001
1111111010001111
101011001
100101011
1111000
10101100
1111111001000101
1011101110
1011110100
111100011
1001110100
1100010011
1001111111
1111110111101001
1101001
10000011011
100100011
11100111
1111111110110101
100110111
1111111111011110
1111100011110100
1111100001101001
1111100111011111
1111101101001100
1111111000010010
1111110101110011
1111111000010001
1111111110110010
1111111011011111
10000010
110100
1111011
1111111100011101
1111110110110101
1100111010
1110011110
1111111011110011
1000011011
1101011101
101100100
1011100100
110101001
1101100000
11010010
1111110111100000
1111110110011110
1111110011101000
1111101010011000
1111011110100110
1111100101100000
1111100111111000
1111110000110110
1111111100011111
101
100001
1000101
1111111101011101
1000110
1111111010110100
1111111110101011
1111111001101000
1111110000011110
1111110101010010
1101111
1001001110
100100000
100100
1110100
100001000
111011000
1111111100111111
1111111000110001
1111111100001001
1111110000000001
1111101101011100
1111100001110001
1111101000011101
1111101110110100
1111110000111000
1111110101000000
1111111011111110
110110
100001101
1111111110000000
1111111011000111
1111111100011100
1111111100111110
10011111
1111111111110100
1111110011011101
1111110000111000
10010011
111001101
111111010
1100011100
101001010
1111111011110101
100100100
1110100010
100010110
1111110011101011
1111101100010100
1111100011000000
1111100101010001
1111101111001101
1111110011101011
1111110110010110
1111110111011001
1111111100100100
1111111011101101
1111111110001110
1100101
100001100
10101010
1111111101100011
101110110
101001101
1111111110001001
1001001
1111110100011111
1111101100101111
1111111111101010
1001010
1111110111101010
1111101011101101
1111101101111111
1111100100101010
1111101000101010
1111100001011111
1111100101001111
1111110100010010
1111110111010010
1111110101011111
1111111100101000
1111110111000010
1111111110100110
1111111100001001
111000010
100111100
11010101
10100011
11000101
1111111111001110
100000011
110100100
1101111
1111110110100100
1111110111110111
1111111010100010
1111110010001101
1111110101111001
1111101010000100
1111101010100100
1111101011100101
1111100101001011
1111100111111000
1111110101011001
1010010
10100010
1010111
1111111100110000
1111111101010001
1111111000111011
1111111011011111
1111111010011100
100100101
100101001
1111111011110101
1001001
10011001
1111111111111010
1111111011101011
11000011
101001
1111111001000111
1111111010000001
1111110111011010
1111110001011010
1111110101111100
1111110011100111
1111110100011111
1111101111111011
1111111001111010
1111111111100001
100111110
11011000
11110110
101100
1101100
1111111
1111111011101110
11101001
11110101
1111111110111101
1111111111001100
1111111101101001
1111111110011011
1111111011001000
101001100
1111111111001010
1111111010111001
11000001
1111111111111000
1111111110000111
10000101
1111111010010000
1111111110100001
1111111100001110
1010100
10000100
11101101
1111111110001001
110110110
1010
110000011
11000111
1111111101001001
1011110
1010010
11100011
1010100
1111111100010111
1111111101000110
1110100
11110010
1111111100100111
11100001
10100011
1111111110100001
110100
1111111101000000
11100110
11011101
1111111111010100
0
11110111
100110010
1111111110100011
11111111
10111101
100010110
1111111101010100
11111
1111111111111110
1111111110001000
1111111111011001
1111111010100011
100111000
1111111101011101
1111111110011110
10111110
1011
1001011
