1011100
1111111110111011
1111111100110111
1111111110001010
1111111010110010
1111111100001000
1011100
11100101
1111111011000110
11011001
1000000
1111111010111010
10110011
1111111111001100
1111111010111110
1111111110100111
110111
1111111101000101
1111111011101000
11011111
1001
1001
10010010
1000010
100110101
1111111011010001
10001100
1111111011010000
100110011
100101101
1111111111000000
11111
1001001
100100101
1111111010011111
1111111011100111
1111111110101111
1111111101111010
1111111011110111
1001110
1111111110010000
1100111
1111111111110000
100101000
1111111110000111
1111111101111100
1111111111001111
1111111100000111
110
1111111011010100
1111111110001101
1111111111001100
1111111100011100
1111000
1111111110101101
1111111010101001
11100100
10111011
11111
10110000
11010110
1011
100110001
1111111111111001
1101111
11111101
1111111111001101
1111111001110100
1111111110111100
1111111010000010
1111111100000000
111100011
1111111101010010
10010110
11011001
1111111111010111
1110010
111001001
10010001
1111111100100011
11001000
11000111
1001
101
1111111111000110
100001110
1111111110000101
1110
1001010
101001100
1111111011010100
1111111111101110
1111111101000000
1001010
1111110111000100
1111110110101100
1111110101110011
1111101010101110
1111100101111001
1111110001110110
1111101111000011
1111111101001100
1101011
111000001
101011110
1011111000
110110000
11000010
101011110
1111111100000010
10000001
1111111100111100
1111111110111000
1111111100010110
1111111101001000
11110111
11111110
1111111100011110
100001000
11110101
10010
1111111011111101
1111110001001100
1111110110110010
1111101011110011
1111110111100101
1111110101001011
1111111100001101
1111111110011001
1111111000001100
1111111100110010
111001001
110
1000010100
1001000110
1010010000
1111111011100001
1111111011011100
1111111111101110
1111111010010101
1111111100011010
1111111110001100
1111111111110010
1111111011000011
10011111
11001001
1111111011011001
1111111011110011
1111110011000000
1111110111110010
1111101111010001
1111100110000001
1111100010010110
1111101111010011
1111111000100001
1111111001100001
1111110010011111
1111111100110110
1111111010101101
100011110
110011010
1111111111101011
11110011
1111101000
11011011
1111111001000010
1111111010111010
111001
100000
1111111110111010
1100111
110100011
1111111101001101
1111111111100111
1111111001011011
1111111111110010
1111111010100100
1111101100110001
1111101011001110
1111100111101111
1111101011110101
1111101100011011
1111111111101111
1111111101101000
1111111111100100
101001010
11011010
1111110100001011
1111111110110001
110001111
111001101
1111000011
101010100
111010
1111111111100111
11110111
10101000
1111111101011011
1111111100110001
1111111111100101
10001011
1111111101011101
1111111110100001
1111111101001111
1111111100011011
1111101100110101
1111101010111001
1111101010100100
1111110001010000
1110011
10011110101
1101011101
1100010110
111010100
111000
1111111101010000
1100010100
1101001111
1011011101
1010000100
1111111100001101
1111111110100101
1111111111111110
111011
100011101
10110001
11111010
1111111100010100
1111111100011000
1111111111000100
1111110110010000
1111110010000001
1111110110101110
1111110010111110
1111101000000011
1111100100101010
1111110011010100
1001101100
1111111
1111110111101010
11110011
1011001011
11111100
1111111110111001
1111111000001010
1111111000101101
10011110
1111111010100001
10001100
1111111010000000
1111111010101100
1111100
100010101
110111
1111111011110110
100100101
10111010
1111111111001101
1111111000110000
1111110011111100
1111111000100100
1111110101111101
1111111011101100
1111100111011101
1111101101000010
1011010011
1100000000
1110000000
1110011111
1101101000
1111010101
10010110
1111101011000100
1111111001001100
1001101
1111111011000010
10001000
11111
1100111
1111111100111001
1111111011110110
10101011
1111111110110011
1111111001110100
1101101
1111111111011010
1111110001000001
1111101110001111
1111110000001010
1111101111100011
1011010
10101
1111111010100100
11000100
101100011
1111001111
1100000111
1010000000
100011001
10100011
1111101111001010
1111111001111101
1111111110000111
1101111
101000011
1001101
101101111
1001110
1111111011001110
1011010
1111111111001111
1111111011111100
11011010
1111111000111110
1111110100100111
1111110001001100
1111101011011010
1111101000001100
1111111111010101
1111110111101101
1111110101100110
1011101100
111011110
11111001
1111110110001001
1111101111100010
1111111111000010
1111110101001011
1111101011100110
110100011
1111111010110101
1111111101100010
1111111100100010
1111111110011111
1001000
10000110
1111111111000001
1111111100100101
10110000
1111111010110001
111101
1111111001011010
1111110011000011
1111110001111011
1111110000001010
1111110110110001
1010011
1101011111
100010011
1011101110
11011101111
1000100111
1111111110101010
1111110101000000
1111111001011011
1111100010011111
1111101011101011
1111110111110100
1111111011110011
1111110111000001
1111111110001111
1111111110100100
1111111101101011
1111111011010111
1100101
10000000
1111111110110101
10011000
1111111000001010
1111110011011010
1111110110011010
1111110101010100
11000
1111110100001111
1111111111000010
1001100101
1010100101
10000101110
11011000100
1001
1010110
11011000
1111110101100011
1111110010001011
1111110000011001
1111110001111101
1111110111010010
1111101101010100
1111110000101111
1111111101001101
1111111110111111
1111111101110110
100001000
1111111110111111
11010001
1111111110101010
10111011
11
1111110101000011
1111111011011110
1111111010100100
1011101
1001011001
111001111
110101010
1001
10001001010
10000101011
101001000
1111111100111000
1111111011010001
1111110001011100
1111110010100010
1111111011110011
1111110000011001
1111110101010110
1111110110001100
1111111111110101
1111111111010110
1111111101101100
1111111110011110
1111111011101010
101100
101100101
1111111101000000
1111111011001110
1111110000000101
1111110110101010
11001010
10100
10110101
1010101101
1110011101
1100011111
1001001111
1111111101101101
10110010
110111111
1111111110011011
1111110100000010
1111110010111010
101
1111111010111100
1101110
1111111010001001
110101
100011111
101001010
1111111100110110
1111111100010011
11011001
1000101
1001101
110110101
1111110010011010
1111111001100001
1111111110010111
1111111100111011
10111111
1011010001
11101001
10101000001
1010010
1111111100011011
1111100100
1111110010100110
1111110110101101
1111111100000011
1111110101100000
1111110111110010
1111111001000000
1111111111100010
1111111100000110
1111111110011111
1111111010100111
1111010
1111111100000000
1111111011010001
1111111101010111
1111111111100011
11011011
100110
1111111100001110
1111110010110101
1111111010101011
1111111110101001
1011100111
1111111101100111
1111111111111010
1011101111
111101111
1111111110111000
1111111010100111
1111110100101011
1111111111101000
10100110
100101111
1111111110101101
1111111101101001
100110001
101010011
110100
100000000
10100011
1111111010100011
11001011
1111111010101010
1111111011001011
1111111110101110
1111110100011001
1111111010001001
1111110110010010
1111110111110100
10111010
100000010
1111111100100010
1111111011110110
1011110010
110100010
1111101100110100
1111101110111111
1111110100110000
1111111111011111
100001000
10
1111111000111011
1111110111110111
1111111000110101
1111111101101101
10010101
1111111101111001
10011110
11101100
110110
1111111101101011
1111111011111101
1111110011100111
1111111000001010
101100010
110000011
1111111001100001
1010000
1111111011100101
1000001011
1100100000
110010101
110110011
1111110001110100
1111110100100000
1111101110010100
1111111001100110
1111111101111010
1111110101000101
1111111110101111
1111110111011000
1111111010110110
11111001
11110100
1011101
1111111101101110
10100010
10000110
1111111001111010
1111111001110111
1111110010001101
1101
111100111
11011
1111111111011010
1111111101110111
1111111111111011
1010000111
10010010000
1010
1111001101
1111110011010101
1111110101101001
1111110011111111
1111111111100101
1111111110000001
1111111011111011
1111111011101011
1111110101010011
1111111001011100
101000000
11110111
110010
1111111010110000
100101
1110111
10011101
1111110110101010
1111111000001100
1011011
1111111000011000
1111111110001111
1001
100110010
1111111111110011
1111111101010001
111000
1111111110111101
111000111
101110000
1111110010110001
1111101110010100
1111111101110101
1111110101001001
1111111101101111
1111110111101001
1111111010101001
1111111001110101
11011110
1011001
1111111011000100
1111111100110010
100011010
1111111101001111
1111111101111101
1111111111110011
1111111100111101
10100001
1001101000
1000000101
10011101
1011000011
1111111110100011
1111110011011000
1111111010111101
1111111100111111
1110010
11110000
1111111101111111
1111111010111100
101011
1111111001010011
100011001
11000001
100010000
101000111
101111011
11011110
1111111101100010
1111111110000001
1000010
1011010
10111010
1100110
1111111101101101
1101101101
1010101111
1011010101
1010111101
1000000100
1100001
1111110110000001
1111111111100001
1111111100000011
1111110110111001
1111111110011101
10001011
1111111101001111
1111111110000100
1111110110011110
11011110
1111111100011011
11001000
1101010
1111111
1111111100101000
100000
11010001
1111111100101000
10111000
1111111100111011
1111111010010100
1111111011101110
110001010
1111111010101100
10011000
11001100
101010110
1111111100111001
1111101110001000
1111111000001010
1111111101011110
1111111001011101
1111110110111111
1111110011111000
1111111110011100
1111111011101111
100000
10111
111111101
100100010
1111111101000010
1111111111101011
100111000
1111111010101011
1111111100011001
10011001
11001011
1111111111110011
1111111011110001
1111011
101000110
1111111101010001
110000010
1010011100
11010110
1111111110010011
1111111101111011
1101100
111101111
1000010
1111111011111111
1111111111010111
1111011
11100100
1111111101000111
11110101
100011101
1100
1111111111000101
11100100
10001110
101000010
1111111110001010
1111111011110000
1100110
1111111011000011
11010000
1111111111000111
11101101
100111
10111101
1011000
1111111111011010
111011011
1001000000
1100111101
11111011
1000001000
100101110
1111111011011010
1111111011110100
11011101
11000010
1111111110101010
1011111
1111111110001101
1000001
1111111011101100
1111111101101010
101000000
1111111110011100
100111
1100001
1101
10111011
1011111
1111111011001110
110110
11011000
1111111100000111
1111111100001111
100001
1111111111110111
101000001
1111
1111111101001111
1010100
11
1111111100001010
10101010
10010011
100111100
1111111101011001
10010000
1111111110101100
101011011
1111111110100001
1111111110111101
1111111110110010
