10001
1111111110101001
100111111
1111111110001001
1111111100011111
1111111011111001
1111111101000001
1111111100101011
1000100
100011001
1111111011101100
100110101
1111111111010000
1111111101111110
1111111111111011
11010
1111111110001101
100100111
1111111011110110
1111111101101100
11011001
1111111111010111
1111111100011100
1010010
1111111110110100
1111111101111011
1111111100001010
1111111111110010
1111111111011110
1111111111110111
1111111100000100
1111111111000011
1111111101010000
10100010
11111010
1111111001101110
1111111001110110
1111111011100101
1111111101110000
1111100
1111111101011001
1111111000100101
1100100
1111111100000001
1111111100111101
100101000
1111111100101111
1111111011110110
1111111011001011
1111111011010100
1101100
1111111100111001
1111101
1111111100000100
1111111101110011
101010110
100010001
11011011
10111
1111111111011111
100011011
1111111111001011
1111111010001111
1111111100011001
1001111
1111111001000001
1111111101101000
1111111000111010
1111111001110101
1111111100110010
1111110110110011
1111110100001000
1111110110111010
1111111110001001
1111111110111010
1111111000111111
1111111111001100
1111111010001010
10011111
1111111001111001
11110010
10111100
100101100
1111111100011101
11101010
100111111
101001011
1111111011101111
1111111110000100
11011001
1111111000101011
1110010
1111111011000000
1111111000010001
1101110
1111111001111011
1111110000100111
1111101110000111
1111111010101010
1111111001111110
1111111100001011
1111110111110010
1111111001000101
11101011
1111110110001111
1111111101111000
110
11011101
10000001
11001000
1111111011001011
11001000
1111111100110110
100010101
11000111
1111111101011100
11110110
1111111110100101
1111000
10001010
1111110100000110
1111110111100011
1111111011000011
1111111111101001
10001111
1010110101
10000111000
100100000
101111
1111111110100111
1111111110000100
1101010
1010000110
1111111100110010
1111111110100110
1011111011
10111
1111111101110111
1111111111000000
100001110
1111111100100001
1111111111010010
1111111011100001
11000110
100011001
100101011
1111111111100100
10100
1111111010000000
1111111111111000
111001100
1111111110010010
1111111100010101
1111110100111011
1111010
1111111110110000
1111111000010000
1110
111110000
11110011
1111111100100111
111000
11111111
100011001
1000010
1111111100001010
1111111001001111
10100110
1001110
101000111
1111111101011001
1000000110
101000100
10000100
11110
1111111010011001
1111111111000111
1111111011000011
1111110111110011
1111111101110110
101010
1111111000000111
1111111001010100
1111110010001000
1111101110010110
101000001
1111111111111111
1010111
1111111111001111
1111111110111110
10110010
1100011111
1111110101011000
1111111100000000
1111111001101111
1111111011111010
101001
1111111111101111
100100011
1100011100
10001111
1111111110100010
101110010
101011011
1111111001011011
1111001
1111111001011010
1111111011101001
1111111000011000
100100001
1111110101111001
1111110000001001
1111101001110011
1111111111001010
11010001110
1111001101
1111111001111110
1110100000
1110001111
1011000011
11110010
1111111111010100
1111111110110111
1111111110100000
1111111011110010
110110
1000011
1000011100
1111111111110000
1111111010011111
1111111110001110
11111111
1000000
101100101
11111011
1000111010
1111111101010011
1111111001111010
1111101110111101
1111100110001010
1111111010111101
1111111111111010
1000101000
1000000
111001
1111111011010100
1111111111001111
1011001001
1111000011
111111
1111111011110001
1111111111101110
1111111111011110
1111111110000111
1111111100111100
1111111111001011
1101011001
1111011101
1111111110000011
1111110011111100
1111111111001100
100001110
1111111010001100
1111110100111110
1111111110110001
1111111011100111
1111101111010001
1111100000101110
1111111011010011
1011101000
1000001011
1011111111
1101110110
1100110001
110000011
1110010101
10000111
1111111011111101
1111111111100001
11010010
100111110
110010110
100111011
1111111111110001
10000011111
10000011111
1111110111100001
1111110010111000
11100011
1010001
101
111111111
10010011
1000111111
1111110000111000
1111010100001100
1111111101011111
11000010011
1111011110
10101001110
1010010001
1111010010
10011111001
1110000
1111110101100011
1111110110110010
1111111011110100
1111111110010101
1111111011000110
101000010
11010100
1010011111
11111010
10111100
1111111011000100
10110010
1111111100100011
11100110
10000010110
101011011
1101010010
1011011011
1111101011000010
1111010100110011
1111110010101100
1111111111010001
1001101100
101100111
1111111000001001
100111011
1101001110
1111111101100010
1111110001010100
1111110111111001
1111111101010100
100100010
1000000
10101010
11011011
1000001000
1111111011011000
100110100
1111111001010010
1111111100100101
1111111100100101
1111111001101010
101101000
10011001000
100000111001
101101110
1111011001101100
1111011110110111
110100000
10001001100
1111111110000100
1010101
111100
1111110101010010
1100011100
1111101110100000
1111111000011000
1111111110101000
11111011
10100110
1111111100000101
1111111100100101
111000111
1111111011011111
100001
1111111101000011
1111111110010111
1111110111100100
101001001
1111111101100101
1001010010
10001010100
10011010111
1111101101111111
1111010001010101
1111100010011010
1111111001110011
1011001110
1111110111011101
1111101101101110
1100001
1111111110010011
11000111
1111110010010000
1111110011110000
110000110
10010101
11101010
1111111110011011
10110110
100010100
10001001
100111110
1000110010
1111111111010011
1100110011
10010
1000011000
1101101001
10001111100
1111111100101100
1111100000111100
1111101001100101
1111110000011001
1000100
11110110
1111101111110001
1111111110100001
1111111011000100
1111110011110110
1111111111001101
10010110
1111111000110000
1100011
1111
1111111110000101
1100000
100010001
11110111
1001001111
1001010
100001100
11100
10000110001
1111111011111010
1100011001
10110000011
11111100
1111110001110101
1111110011001100
1111101101011000
1111101100000000
1111111101011101
1100001010
110000101
1111110001
11001100
1111111111000010
10100000110
11100101
1111111001000101
1111111100101100
101000
101001110
1111111101000101
1111111110101111
1111010
100001100
110101001
101110
1100101001
10010101000
1110110111
1110010100
111110101
1111101101101011
1111101100100100
1111101111110001
1111110000010100
1000011011
10000111
10110011010
1001010110
10011000111
1101110010
11101011010
1111111001
10001001
1111111100011010
10111000
1
1111111111101010
101011101
1111111011001010
1111111011110110
100100101
1001011001
1001000111
111110100
1010010111
10010000011
1011011111
11010010
1111110100111101
1111100000111000
1111110100111001
1011000000
1100001010
1001011011
1111100111
10101110011
1111111110000111
1111111110011100
1100011101
1011001011
110110001
100000010
1111111110010010
1111111110000110
1111111110100001
110
1111111110100111
1111111111110001
1111111111110110
1000011111
1010100111
1111111011101101
1101110
10100010100
1001101010
1111100111100110
1111100110010000
1111100110110110
1111111110111010
10000110111
1011000000
10100100011
101000100
1111111011001010
1111110010001001
100100100
1111111111010000
1111111101111000
1111110110101001
1111111111001011
1111111110000001
1011111
1111111101100111
10010110
1111111110101011
101001111
1111111000101100
1000111101
1011100101
1000111100
1100110100
1000111011
1111111110101111
1111100000110111
1111100100100011
1111100101111001
1111110011010111
10000111111
1000000000
1111111100100100
110111111
1111110101011010
1111111010110010
1111110011000101
1111111010101001
1111111001000000
1111111101010010
1111111100001011
101111110
11
10010101
1111111100001100
1011010
111110001
1111111011000111
1101010
1010100000
1101011000
10111000101
101001111
1111110011111001
1111110001001011
1111101001100010
1101000
110011110
1101110
1111110101000000
1111111000101101
10010000
100111010
1000000110
10101
1111111110111111
1111111011011111
1111111001010001
1111111110110100
1111111010011001
11001110
1010
1111111011111010
10000
1001000
10001
1111111000000001
1000011011
1001111
1111111011011010
1111110100011011
1111110000011111
1111111110100110
1001010110
1111111011011101
11100101
110
110011101
1001010111
1111111110101100
10100010
1001010101
1110001001
1111110110
100000111
1111111101101101
1111111000111111
1111111011100110
1100101
101001
101000000
1111111110101001
100101011
10100110
1111110011011000
1111111110111111
110011111
1111001
110001110
1111111100000100
100110010
1011000101
1111111011110111
1111111011111001
1111111001000001
100011010
1111111100111100
1111111011110011
10110
1100011010
11110011
101001110
1111001
1111111001110010
1111111101100100
1111111100101111
1011001
1111111111100101
1
1111111111110000
1111111111011001
1111001
1111111010111000
1111111011011000
1111111011111010
11011101
10111101
1000000001
1111111111100101
1111111000101010
1001000
1111111010100101
1111111010101000
10
1111111110011100
1111110111011010
1111110101010111
1111111000110000
1111111000001111
1111111011000000
1111110011111111
1111110011110110
1111111100101100
101111
1111111011100100
101010001
1111111100010000
1000101
1111111101001001
1111111100100011
11000101
1111111100010001
1111111101000000
1001111
1010110010
10001010101
100111010
11111000
101010110
111001110
100010
1111111111101101
1000100001
11111
1111110101000011
1111110001011000
1111101100100000
1111101111100001
1111110011000110
1111110101100101
1111111011011101
101100100
100001000
1111111100111000
1111111111111110
10111110
1111111100111101
1111111101101100
11000001
1111110101110001
1111111010010101
10010100
1111111101011000
10000101
11101
11111011
100011011
11
1101100
10001000100
10100101001
1100001101
1100000100
1111110101111101
1111110011011000
1111110110000000
1111111010101001
1111111001101010
1111111011110100
0
1110100
1111111101110101
1010101
1111111010110101
1111111111100000
10101001
1111111111010010
1001001
1111111111100000
1001011
1
1011010
1111111100111100
1111110101000110
1111111110110101
1111111011101111
1111111010110000
1111111100010001
1111111010011001
1111111110110100
1
10010001
1111110111010111
1101000
1111111110111010
10001100
11111010
101011101
1111111011111010
1001000
11011001
111010
1111111101100011
10111101
101011000
100101110
100100
1111111101000110
111011
1111111101100101
101000110
1111111110100001
11
1111001
101011011
1111111010111110
1111111111110100
1000011011
100101101
10100000
100000000
1111111100011011
100110110
1111111110000101
1111111011110111
10101011
1111111100000101
100100001
