1111111111010000
10001110
1111111110001100
1000100
1111111100001100
1111111011001000
11011010
1111111011000000
100011010
11001001
11110010
1111111110100001
1111111100101001
1111111111111001
10001
1111111101001111
1111111111111110
1111
1111111110011101
1111111010100110
1111111111100001
11101000
11000000
10101111
1111111100110010
100011001
100111110
100011010
1111111010100001
1111111101011100
101010101
1111111100011101
1001111
111011
1111111011011110
101111010
1111111101000101
100001001
1111111011110011
1011111
111001001
1111111110110010
10010100
1011000
101100010
11100001
1111111101100011
10110000
10100111
1111111011011000
10010101
101101010
1111111011001110
1111111101111000
1111111101011111
1111111010111010
1100010
11011100
1101100
1111111110001101
11101111
10100100
100011010
11110011
101111100
111101011
1010101000
1101000010
1000110111
11000010
111100100
10011110
100100101
1000101000
1001011100
101101100
111100110
101010011
1010101
11010110
10101010
100001001
1111111111001011
1110011
100010000
1111111110000001
1111111011110110
1011001
1111111101000101
1100000
100001100
110000001
101010001
1001111110
1100100011
10010100101
1111111110110010
1110000001
110111101
1111111111100011
11100
1111111100010011
1110011
110101001
1111111111111010
1110010100
100100100
1101010100
11000110
100101010
100010111
100000011
1111111110001100
1111111110010010
11101001
1011100
1111111100011000
1111111
1111111110111111
100100
100001011
111101110
1101010101
10100110
1101001011
10110001
1001101010
1111110101100100
110110
10101001111
1111111111100010
1111111101100011
10111100
1111110101101010
1111111100011011
100000001
1111111101001110
1111111110101110
1111111101000100
1111111101011110
1111111010101110
1111111010101111
1111111111101100
1111111111111111
1111111011101011
1111110101001110
1111110001100110
1111110110011100
1111111111001011
1111111110011010
10100111110
1010011011
1111001000
1111111011101011
1110010011
1111111110011010
111000100
1100011100
1000010100
1001111010
110100001
10010110
1111111110001000
1111111111001101
1111111101101010
1110001
1111111100111000
1111111100011111
10001010
10101001
1111111110110110
100
10111001
1111110101100001
1111100111101101
1111111100110110
1111110110011011
1111111001010101
1111111100111101
1111111011001011
111000111
1111111100110110
1111111011101011
10101010
10001110
1111110101100010
1111110010001111
1010101110
1111111011111011
1111111110001101
1000000001
11100101
1111111100110100
11010
10001110
11111000
1111111100101111
1111111010111111
10011001
1111111000001011
1111111111011010
100000010
1111111001011010
1111110110111001
1101000111
101000
110001
100101101
1111110110100101
10101101
1111110101100101
111001001
1111111110110100
1111111100101001
1001101
1111110111111100
1111110101110101
11001001
1010011111
1111110110110100
1111111110100001
1111111101101110
10100110
1111111100111000
11101001
1111111010111011
1111111110010010
1111111001110101
1111111011001011
1111111101110011
1111111101011111
1111110111011111
1100000
1111111110001011
1111111100010111
1111111001011100
1111110110111010
1111111110111010
101110011
1111111000010110
10101101
11000000
1111110011001010
1111111110100101
1111110100110111
1001100001
1111111000101000
1111111111110000
1111111110010110
1101000000
1110010
1111111010110111
1111111011111001
1111111100010011
1111111011100100
1111111101100010
1111101101111101
1111111110111010
1111110100011111
1111110110100101
1111110010001100
1111111000010101
1111101111001011
1111110101100000
1111111000100110
1111111100011000
1111110001110111
1111111010111101
100011
1111111001111101
1111111110101000
101110111
1100111101
10001001
1111101101000111
101000
1111111111000110
1010100
1111111101101001
1001101
1111111100000111
1111111011010101
1111111100101100
1111111100100111
1111111100110110
101000
1100011
111011
1111111111001010
11111
10101010
1111111110000011
1111111011001100
1111100100011101
1111110101110111
1111110110001110
1111101110101010
1111111100001001
1111111111011011
1111111110011011
1111110011110001
1111110110001010
1111111011001111
111011010
1000100001
1111111010111011
1111111110011110
100000111
100111011
1111111101111111
1111110111001100
1111111010101111
1111110001000111
1111110110101101
1000000101
100101000
110101100
1100011000
1111111100001110
1111110101101110
1111110101001100
1111101101000100
1111111001011100
1111110110001001
1111111101100101
1111110101001000
1111110101001101
110000111
1111110001010011
1000110
1111111111010100
1000101011
10010101
1111111110101011
1111111111110101
1111111111111101
11011011
101110011
1111111000110001
1111111110111011
1111110110000101
1001010
1111111101100001
1111111110100101
1111110111010000
1111111000110111
10100011
1110010111
1110111001
1100100111
1101100
1111110110011110
1111110001010000
1111111110001111
1111101111110100
101000000
11010100
10111110001
1010101000
1000011000
1111100001
1111111101010011
1111110110011000
1001
11110101
11100001
1111111010000010
1111111000101111
1111110011000011
1111111110011111
1000011011
1111011
1101000011
1111111100
1111100101
1101011111
10011001011
10001100111
1111111100111111
110010100
1111111110100100
1111110111100110
100001111
1101100100
111110111
100010001
1100111111
1001010010
101
101101
1111111110000011
1001000
1011001
1111111011101101
101000001
100001001
10111111
111010000
110001111
1101101011
1011111111
1000011101
1000001111
10110011111
1110000101
1111100000
1111111001000100
1111111100111110
11010110
1101101
1111111010011110
1111111111000011
1001101101
10000010
1000000100
1111110101001000
1111110101010111
1111100
1111111110010000
100111110
1111111110000100
100100100
101
111101110
11001
1111101001
11111001
1010100010
1001001111
1000101001
1000101100
101001100
10001000000
1100111100
1000010110
1111111011011110
1011101101
101010101
101000000
11110111
1111111000110011
1111110100111010
1111110010011111
1111110110001010
1111111010011111
1100111110
11101011
11101111
1111111111101110
101001010
1111111110110001
1000000010
10001100
110110011
1001100101
1011011011
111110101
1011111100
10010001100
11110110101
1100100000
1100101111
10001111000
1101011111
1000110000
1011110100
10110111
1111111110000111
101001
1111111001111111
1111110110011111
100100101
1111111011101000
1111100001
101000101
100000101
1111111011110111
1011
111010010
10000001
1001101
1000100001
111000110
1000010111
1110111110
10111101101
1111100111
1000001110
101000100
1111100111
1101110010
10
10100001100
1011000111
101011
1111111011110010
1110011
1111111100110001
110001010
101100000
1111111101111101
1001111001
11100001
1111111011111101
1111111110011001
1111111100110011
11000
1111110110111010
110000110
10110111
1011001111
1011101010
1010111111
10010100011
1100111101
10010100
11001001110
10000000100
1111111001
10011101
110101110
1111111100101111
1111111111101110
1111111001110001
11110
1111111100001101
1111111000100101
10001010011
1011100010
101110000
1111111001110100
1101101
100001111
10011101
10000001
1111110110111000
10011011
1011111011
1100011000
1001011011
1111111010111010
110010001
1101001111
110111100
1111111011010001
1111111111010100
1001111101
10011010
1111111110001000
1001110111
1001001000
10111101
111111011
110010001
10111101
1111101011
111000101
101101010
10100100
1111111111100111
1111111110001111
1111111010111101
101001010
1111001
1010101011
10001011000
1111111110111110
1100101101
1111111000011100
1010010001
1101010001
101100101
1111111110111001
1111111110000000
1111110111010000
110010010
1111111111001100
1111111010011111
101011100
1111110110011000
11111011
1100011001
111111110
110101111
1111111101110000
1111111101100100
1111111100100000
1111111110101000
1111111100010101
1111111011111001
1000011111
100101
100110100
110011011
1111111101001011
101010110
101111100
10000111101
1111111111011100
1011010110
1111110110111010
110010011
1111111111000110
1111111110011001
1111111110001001
1100001101
111101
100111
10011001
1111111110010110
10010110010
1000101101
1111111011111011
1111111100010011
100000011
1111111011011100
1111111110000110
100111100
101010000
1111111111100011
111001011
1111111011011010
1011
11010011
1111111011110000
1111111010111100
10011111
10111010
1111111101001111
1000101000
1111111111111010
10010
101101110
110100101
1111111101011011
11100
10000111
1000111000
10001001000
100000000
1101011
10110101
110000
1111111011000010
100101101
1111111111000111
10101001
100000010
1111111100011001
1111110110010111
1111101100100110
1111111101000100
1101111010
101001110
1111111010100011
1111110111100001
1111111000110101
11011010
100111101
100010101
1101100110
10010110
1011100100
100110100
1111100111
1111100000
10100000001
1001100101
1111111111001000
1111111011111000
1101110
10001110
1111111011111011
1001010
1111111111010111
1111111110011111
1111110101100000
1111101010001101
1111101110101100
1111101010110000
1111110011000100
11000101
1111110010000011
11101111
10011000
1111111100001010
1111110111100011
11101110
1011001110
1111110111000001
111101100
1100000101
1001111111
1000001110
100011110
1111001
1111111101011010
110000010
1111111011101101
1111111111001000
1111111110110010
1111111101011101
1010011
1111111011100001
1111111101001100
1111110101011110
1111110101111011
1111110100110010
1111110100101010
1111101110101101
1111110101001010
1111111010101001
1111101101110011
1111110101100111
1111111100100110
1111111010110010
1111111101000111
1111111000100111
10011101
1111111000111011
10111011
11001010
11001111
1111111101111010
100000111
1111111111000111
1111111010111000
1111111011110110
1111111101000100
1011100
100010000
101010010
110110110
1011000010
111101001
1111111111011111
1111111000111111
1111110101111000
1111110110111101
10000010
1111111100000100
1111111001111111
1111101110101110
1111101010101111
1111110000100001
1111110100000101
1111110100010111
1111110011110001
1111111000000111
1111111110100111
1111111110101110
11111011
1111111110100110
1110000
1111111100101001
1111111100100001
1111111110101011
1111111110101010
1111111100011011
1011001
1111111101000111
100110000
1111111101101100
10100000
1111111100110011
10110111
1111111000000110
1111111111000011
1010101
11000011
1111111100101011
10110011
110000
10001101
1111111011011100
10101111
100001010
1111111110101011
1111111010000000
100011101
1111111110010011
1111111110101101
1111111100110100
1111111111001001
