11000001
100000101
11011010
100000110
1111111100100010
1111111101100111
1111111111000101
1000
10101011
1111111110111001
110111
1101011
1111111110000011
1111111100100111
10100110
1111111110011000
0
1111111011010110
1111111110010010
1111111010100010
1111111101000101
100110101
1111111100001011
1110
1111111010100101
11111011
1111111100010001
100011110
10111001
101011111
1111111110110111
11110
100111101
10111000
1010010
101011101
100011100
1111111111110010
1111111111110110
100101010
1100110
110101
11100
1111111110101110
10111000
1111111100001100
11110101
10110000
1010111
10100
100100110
100101000
1111111010101000
101010000
11101
11010101
1111111011100101
1111111110111110
1111111111110100
101101000
1111111011011011
1111111011101001
1111111111110100
110111010
1111111111010111
1101011
111001010
1000100011
101111001
1000000111
1111111101001000
1111111101000111
1111111111110111
1111111100011010
101111010
110001011
1111111101101010
10111101
111010100
1111111110011101
100110110
1111111010111110
11110
1111111111001111
1001001
100110001
100100100
10001011
1111111111010111
1111111110010010
101001
1111111111000011
101110001
100000101
110010111
1110000101
1111000011
1100100000
1111111000
110011011
110111000
11010101
1111101
1111110111110011
10000110
1111111011001010
1111111110000000
11101100
100111110
11100011
1111111111011100
11101110
101100
100000101
11011111
1111111101011000
11010110
1011101
1111111110101000
1011010
110011111
10011101010
10111110010
10100101101
1011001111
1111111101110100
1111110110000110
1000111001
11011000
11110000
10010111
1111110111001111
1111110110111011
1111110101100001
1111110101111111
1111110111011111
1111111011110110
10001
11010110
100110100
1111110
100001
11110110
10011
1010110011
11001110
100011001
1001011100
101010
100100011
1000000010
1111111111010011
1111111110000010
1001101011
110001
1111111010000011
10100000
1111111001111011
1111111000111011
101110001
1111111100100100
1111111100001101
1111110001001101
1111101111110100
1111110000110010
1111111100100000
101000101
1111111011011010
1111111101010001
10001111
1111111011001101
111110
10111011
1001010011
100011000
100000
1111111100010001
1111110100000011
1111110100001011
1000010
11000
100001110
10010
1111110001011111
1111110000101000
1111110010111111
1111110111010010
1111110100010010
1111111011010110
1111111111000110
1111111001100001
1111110000100110
1111110110110100
11001101
111101
10000111
1010110
101100100
1100110
1111111110111110
111111001
10010100
1111111010011111
11111001
1111111100010011
1111111110100001
1111111111000101
111001010
1111111101010011
1111110001111110
1111111001000111
1111111101110010
1111101111001001
1111110101110100
1111111111111110
1111101110110000
1111110010001010
1111101111001110
1111101111010011
1111110011110110
1111111000011110
1111111111110111
1111111111101001
110101
1111111011101010
11001011
100101011
11111100
1011110101
100100110
1000011011
1101001
1111111011001000
10111111
100101110
1111111011100100
111110110
1111111011000101
1111111101000100
1111110011111100
1111111011110001
1111111111000010
1111110100100111
1111111000000001
100100100
1111111010000110
1111110001110110
10011110
1111110011000101
1111111000000011
1111111010011101
11010001
1111111110111111
1111111111100101
101111011
110110101
10100100
101011111
1111111110000101
100100000
10001011
1111110111000010
1111111011010110
1111101100000001
1111110101110101
11110101
1111111111001011
1111111000001100
101000001
1011111111
101011
10110100
1010010110
100011001
11010001
111110100
1000000110
110010111
1111111010001001
1111111101001101
1111111010110110
1110010
11111001
1000111010
10010
1111111110101001
1111111101011100
1011
1111110011101101
1111110010001001
1111111001010111
1111111000110010
110001010
10101010100
10111111011
100110110
1000111100
1111110001
10100110000
1100100000
10101000111
1100000100
1110010010
11010001101
1001110001
1111111101001101
11110100
1111111111100001
111110
10101011
11111011
1100110
111010001
11000001
1111110100101100
1111111100101010
1111111111100110
100010001
1111111111000011
1101100111
1001000111
10001111000
111111100
1111110111011000
1111110111011100
1011
11001101
100000001
1111101111
10000100001
1100110110
1010111110
10001000011
110101101
1001111101
1111111110000001
1110
100
1011000
1010100000
111001000
101100111
111110001
1001100101
111110001
10101100010
1101011101
1101100000
1000100111
10110001001
10011010001
1111110101111101
1111110101001000
10110010
1111110100100000
1111111000001100
1001100
1000011111
1010101110
10001100111
10100011000
101101100
10110101
10101
1111111011110101
1100011
11101110
1000111110
101100000
11001110
110011000
1111111101111100
1111111101000011
111001101
1111111101011010
10000110
110000000
110010000
101101101
101111
10110111
1111110011000110
1111111111000100
1111111010110101
1111111110101001
1111111010110010
1111111110000010
11110110111
10001011011
1100100
1111111011111111
1111111100000001
1111111011100110
1111111110000101
1111111110001100
11011000
1111110101100011
1111111100110110
110101001
1111110111111101
1111110111000010
100001001
1111110101111001
10000111101
10001100111
1001000
1111111110001011
10001111
1111110001101111
1111111110001001
110001111
1111111010111100
10101000
111011100
1111111
10010111101
10011001001
1111110
1101010
100001
100000010
1111111101100001
101
1111111001001110
1111110111001101
1111111101011110
1000
1111111011101111
1111111000001001
10101010
11101110
1010010011
10010000100
1111110111110100
1000010
1001100
1111110010011011
1111111111100111
1011000001
1001111001
1011111011
1011010111
1011110101
10000010000
11111011110
11101000
1111111001011101
1111111101101000
1111111100000001
1111111110111100
1100000
1010100
1111111110111010
1111111111100111
1111110100010000
1111111111100110
1111111111110000
111101010
1000111010
1111010010
1111111111111100
1111110010010111
1111111110101100
100010011
1111111100000001
1111111101010011
1110001001
100111011
1111111111010010
1111111111000010
1111101111
1001100100
10001000111
1111111101101000
1111111101001001
1000000
1000111
1111111111101011
110101000
110010001
10010011
1111110011101111
1111110001110100
1111111011101000
1111110101111101
1111111110010001
1111111111001000
1101000011
1111111110010001
1111101111111111
1111111011110110
1111111110000010
111101111
101010
1001100
101101100
10000010
1011100110
1010100011
1110110101
1111111011110100
1111111101001010
10001100
1111111011101110
1111111011011001
1111111011001001
111110
100011011
1111111100110100
1111111110110100
1111110111111000
1111111000110110
1100001001
1101100
1000010010
1001001000
1111111110010011
1111111001010101
1111110101010101
111011000
11101001
111100010
10000100
1111111101110111
1111110110101001
1111111111001000
1101110011
1101010010
1111111010101000
1111111011001100
1111111001111010
1001111
1111111111101101
1110
1100101
1110111111
1001010001
10001101
1111000
1111111101000010
101110001
101001
1011001110
100100
1100011001
101111
1111111100001000
1111111110101001
10110100
10111010111
10110110
1000101100
110110000
111001110
1000000111
100001010
1111111011101110
1111111101111010
10001
100110100
10111010
11001001
1111111101101010
1100111
1101000
100100001
11010010
110111100
100110100
1000100100
10011010011
10000101110
1011100100
1100000011
10111
1111111001000100
1111111001100011
11001000
1111111010010111
1111111111111000
111010110
1111111011100100
1111111110001101
1111110100110001
1111110100001001
1111111001010111
11101100
1111111011100010
10011011
1111111011010110
11011011
1111111111010111
11111011
1111110100000100
1110111001
10100010111
1110010110
101111101
111011101
1110011110
1010110101
110101111
1110110
1111111100011110
100001000
10101010
1111111101111011
1111111101000111
1111110111001000
1111100100011011
1111111001101101
1111101100010000
1111101110011011
1111110110111011
10110001
1111111111101000
1111111011101101
100101010
101000001
1000000001
1111111101111110
10011011
1100010111
110101111
1111111101101001
1100111100
1000100
1110000100
10001110000
10110100110
11101100
1011111110
1111111110011100
1111111110101100
1111111111011000
1111110010100001
1111110100001110
1111101111110001
1111111010110001
1111110010000101
1111111100011010
1111111101000000
1111111111111011
1111111100011111
1111111100101000
100010110
101011101
10110100
1111111110000010
100100000
10000001
1111111111001001
1011110
1011110010
11101011
1010010001
1000000110
10001010100
1010100101
1111010100
10001011
1111111110101111
100
1111111100000000
1111110111011110
1111110010010001
1111111101101111
1111110111101010
1111111000010011
100000000
1111111011001100
1111111011000000
1111111100101010
1111111100111010
1111111110001110
1101011
100111
10101010
1111111010101000
1111111101000101
1111111111111010
11000000
1111111111111111
1111110010001100
100001010
10111100
1101001110
1100001001
1011111010
1111110100100000
1111110100101100
1111101111010010
1111110011010110
1111110111000110
1111110111000101
1111111100010100
1111111110001101
100100000
1010101
11010001
10100111
1111111110010111
100111000
10101111
1111111011110011
1111111111110110
1111111110101111
1111111101011100
1111110101000111
1111111000101101
101001000
1111110110110001
1111110011001011
1111110100010111
1111101100010001
1111110011111111
1111111000110110
1111111001010011
1111111100111001
1111111111010110
1111111000010000
1111111101011101
1111111100101101
1110000
1111111111111001
1010
1111111111100111
1110101
10000110
110101
11101101
1111111010100010
1111111101111001
111010
10110110
100110
1111111110100100
1111111100100110
10000
101100110
1111111111000101
101001
1111110110111000
1111110110011101
1111111110010110
1111111110001110
1111111110000110
1111111111011000
1111111011110011
1111111101100100
1111111101011000
1100111
110001
11010001
0
1111111101101100
1111111100001100
100000000
100000000
11000110
1111111111001101
1111111111011111
100110010
100010101
1111111011101101
1111111011001111
1111111101110001
1111111101101010
10111100
1111111101010011
1111111011010000
1111111111101001
110110
100001110
1100110
100110001
10010001
1111111111110111
111001
100001110
11010101
110101
10110010
1111111100010001
