1111111110010010
1111111110000111
1111111101101010
1110
11100001
1111000
11110110
1111111101000001
1111111011001111
1111111100101010
1111111111101000
1111111100111100
100101100
101010001
1111111011001101
1111111101011110
100110101
10101011
1010
100101
100100110
11000000
1111111100101010
1111111101001111
10011011
11110111
100010001
1111111101000101
101011000
11110000
1111111111111001
100110110
1100110
1111111101101110
110111
1111111110111101
1111111100101011
10001110
100100011
100011001
110000
1111111110000101
10010010
1111111110110000
100110101
1111111111001000
1111111110110110
1111111100100010
11111101
100010
1001110
1111111101101111
10000111
1111111100101110
100110110
11001011
10000001
11000
1111111011010111
1111111010110100
11000000
10101010
1111111010101100
11010101
1100010
1111111111010111
100010101
1111111111110000
1111111011111110
110010001
10101110
101010000
10000001
10100100
101001100
1111111110101011
101001010
1100111
1111111010111011
1111111010110000
1111111101010011
1111111110111011
1111111101010010
101100
10011000
101010111
1111111011001110
100001110
1000011
11000010
1111111101001000
1100000
10101100
110100101
11110011
1101111
1000101000
11010001
1111110111100111
1111111101001100
1100111
1111111100100111
111010
110000011
1111111011011010
1111111011011000
10111011
11100
1001110
1111111110000011
1111111010110110
1101000
10011100
100100011
1111111110111001
1111111110101101
1111111010110000
100100011
11101110
101011010
1000
1111111100100011
1111110110111000
11111011
1000100000
110101110
10000010
1111111001000010
100111010
1111111000000100
1111111010010010
10111000
10100110
1111111011111000
1111111010001000
1111111011011010
1111111001111110
11001100
11011010
1101011
10111
1111111111001011
100010010
10000001
1111111101000010
101110001
1111111101101101
1111111110100010
1111110110101111
1111110001101000
1111110101101000
1111111000011100
1111110100100001
11001010
1111111001101000
1111110011000000
1111111111011000
1111111010011110
1111111010011100
1111111011001001
1111111001101010
1111111101111010
1111111111001000
1111111100011110
1111111011011101
1111111011101110
10011101
100110111
1111111101011011
100100101
1111111110100010
1111111111100100
1111111101101110
100001
1111111110010101
1111110111111011
1111111010000111
111101
110111011
1111111010101110
0
1111111110100000
1111111100110000
1111110000010100
1111111111011000
1111110100001001
1111110101001010
101110000
1111111001010001
1111110101010110
1111101011010101
1111101111100000
1111110001101001
1111111000111000
1111111101110000
1101010
10100001
1111111110101111
1111100
1011111
101
1111111100110100
10011101
1001011011
1111111111110001
1111111011101010
11111010
1000
1111111110000001
1111111101100100
1111110001001110
1111110011101101
1111110011100001
10100010
1111111010000010
1111111011010101
1111111000011111
1111111001111110
1111111000101001
1111101100101010
1111110000101010
1111111111001100
1111111111011011
1111111110011010
1111111011111001
100001000
1111111011001011
1001010
1111
1001011001
1011111000
1000111001
11000000
10111101
11101111
10111011
1001010100
110000
1000100011
1111110101101111
1111111001001000
110101101
1111111110011110
1111111110011101
11010101
1111110101101010
110010
110101
1111110000111001
1111111011010000
1111111110100010
1111111111100010
11001
101001100
110111001
10011011
100110010
1001101011
1111010001
1000110011
1111010110
1001010111
10101010
110100
10000011100
1001001
1010110111
1111111011110001
1100111
1110101
11100110
1111110100100101
1111111101111110
1111111110100110
111001000
10110
1111111011000011
10110000
110111101
1111111101100101
100011000
1111111100100101
100011011
1111111110100111
1000010111
1100100011
1010110000
1111101111
10101001100
1010100001
10010000110
10101100010
1110100
1111111010110111
11101110
10000011
100101011
1111111101001100
110111100
100101011
1110110
1111111110001010
1001101100
110000011
10110
1111111000100100
11000000
1101001
10000110
1111111101111001
1111111110000011
1111111001011010
11000
11000100
1111111111101010
110111011
1000110010
1111111101001111
1111110101001011
1111111100001101
1111100011110000
1111101000110100
1000001001
1111101110100100
1111101011001101
1111101101011000
111000000
101011000
1010010
111001000
1000101100
1010000010
101010110
110010111
1111111111010011
1111111100100000
1111111100101000
1111111111111011
1111111011110010
1111110001100001
1111110110100110
1111101110101111
1111101010101001
1111110100011011
1111101000011100
1111100101001101
1111011100000100
1111011000010000
1111011001101100
1111111001110010
1101111010
1111111110010100
1111111111110110
1111110100101000
1111110101011000
1111110110011111
1111111010100011
1111111111000011
1111110110010000
1111111010001011
111111011
1001000010
11010011
1111111100100000
10001100
1111111101101011
1111111110001100
1111110100111101
1111100110000001
1111011101011100
1111010100000110
1111000111011000
1111000111001011
1111010111110101
1111010110110101
1111110000000110
111110111
10101100010
1011000000
1111110100010010
110100110
1111111111000101
1111110001111111
1111110100001000
1011010000
10010001
1111111011110111
101110101
1010100010
1000010111
100100101
110011111
101011111
1111111100000000
1101001
1111101101110001
1111011110000101
1111010010010111
1111010000100010
1111011001111111
1111100000011110
1111110100111010
1111111011010101
1001111110
11010101111
10100110111
101011010
1111110001000101
1111111111000101
110111011
1111111110100001
101101111
1111111101110010
110110100
100111
1010111111
1001111101
1011000000
10000011
10011110
11000
1111111101110101
1111111010101000
1111110010000110
1111100101101011
1111011110110001
1111101011011110
1111110010001110
11010010
11010000
10111100
11001010011
10010011110
100010011010
1110011101
1111111111011010
1111110111011011
1111111100111101
111011001
11011110
1010011
10100011
100010101
1011001111
100000010
111110101
1110000
1111111111101011
1111111011110001
100100
101101
1111110110101101
1111110100000010
1111101111010011
111101010
110101011
1111111100100011
100111100
11011000
10001101111
10110100110
1110000111
10000110111
1100010111
1001101000
1001001111
110111110
100001001
1111101100000000
1010000100
100100101
1011001101
1101000101
101001011
1000110011
11001110
1111111010110111
1001011
1111111101010111
11010101
1011011100
1111111110111100
110011101
110100
11100001
1010011
1100100010
1001101000
100011
1110110100
10010000110
100010000
100011000
110001110
1111110111010000
1111111000011000
1111110100111100
110100011
11100110
1101010000
1011111011
10100001100
1001111001
1111111110100001
1100000
1011001
1111111001100000
111010001
10011000000
101101100
1010111101
10100011110
100001011
110011010
1000011101
1111111000000110
11010110
100001101
1000000010
1000101100
1111111011111011
1111111101010111
1111111110010111
11101011
1111110110000001
101001001
1100111
1001010011
1011011011
111110001
1111111101011001
1111111101110100
1111111011111110
11101010
1111111110101000
1111111011001010
1011001010
1101010010
1001101110
10000100011
110110011
1011010110
1001111001
1001111000
1111111111110110
10111101001
110001111
1011010110
1010001010
1110101000
1111111000101110
101011011
1111111100111101
1111111100001100
1010110001
1010111110
100001011
1101111000
11011100
101001101
100101
1011101
10000011
111000110
1101001001
1111111101110001
1111100110
11011000011
10001011010
111011000
111101111
111110100
1111111101100111
1111111100110010
1111111001110011
1110100
110111011
100000111
101001010
110010100
11000110
1001101101
111010101
1101100101
1111100
1111111110110010
110010011
1110111
100101
1111111111110001
111101010
1010111010
111010100
10000100
101111000
1101110110
100010110
101101
1010100
1011110
11111001
10110111
11011101
1111111100110111
1111111011110010
1111111011111101
1000100111
1100100011
1111110100011000
100000110
1001001111
1001101111
101111100
110000
1111111100000111
1111111111011000
1100011
100000101
11110110
110011011
111010000
10100101010
100010001
101101011
10010111111
1010010010
111000000
11110010
1111111110001100
1111111011111101
1111111011101001
1111110111100111
1111111011101011
1111111111110010
1001101
10000011000
1111111101001100
10001001
10101011
110000
100000
1111111111010100
1111111111101000
110001
101000001
11010101
1111111110110110
1111110111101010
1111111101000110
11011010
100100010
111101
100100100
1101010
1111111111010010
1001110011
1111111101110000
1001010
11100110
1111111111110110
1001011100
1111111100010010
1111111110111010
100111011
1111110101110110
1111111010111001
1001011
1111111001011110
1111111111101000
1111111111000010
100001110
11000
1111111110011110
100001000
1111111110100000
1111111010011111
1001110
1111111011011110
1111111110100100
1111101100100010
1111110101001111
1111110101100000
1111111100100101
1111111010000001
1111110110000100
1111111001011001
11001111
1111111011110101
1111111011110000
1111111101000101
1111110101011001
1111111000101001
1111110100001001
1111111001110000
1111111100011000
1111111010011010
1111111111101011
101101110
100100111
10111110
1111111110001011
1111111011000011
1111111111110101
1111111011110011
100000000
101001
100110
1111111011011010
101001
101
11100110
110001
1011010100
1111111101010011
1111111010010100
1111111100111000
1111111111010111
1111101110000101
1111100110001100
1111101011000011
1111110100011110
1111110100011001
1111111001010000
1111111101100101
10110000
1111111011010100
110010
1111111101001111
1111111110101110
110110
11011111
101000101
1111111011100101
1111110101110110
1111101100101011
1111011
10010100
1001001011
1111111110110111
1111110011101101
1111111000011110
1111110101100100
1111110001111101
1111111011000011
1111101100011010
1111110111010100
1111110100100011
1111110111110101
1111110110010000
1111110101100001
1111110111111100
1111111101100100
1011101
100010111
1111111111111111
1010100
1111111111011100
1111111011000010
10101010
1111111011010100
100000001
101001101
1111011
10011110
100101001
1111111110010101
1111111111111010
1111111011111110
1111111001100100
11110
11001100
1111111010001000
1111111110100000
11111100
100101110
100101101
110001
1111111011001110
1111111001001001
11011001
11101001
100000000
1111111010101100
1111111111101110
