1010001
1111111011000011
1111111010101101
1111111101001100
1111111011101111
10110
100001011
1111111100001011
10010111
100101110
11110010
1111111010100001
1111111111000000
1001000
1111111010101101
100000100
1111111110011001
100111001
11011001
1111111111011100
1111111110100110
1111111110001011
11001100
1111111110000011
1111111010101010
11001011
11001001
1111111100000010
111000
11111010
1111111110101011
1101111
11
1111111100011100
1111111111001010
1111111010110011
1111111101001110
1111111100001111
1111111011010011
11001
1111111010111011
1111111100011111
10000111
1111111100011010
100011010
10010111
10001111
101001000
1111111100000100
1111111110011101
11111000
10110001
1111111011100011
1011101
10101000
10110100
1111111101101000
1111111110010001
100110011
11010001
100001001
10111001
1111111111110111
1101100
111100
1111111111110110
1111111110000100
1111111100100100
1111000
1111111101110011
1111111110110110
1101000
1111111100011101
101010011
1110000
1111111100010100
1111111011101110
10111010
1111111011011101
1111111111010101
10100010
1111111100000101
1111111110000110
11011010
100111111
110
1111111111010100
1111111100110111
111100
1111111100101000
10000110
1111111010101110
1111111010100010
110000101
101011011
110000110
1010011
1111110110111010
1111110111101100
11001011
1111111101100010
1111111100010011
1111111010000111
10110001
1111110111011011
1111110111010111
1111111110100011
10101010
1100001
1111111100101001
1111111111111001
10110100
10010101
1111100
1111111111101001
11110010
1111111111001011
11011010
1111111011001011
100010111
1111111101010100
101111011
1111111011010011
1111110110101001
1111110101111001
1111111010110100
1111110110110000
1111111110100111
1101101
11011101
110100011
1111111100010001
1111111110111001
1111110111111010
1111111100010010
1111111010111110
1111111010010000
10110
110000110
1111111110100011
1101000
1111111010111100
100001000
1111111100011011
11101
1110010
1111110110011001
101101011
11010111
1010010000
1111111111100001
1111111111101100
1110100
1111111010001111
1111111000011110
1111111011100000
1111111110110100
1111111010100100
1111111010101010
1111111111000110
1100110
1111111101111110
1111111011111011
1011100
101001111
11111101
1111111011001011
10001
1111111101100111
1111111101000100
1111111010110011
1111111111100010
1111111111101100
100010010
10101000
1010001111
101110110
1111111110111010
1111111110010001
1111111011010111
1111111110100010
1111110011111110
1111110110110000
1111111000010010
1111111000001111
1010000011
1111111101000110
1111111011110101
11110
1110011000
10100
1011011010
101101000
1111111110001111
1111111010100000
1100000
11110001
1111111011010110
11000110
10111111
110111
1100101011
111001110
1001011010
1000011011
11010000
11110111
1111111101101110
1111111101100011
1111111100110110
1111110010110101
1111101111011010
10111101
1111110110111111
11010001
1111111101000011
1100111
1010100001
1000001110
1010000110
1111111000110010
1111111010110001
1111111001101110
100010110
11010001
1011111
1111111111001100
101001
110101010
1001000000
1010001010
1010011010
10001110101
1010111
10100110
1111000
1111001
1111111101101011
1111110110101011
11001100
1001
1111111110110101
1111111110000011
1111111111001111
100001010
100000000
11110100
1111010111
1111111110111101
1110011
11000100
1111111111010000
1110111
1111111111100010
110111011
1000010
1111010111
1101100110
10111011
101110
110111000
1111111111010010
11100111
1111110010111001
1111111011000011
100111001
1010100101
11100111
100100100
1011110
100011
1111111010001000
1001110101
110011010
1011011111
10011000110
110110000
1111111101101111
10100
1111111100111101
11101010
1111111101000110
101110101
101011010
10001100110
1101010101
10100101
1111111101110011
1001000010
101101010
1110001010
10100111
111101101
10001011101
1111101011101110
1111111111011110
100010111
110001000
1111111110111101
1010010
100011100
100101000
1000100000
1001110000
1000100110
1111111000100000
1111111111010111
1111111111110110
1111111011001100
1111111011100111
1111111110010010
100011
10100100001
10001001000
110001011
11110111
1111111100100001
1110011100
1110101001
10010101100
100101100
1111100001011001
1111001000110000
1111110011010101
1000000000
1111110110011110
1111111001001001
11010110
101110000
1111111101110110
1111111011011001
10010110011
1111111111100110
1111111010100110
1111111111110110
1111111111100001
1111111100100011
1111111011100100
1111111111110100
100111001
1101111111
1011111011
110110
10001011110
10001001000
1100101011
10110111
1110101
1111111011001111
1111001111000110
1111010000100111
1111111000011110
111011
1111110101110000
1111111000111100
1010101
1111111110101011
1111111001000100
1101001
1111111100101101
11100000
11100100
1111111001001011
1111111100010010
1111111111001001
1111111111101111
1111111111100011
100100010
1111111011011111
101111001
1000111001
110111111
11011000
1010101111
1111111101100111
1111111101000101
1111011111100010
1111011110000000
1111110101101010
1111110010100111
1111110111111111
1111111010101010
101000
1111110111101011
1111111000000001
1111111101100111
1111111100011000
1111110110101101
11011101
1111111010110100
1111001
10110111
1001111
1000011
1111111100100110
1111111010111011
1111111011010010
1100001
101111001
10010100
110100110
1111111110101100
1111111000001111
1111011100010001
1111010010100001
1111101110001110
1111111101100110
110110011
1111101101011001
1111111100010001
1111110011111110
10011110
1111101000000001
1111110111111101
1111111010011000
1111110000000000
1111110111110111
1111111101111011
10100000
1111111111010100
1111111101100000
1111111010110010
1111111100010110
1111111101000100
1111110111101111
1111110001000101
1111110010110110
1111110110000000
1111101001101100
1111101110001001
1111010100101100
1111010111111110
1111100111010110
1111111001111101
11011010
1111111011010111
1111111010100000
1111110011010110
1111110000110110
1111101001000110
1111100101010000
1111110001100110
1111111100110000
1111111010001011
1111111010011000
1111111011010101
1111111110101001
1111111101101000
1111111101101010
1111111011010011
1010101
1111011
1111101011011111
1111100100000000
1111101011111111
1111011011001101
1111011001001011
1111001011000001
1111010111001000
1111010111101001
1111110101100111
1000010101
1011011010
100011010
1111000001
11111001
1111111000001010
11001100
1111110100111100
1111111001001001
1111111000110111
1111111001111011
1111111000110110
11111011
100110000
1111111110111100
10110111
1111100
1111111101110000
1111111001011101
1111111000000010
1111101100101111
1111100101010001
1111011111011001
1111010000010101
1111010100001100
1111101110110100
100011011
1010000011
10010000101
1110001100
1000010100
100011000
1111111111010011
1111111101011010
1100001101
111110011
1111110101001011
1111110101110001
1111111000100101
11001001
111101010
100101001
101000001
100000
1110
11001111
10000101
1111111001000110
1111101100010101
1111101010110000
1111101011011011
1111100111100011
1111110111001101
1110110
1000110
1010100000
10110001000
10010110
10001010011
1111111111110101
11000111
1100000100
11010001
1010101101
1111110110010010
1111110111001000
1111111010110111
11001110
1010101
1111111111001011
1011
1110111
1010110
1111111101000111
1111111100000100
1111111111101100
1111101101100111
1111111001011111
1111101001101010
1111110101000001
1111111111100100
1111111010101110
1011111000
1111100001
11100101011
10110011000
100110011
1110000
1101010010
11111111
1111110110011011
10
1111110100010000
1111110111000010
1111111110110100
1011011111
100110110
111101
10
1111111111100010
1011010
110110
101011000
1111111100111100
1111110110100010
1111111011111011
1111110010010110
1111111000010011
101000000
11101000
1111001011
10001100010
101110011
1000100100
1011011011
1010000100
110101011
11001010
1000001
1100101000
1111111100100010
1111111111101011
110100011
1000001001
11101111
1111111111000111
101011101
1111111100100100
100110111
11100110
1101010
11111111
1111111011010100
10100
1111111000000101
1111110000110101
1101110
1110111001
1000110110
1110010
1110011
1001001010
10101111010
110111111
11101000110
11001000110
1100000100
1111111111001111
1111111110000001
111000000
110111111
1000101100
100110101
1111111100110010
1111111110000011
0
1111111111001100
100000001
1111111101100100
100111101
101101001
1000011111
110011111
1011000110
1011001101
111011101
1011011100
1000111111
1000010110
10000001100
110101110
1111111011111110
11110011111
1011101101
10000110101
110101110
101000100
101011111
111011011
111111
101111110
1111111100011010
1111111011001010
10101101
1111111111101111
10000100
1111111101100100
1111111000110101
1000
101001111
111011001
1101101001
1000011011
1111111100100001
110111010
101000111
1001110001
1001101110
1111010110
1011001110
1111010011
110111100
10001100110
1111111011100101
1011111100
110011101
111011110
1111
10111111
10110
1111111110011011
101100001
11010001
1111111111100010
1111111100011101
10000011
1111111101110011
1000010
1111111100101010
11100101
1111111000010110
1111111010110110
1100010
110100101
1110000110
1111110101
10001001011
1111111111011110
1001101011
1010100000
1111110101
1000101
1010111110
111100100
110101110
1111111110101011
10101011
1111111010111100
1111111110110111
100111111
1111111111110010
10100111
11000010
1010110
1111111010100111
101010000
1111111101110110
1111111011101101
1111111111110011
1111110001110111
1111111101010011
100011
1111111011011110
100000000
10100010
11000110
1111110111001000
11101110
10111010
1111111011110101
1111111101100111
11110111
100110
1111111110111111
100110101
1111111111000010
11001011
11110000
1111111101011010
1111111100001010
1001001
1111111001101100
1111110110001111
1111110110101100
1111111100101010
1111111110000011
10010100
1111111000110110
1111110001110111
1111110001011011
1111110100111010
1111111011101111
1111110101110000
1111110011010000
1111110011011010
1010010011
1010100011
101110
1001110
1000101
1010100
1111111011011100
10100011
100001100
10101001
1001001
1111111110110010
1111111100111001
10100001
0
1111111101001010
11110101
1111111101010101
1111111011010010
1111111111000010
1000010
1111111101110101
1111111100001011
100100010
1111111101100001
11110110
1111111111110011
1001111
10110110
1111111101111000
100011010
1111111100000001
10000100
101011001
1111111101000010
1111111010101000
1111111011100110
1001100
