11101010
1111111010111011
11101100
100000000
11011000
1111111100101101
1111011
1111111011101100
1111111110110111
111110
1111111111100000
1111111100100000
10101111
1111111111011101
10111
1001100
1000000
1111111011001101
1100110
10001111
1111111100100011
1111111011011011
1001001
10
1111111111101100
1111111010110101
1111111101011100
111101
1111111101010111
1111111110010100
1111111011010100
1111111011110010
10000110
101001110
1111111110001000
111011
1111111100000010
1111111011011100
101110000
100101010
10010011
110001
10001001
11000111
101100001
111110
110000101
1111111110001001
100101010
1111111111001001
1000001
1111111110001001
11101
1111111101100101
100111110
1111111101011110
1001001
10001100
10010010
1111111111011101
101011010
1110110
11110001
11111111
100010011
101011110
1111111111010001
11100010
11010101
1110010011
1101010101
10000101010
10010100100
1101000001
1101101010
1010100001
101101011
101001101
100010011
111
1111111100001010
1111111100000010
1111111111001010
1001011
1111111101011101
11000110
1010101
1111111100111110
100001011
100110111
11000010
1000011110
110011101
11100111
1111111100000011
1111111000101111
100110001
1100100100
1001101100
1111000000
11001110000
1110111010
10110100010
10101010101
10010111001
100001100
111001001
10001101
1111111100100000
1111111101111110
11001101
1111111011001010
1111111111001110
10010011
1111111011000101
1111111101110101
1111111111011110
110111111
100110110
10010110
11101
10011111
1000101100
1111111100010111
110001001
11001101011
100010011
1010011000
1010001101
1111111011110011
111100100
1001100100
1111111101001100
1011010111
1111111001001110
1111111001010000
1111110111100000
1111111101001110
1111000
100101001
10000010
1111111110011100
11011
1111111001101010
1111111010010100
1010010100
1111111101101101
1111111110011100
111111101
1001100110
110110110
10011010
11000000
1011000101
11000101
111010100
1111110110101100
111101111
111000001
1111111100111110
1111111001011000
11100111
1111111011011011
1111111101001001
1111111011101101
10101000
1111111110011100
1111111110101000
1100001
1111111011110011
1111111110111000
1011
1111111111010100
1111111111011010
1111111111111001
1111111000111001
1111111001110000
1111101111100001
1111111001111010
1110101110
111011000
1000001001
10111100
110
1110110
10001101
1111110001
1111111110001100
1111111001011111
1111111100110001
1111111010100101
1111111011001111
1110000
1111111110011001
1111111011110100
11010000
1111111100001110
10010100
11101111
1111111110011101
1111111110100101
1111111000000100
101010011
1010101
1111110101001000
100000101
1000111010
11110001
111110111
1111111101010000
1101111100
10000010001
1000010011
101110001
1001101010
1111110110010100
110100001
1111110110100110
1111110110010011
1111110111011000
1111111010110111
1111111100100100
111100
100000010
100010000
100111101
1100000
101000
1111110111000110
1111110110011110
1111111111110010
1111111101101011
111000001
1111111100010111
1111111001001111
111100101
1110010001
101001010
1001000100
111111011
1111110100101011
1111101000000011
1111101011001010
1111100101111000
1111110110101001
1111100110101110
1111101100011111
1111111011111110
1111111110010011
1111111111101000
10010110
100
10111111
1111111101001101
1111111010011011
1111111101000000
1101010
1111110011101110
1111110111101111
1000011010
1110100011
1000010
1111111011101001
1110011011
100000011
1111110111111110
111
1111110010111111
1111010101110100
1111011010011101
1111100000011111
1111011000011111
1111100001110001
1111101001001001
1111101100000101
1111111010100010
1111111100111100
1111111011111011
1111111011011001
1100001
11110000
1111111111010100
101011001
1100111
1111111000011000
1111111000010011
1111111101001011
1111111000110000
100100100
1011110001
1111110110011100
1111111110011100
1011000011
1011011100
100101000
1111101110001001
1111100001011001
1111101101110000
1111101110010100
1111101111101001
1111110000011010
1111110010000001
1111111000011111
1111111000110011
1111110101111100
1111111010111100
1111111111000000
1111111010111001
101001000
11011000
10010011
1111111111011100
1111111101100010
100011010
1111111111011010
11100011
1111111000100100
1111101111100101
1111111100000111
1111111011011111
110110010
10110010110
11101100
1111111000110000
1111101011
100000010
110000
1111111111101010
10011111
11011001
110001011
100111
1111111001010101
1111110010011010
1111111111011111
1111111111000011
11001101
11011101
11111111
11110111
1111111000001101
100101
111011000
111011001
1011000000
101101
1110101
10111000100
1110001011
10011010
1111111101101100
111100000
100000100
1111111011110101
111000101
1111111101111010
1101111110
110011111
1010010110
110101100
1111111100101101
1111111111000101
1000011
11110001
1111111110111000
11011010
111001
101010101
1000011000
10000000
1100011010
100110001
111111000
111101001
1001100101
100010110
0
1111110001000101
1111111101110010
100111101
1001110100
1010110001
1111111010101010
1111110110011100
1001000011
1010000111
1011101010
1101101000
110010
1111111000101100
1111111101001010
1111111100010000
1111111010111101
1111111110100110
1111111111000111
1111111101000111
11000010
11010110
10011
1111111101011011
110101
10000
1000100011
1111111101010101
1111110000101011
1111101001110010
11100111
110111
10001101
1111111010001111
1110
1111111111001011
11000100000
1110110001
1010110111
110000111
100010001
1111111100001111
10011001
11010100
1111111010111000
1111111010011111
11001
1111111101100110
1111110111100001
1111111110110001
101100
1111111010011001
1010100
1111111001001000
1001010100
1111111110000001
1111111001001110
1111111101001001
110000
1111101100001111
1111111110011111
10001010
1000000000
1100100010
1000000110
10011110110
1111111101111000
1001111101
11101110
1010110
1000110
1111111011011011
10010010
10001000
1111111011000110
1111111110110100
1111111000110000
1111110111111110
1111111010010101
1111111101101100
11011111
1111111011011000
11001110
101110000
1111111100101110
1111110111110000
10001100011
1111111011110011
11010000
10000111
11001100
110001000
1010101101
110010000
1111111100010001
11010110
110011011
1111111101100011
1111111111111001
1111111110100001
1111111100101010
101011100
1111111011101111
1111111101010110
1111111100010001
1111111101100100
1111111001100110
10000
1111111111000110
1111111010101001
111011000
1111111111001001
1111101001110001
1111110000111100
10001010100
101111100
1111111001010011
100110111
1010010110
1111111110000100
1111111100000101
1111111001000000
1111111011000000
1111110101100101
1000001011
10000000
1111111110000001
1100
1100
1111000
1111111110001100
1111111111110010
1101101
100111110
1111110000111010
1111111000000100
1111110101011010
1111111101101010
1111111000011010
1111100110110001
1111101001001111
1111110110010011
10011000000
1101110000
111010011
1011010101
1000000101
1111110111001110
1111110000101011
1111111001001010
1111111001111100
1111111011001000
110000
1111111011011100
11100000
1111111100001111
10010010
1111111111100111
1100010
1111111011100001
1111111010110011
1111110110011101
1111111101111101
1111110111001010
1111111101110110
1111111111000000
1111110101010100
1111111100110010
1111110010100010
1111111100001000
10010010101
10010001011
10010110010
1111111010110010
1111111101011000
1111111100111011
1111111101010100
1111111001100000
1111110111010101
1111111011110101
110100
1111111100110110
11010100
1111111101110000
1010
101100
1111111010101011
0
1111111010100011
1111110101001101
1101100
1111111110000110
1111111111000001
1100100000
1111111110101010
1100011
1111110010010010
1111111011111101
11000011010
1100100111
1111111000
10001001011
10010110111
1100001011
1011010
10001001
1101
101010100
1001011010
1111111110011010
11100010
101001100
1010100
1110110
1111111101110111
10101000
101010111
1011100010
1100001110
1000010111
1100101001
1111111010110000
1111111100101000
1111110111110111
10000001
1011000
1100011110
1100111101
10000000010
1110101001
1111100011
1111111101010001
1001110111
1111111101011000
1111110001000110
1111111100000111
101011110
1111111011000011
1111111011001011
1111111110111000
1111111010110001
111000
11111001
1111111111010111
1100100011
1010011100
1111111111011011
1101011
11100011
1111111000010111
1111111110111000
1111110111110100
10001101
1111111110100000
1111111100110100
111010001
111101110
100101111
110101
1111110000111011
1111111010111100
1111110101101000
1111110010111001
1111111010111110
1111110111101111
1111111111101111
101111
1111111101101111
10010001
1111111100101001
100000110
10101101
101110111
1111111111111011
1111111100010110
1111110101100110
1111110011101011
1111111010011011
1111110010010001
1111110000010000
1101101100
1111111110101101
111000110
10001110101
110101011
1010111000
1111111100010011
1111111110001001
110101101
101001
1111110110111010
1111110101000110
1111111000011001
1101111
1111111111010110
1111111110001011
1111111101111101
11011010
1111111100000010
10110111
10011
1111111100110111
1111111010111011
1111111000110111
1111111010101110
1111111011101110
1111111101101000
1111111010110011
10000010
11100
1111111000100110
101111110
10000010
1101001111
1111001010
100000010
1010
100101001
0
1111111011001110
1111111001011001
100000110
110110
1111111110011011
10110110
1111111011101010
100100110
11000010
1111111101001001
1011001
1111111111110000
1111111100001101
1111110111001000
1111111001000001
1111110011111110
1111111101001110
10011001
1010000011
111000000
1010100
101001110
1101101
100001000
110010001
111011
1111111111000111
100110010
11110
10000
101010101
10101001
1001110
10011111
1111111111011110
111001
101011100
101001101
110011
10010010
11000000
1111111110000100
1111111110000100
100001000
10000000
11010
1111111101101011
100010111
101000100
1100001101
101111110
1001
1001100111
1111111111101001
1111111101010100
110010
1111111111000011
11110111
1111111011101110
1111111011010001
1111111011011110
10110100
1111111100101100
11011100
101000111
11
1111111101000111
1111111101100100
100010101
1111111100000011
10001111
11001
1001011
10101100
101111110
1110000
1111111100001011
1100111
110000011
1111111100111010
11100011
101110010
1111111010111100
1111111101000011
1111111100110110
10000101
1111111101110111
1111111101010101
1111111010111110
