10100111
1111111111011111
1111111010101011
1111111101001000
1111111011100100
1111111011011001
1111111110101110
11101010
1111111110111000
100010110
1111010
10011011
100001000
1111111100101110
100010010
1111111010101101
100001111
1111111011110000
1111111111111011
1111111011100010
101010110
1111111101011011
1111111111111000
1111111100001010
1111111100010000
101001101
11111110
100110011
1100100
1111111011011010
11110001
1111111111001010
11000000
1010
11101101
1111111110110100
1111111011110110
1111111010111110
1111111011100000
1111111111110011
101100
10011
1011111
1111111011111001
1111111100001010
1111111111010001
10001001
100000111
1111111100011000
100011111
10001001
1010010
1111111100111111
10111001
1111111010110011
10111
11001100
1111111010100111
1111
1111111011010101
10100100
1101111
1111111101000100
1111111011110000
1111111010111011
1111111110111010
1111001
1111111011110100
1111111011111101
1111111000101110
1111111110000110
1111111111101001
1111110111000001
1111110101011001
1111111100101100
1111111000000001
1111111110001100
1111111010010000
1111111011011011
1111111011011101
1111111100100110
1111111011111001
1111111110011101
1111111011001111
1100110
110110
1111111110101100
10000100
11101
1111111100100000
1011010
1111111011011110
1111110111011110
1111111000011101
1111111001110110
1111110111010000
1111110110101011
1111110010011000
1111110010001101
1111101100001100
1111101110001001
1111110101110110
1111110011000000
1111110011000011
1111110111101111
1111111001110000
10001011
11001110
1111111001001101
1111111111101111
11000
1111111110001011
1100110
100010011
1111111011011111
1111111111110010
1111111101010011
1111111101101100
1111111101110000
1111111000100011
1011100
1111110101110100
1111110010100010
1111111000101000
100111
1100000111
11110111
1111111011111001
1111110110101111
1111111000010100
1111111001101100
1111111010000010
1111110110000101
1111111010010101
1111111011111011
11101111
1111111101110100
1111111110110010
1111111110100011
1111111100010110
10111110
100101000
1111111100010100
1000111
110010
1001001011
10110111
1111111010101110
1000011011
1000001100
0
1100011
11010001
101010010
1111111010110111
1111110110100110
1111110001100011
1111110110110000
1111111111101010
1111111001001000
1111111001010110
1111111010101000
1111110110001101
1111111100010100
100000111
1111111101100011
1111111100101011
1111111011011101
10100110
101001010
1111111110101011
101110011
1111
100100100
101010000
1111111011101011
1000100010
110011000
101110
1111111111111011
1100010
110011100
1101001110
1100001101
1110010100
100111011
1111110111111010
1111111000001001
1111110110000111
110001001
1111111101110100
1111110101100000
1111110010010011
1111111011001000
1111111111010110
1111111110011001
10110100
1111111100100110
10010
111011101
101001011
11100
1111111100110000
1111111101001001
1111111011101101
110010000
1111111111000011
1101
1000010001
1100100010
1111111110111100
11001000
11001101111
1111100110
101111
1010011110
11101001
10001010110
1111111100110011
1111111010101110
1111111110000010
1111111011000110
101111
101000010
1111111100010111
1101001
1111111111111111
1101110
1111111101101111
1111111101010000
1111111110100100
1000
10100110011
1011011
101001001
1000101001
1111111101001011
101111
10100101
100000010
1100110000
100010100
1000101111
1111111011101101
1111111001101000
1111111000111000
1111110111010101
1111111010111110
1111111010111110
1111111111111100
1111111011100011
1111111011001101
11100010
110000011
1111111111000111
1111111110010111
1111111011010110
111000011
111000101
0
110110001
101001001
1110100011
100011110
11011001
1010111011
10010111
1111111110101000
1111110111100000
1101010001
10000100010
110100101
110
1111110101001001
1111110001101001
1111101110100110
1111111011001000
1111110101100110
1111111100110001
1111111111011010
1111111111110100
1111111110100100
100000000
1111111110011001
101001
1111111110110100
1110001111
111010011
1111111111111100
1000100101
1111110101100111
1111111001110010
1111111101011001
1111111111000100
1111101100011000
10101101
1000101111
1000110000
1111111110110001
101110000
1111111100101010
1111101101111100
1111100100111001
1111101011011010
1111101000111011
1111110100000111
1111111100110110
100001
110101
1111111111000011
1000101
101001010
1111111000011010
1111111011110100
1101010000
10110001
101111011
101101101
1000000010
110111101
1010000101
1000001100
1110110
10101011001
10100111
1001010000
101011111
10101000011
1010010011
1111110111110001
1111110011100100
1111100000010110
1111101001100010
1111110100101101
1111111100101110
101001100
1111111100011100
1111111101100111
11111101
10101011
1111111100001001
1111111001100000
1111111100110011
1111110000111110
1
101011011
1111111111100111
1111111101100111
1111111010111110
1111110110110010
1111110010000011
10001100
10010100010
11011001
10111000010
1101101111
10010110011
110100101
1111111000001011
1111101001000010
1111101100001011
1111111000110101
110111
1111111111010100
10101
110101
1111111110111011
1011111
1111111111010110
1111110110110010
1111111100010100
111110100
100010100
10110001
1011011011
1010001
1111110010011000
1111110100010001
1111110000000100
1111101110111011
101001000
100011111
11110101
10010000
111101001
110001101
1111110110011010
1111110001110111
1111111100111000
1111111100010101
11001010
1111111011100100
1100000
1111111101100010
100100001
1000110100
100011010
1111111010010100
1111111010011100
111001011
11010000
1111110001100101
1111111000010001
1111110101101011
1111111100100000
1111110111110011
1111101101111011
1111111000101000
1111111111000111
10000000000
11100100101
100000010110
10110001010
1111110111011010
1111111000001001
1011110
10111011
101001010
10011110
1111111101101110
1111111010101100
1111111101000011
101000010
1000001100
1001101011
1111111110011010
1111111110100000
101000101
1111111111000001
1111111011001111
1000111001
11100111
1111110111100101
1111110101001010
1111110100110110
1101100110
11001100
10110110011
10111101110
11100011100
1111100111
1111110101001110
1111111001110010
10000001
1111111110011000
110
1
1111011
11110111
100101010
1111111101110111
1111111100010010
100000010
1110001
1111111100001101
1111111100110001
1111111110010111
1111111111011101
100101111
11011111
1111111100000000
1111111111110100
1111111010101110
10000011110
10101010001
11101001110
1111001100
101000000
1111111100011110
1111111001000010
100011101
10100110
1111111111001100
1111111111011110
1111111110110010
110011
1111111101000110
1111111010100100
110001
1111111110110111
101000110
1011
11101110
1111111110100011
1111111010001010
110111111
1101111101
1111111110111111
1111110000010001
1111111111001100
101110110
11011100011
11000011010
10100100011
100111001
1111101100110000
1111110100110110
1111111111010100
1000000100
1111111110100100
100111101
1100011
111001100
1111111100111111
1111111110101100
1111111011111110
1111111100010110
1111111100010001
100111
11001110
1011001
1111111110101011
1111111111101000
11001010
11101000
1111111101111001
1111110010111011
1000001011
10101110101
1111111111
1111000110
100101100
1111111011110110
1111111110001100
1111111011011101
1111111110001011
1111111100001101
1111110111100011
1111111101100011
1110100
110000101
1111111110100001
1111111010101111
1111111110010110
1111111111001001
1111101
111101000
10000111
11100110
101011111
101000000
1111111111100010
100101000
111001010
110100010
11011100
10000111111
11011000
1111111011011110
1111101111101011
1111110111100110
1111111100100000
1111111011010011
1111110100010011
1111110110111111
1111110111000011
10010
101
1111111100010000
100011001
1111111100000111
110000
101001011
100000111
100000000
1111111001100100
1111111000101010
1111111100011010
1111111010100111
1111111000000101
1111111101101011
1111010
1111111100010011
100000011
1111111010001000
1111101101110101
1111110000100110
1111110000001001
1111101110101000
1111111111010110
1111111000110110
1111110011110011
1111111000001011
1111111101110000
1111111100010100
1010000
1111111011110011
10101011
1111111011001101
10011110
100101
10101111
1111111101011010
1111111110011110
1111110101111101
1111100100010110
1111111010111111
11000011
1000010101
11000001
101100100
1111111001100111
1111101101000001
1111101110111110
1111111000110100
1111101111010101
1111111000000011
1111110111001001
1111111011101111
1111111101011101
1111110100111100
1111111101001011
111011110
1111111010100011
1111111011010010
11101001
1111111100101010
10111000
1101101
1111111111011111
1111111010000011
1111111000101111
1111111010101111
1111111110110010
1111111011010100
1111111011100110
101011
1111110110111100
1111111010010100
1111101101100100
1111111010010110
110000
1111111111010001
1111101101100010
1111101101001101
1111110001011100
1111111000101101
1111111100110000
110110011
10101100
1111111101011001
1111111010100001
10001001
10001101
11001100
1111111010100011
1111111001101001
1111111100111000
1111110101111101
1111111110100011
101001011
10000001001
1111110011010011
1111110110000001
1111110111101110
1111111101100001
1111110010110110
1111110101000100
1111110110011111
1111111010111000
1111110000010000
1111101111011100
1111100111101110
1111110011111011
1111110101110111
101000010
10000000
1111111110010000
1111111101010110
1111111111100110
0
1111111110001100
1111111010110100
1111111100011011
10111010
1111111000001100
11011010
1001101001
1000001001
1100010
100010
1111110111001101
1111111000110111
11110110
1111110111000110
1111111000100110
1111110110010001
1111110101101111
1111110010000010
1111111100010100
1111111011110010
1111111111011110
100111110
110000001
100001101
11010011
100100100
1111111101000111
1111111011110011
100101010
10100100
11001001
10
100111
111010100
10011010
1111111111111011
1000001110
1100010111
111011001
1111111000100001
101011011
10110011
1111111101000011
100100110
110000010
1000110011
101100011
1000010101
11101100
101111110
101110101
1111111110101100
1111111110111100
1111111011100011
100000000
1010101
1100011
1111111101101011
11000110
1111111011000111
1111111011100110
1111111011110101
1111111111110010
1111111110110001
1001110111
1011000110
1010000010
1000001101
101011101
111110011
10001100101
10110000110
1100001111
110100111
1100001011
1010010011
1001110011
1010110100
1011010010
1101001
1111111100011010
10111001
1111111100011110
10000000
1111111101000111
1111111011100010
100110111
1111111110010110
10000100
1010000
10000101
11100000
101010100
111001
1111111100011010
110010
1110110
1010110
1111111100010101
101100111
11111001
110001101
1111010
110000100
1111111110100010
11010110
101010110
1111011
1111111111110001
10110101
1111111100010010
101000010
100010000
