1111111111111010
1111111011010110
10111111
1100011
110000
1111111110001001
1111111110011011
100001010
110000
1010001
100011011
1111111011011011
1111111100110001
1111111010101010
11010100
11011111
1111111111010111
1111111101110001
1111111011001000
1111111101001011
10001100
1000011
1111111111010110
11101100
100111101
101100
1111111111100101
1100110
1010101
100010
1111111011000000
1111111111111101
1111111100001010
1111111110011011
1111111011000111
1111111110011011
100000011
11010010
100100110
11000001
1111111011000111
101100101
10001011
1111111100010110
11011100
100101110
1111111101000001
1111111111101101
11100001
100101101
1111111100110101
1111111111010100
1110101
1111111110101110
1111111101101111
1100101
1100101
1111111011000000
1111111011010100
1111111100001101
1111111010101000
1111111100110001
11000010
1010001
1111111110001001
100010000
100010
1111111011010110
1111111110111001
1111111111010010
10110000
100100001
10101010
100011010
110100011
1111111111110001
110010001
110001
1011
1001100
1011111
1111111110101000
1111111100111101
100010001
10010001
101010
1111111101100010
1111111010110110
100010100
10100110
1000101
111010
1111111110010001
1111111101000000
1111111101010010
1101
1111111111100011
1111111010101001
1111110110101101
1111101110011011
1111110011111000
1111110111011011
1000101
100000010
1010011
100011110
1111111010101111
1111111110011101
1111111110100111
11100010
10001
1111111101101111
1111111010110100
11000101
11110011
1100
1111111011000010
1111110110110100
1111110101110111
1111110010100100
1111111000110001
1111111111100000
100100
1111111110101011
1111111100100101
1111101100001100
1111101111101111
1010100
1111110
11101001
1100
1111110110010100
1111111010101000
110111101
1111111110010010
111100101
111101100
1111111111110010
1111111101011000
1111111101111111
100001
1111111111111010
11111000
1000000
1111111011001111
1111111110110110
1111111101000010
1111111011110010
1111111011010100
100001
111111010
101010110
11100011
1111111100011111
1010010011
110
1110010001
1111111001
11010101
1111111011011010
1011011011
1000100001
1101100010
1101111100
1000110110
110000001
1111111111011110
1111111110000001
1111111110111110
1111111110101100
1111111101000100
1111111110101001
1111110111000100
1000101101
110000111
111100000
1110010101
110100000
10010110110
10011111
1011010000
1100000010
1110110111
110011010
1111111001111000
1001100100
11000001
100011101
1101001011
1010000
111001011
1011000101
1101101101
1111010101
110100110
100110111
1111101
1011101
1111111110111000
1111111110111101
1111111100010100
111101111
1000110011
1110011001
10010010011
1010000011
1010011111
1100010101
11010010
1111111001111001
1111111010101111
1110101
10000101011
1011111011
10100011010
1101100010
11000111101
1101101110
10011100010
10100100100
1110100000
1110010010
1010000101
101000100
1111111100110101
1111111010100111
1111111001111010
1111111101011000
1111111001000001
1100010
100111000
11001000
10001001
10110110010
110100001
11011101
1010001111
1000001000
1111111100010110
101000011
10000111010
10011110011
111011010
1101000111
101111100
1100100110
1001111100
11001001100
11000001010
1111010011
1011001111
100100000
1111111101001001
100111111
1111111011010001
1111111101110010
1111111101110001
1111111010111011
1000010101
111100110
111101111
110101101
10101110
1001000010
101000
110011
1111111100110000
1001011111
1111111100100000
1001110
11101011
100100111
1111110011110101
1011000
101101001
10101111001
11100110101
11000000001
1111101
101011000
1111111011000100
100001100
1111111111111001
1111111111100000
1111111110101111
1111110110100011
11111101
1111111010111000
1000101010
110001101
110110011
100111000
1000010011
10001011111
110000000
1111111000111110
1111101010010100
1111100010000001
1111110110011111
1111100011101110
1111101010101111
1111110001101000
1111110111011111
1111110111001010
100111
1001100101
11011001
1111111101000111
100110110
1111111011011010
11110111
1111111110110110
100111111
1111111010100100
1111111100100110
1111110001011001
1111110110100010
1111111100001000
110000000
1111110
11011100011
10011010001
1010010010
1111110001001101
1111101101000001
1111100101000001
1111110000110100
1111100101100000
1111011001111101
1111100100101101
1111011001100001
1111100011001001
1111110100011111
1111111011000101
1011010
1111111111010100
1100100
1111111011101100
1100
101110000
1111111010100111
1111110110000000
1111111100011000
1100010
1110110011
10101000
1011011010
1010111110
110110011
1111111110010010
1111111000001000
1111101001000011
1111100110010000
1111101101001001
1111110011111000
1111101010000011
1111100100100000
1111100110011110
1111011110101111
1111101000001011
1111101100010011
1111111010011100
1101
1111111110101110
10110111
1110110
100011100
1111111101101101
1111111100010001
1111111000100100
11001111
100000110
1111111101100111
1111111100101011
100101010
10101001010
1101011100
1111111001110110
1111110001000001
1111110101000010
1111100100101011
1111101111010010
1111110100111000
1111111100111000
1111110010110101
1111101010011011
1111100111011011
1111110110111111
1111111110001111
1001100
1111111100010100
1100000
11110000
1000001
11010111
1000010
11001101
1111111100100111
11111
1111111010011010
1100110111
1111111111110010
10101000110
1100101001
1111110110001101
1111101000110011
1111111110111000
1111110100101110
1111101000111111
1111101010011100
1111111000000001
1111110101011001
1111111011110000
1111101111000101
1111110101011010
101110
1111111010110111
11110010
11101111
1111111111101001
1111111100010111
1111111011110111
100011010
1111111110011000
1111111010011000
1111111110000000
11100110
1000010
110100011
10010101101
1001110000
1011001001
111101101
1111101010111101
1111111010100001
1111110111000011
1111110010000110
1111111011100010
100000011
1111111100111101
1111111011100010
1111111100100011
1111111100011000
10001010100
1010011101
10100010
101010111
10010111
111101
1111111101011100
1111111110100000
1000101
1111111001100110
1111111000101011
1111110000110111
1111111000100101
1111111110101001
1111111111000100
1000101010
1111110101010001
10010010
1111111000011001
1111111010101010
1111111101001101
1111111011110101
1111111001001010
1111110001101101
1111111101010010
1111110101100100
100110001
10000100001
1101000010
11010000
1111111111101100
101111110
11110111
1111111100011111
1111111011010010
1111111110001001
11010111
1111111011111010
1111110011110100
1111110101111110
1111111001101010
1111110101000011
111011
11001000
1111110011001111
1111110110111101
1111111100100001
11101001
1111110111111110
1111110101000110
1111111100011010
1111111101100010
111010
1111001
1111001001
1011110110
10000111101
1111111111010011
1111110110111111
1111111011000100
10111001
11110111
10100000
1
1111111111100111
1000111101
1111111110011100
1111
1111111001111010
1111111100100010
1111110101110111
1111111110001101
1111101100011110
1111110000101111
1111110111001100
1111110010101001
1111110100100011
1111111011111110
1111111101111101
11
100010101
1111111111101001
1000110111
1110110010
110110001
1001101100
1111111000100010
11101000
11001100
100001
1111111011000011
1111111011111111
11101
110111010
100010100
1100001100
1111111100011101
101010011
1111110101110110
1111111100010110
1111111110110001
11001
1111101110010100
1111101101010001
1111100110011101
1111110001001101
1111110000011000
1111110101001010
1111111111001001
101100000
1100000010
10000100
1010100111
110110010
100
1111111101101011
10011100
10101001
1111111100000110
1111111101010100
111011
11100001
1110001011
1000010011
1111111111111101
111110111
100111110
101010000
110011100
1111010111
110011111
1111110010110111
1111111111000001
1111101111011001
1111110111101110
1111111110100011
1000011
110110010
111000110
110010001
1110111111
100001011
110101110
11011100
1111111111100000
1100001
1111111101011111
1100111
10110010
1010101101
1010110111
110111000
100000011
1011000011
1001011000
1111111010001111
1001110010
10000100101
11101100
111001010
1000101110
10001
1111111111111000
1111111101111000
1011101101
10000011010
1100011010
1001100001
1010100001
1010110001
101101010
1111111100100001
1111011
1111111110100011
1111111100101111
1111111111001111
1111111110011111
10000000011
110000110
1000101000
1001101011
101101001
101001
1111111011111111
10010000101
1011000100
1111111100011100
1001011011
1100000011
1000100
1000110100
110010101
1010110111
1111111010100111
10001100
11100100
110110011
101010001
111111100
1111111110011101
1111111110101011
1111111100100111
1011101
11111
10000000
1000010000
11000000101
10000010101
1111100011
100100
10111010001
10001101000
1011111001
10001010101
110100011
1100001100
1001111000
10000101001
1000001
1111111101111000
1111111010100101
1111111111001000
1111111100011111
1011011
1000001110
1100100000
1001011010
110001
1111111111001011
110010
100011110
1111111011100001
1111111111111001
1111111011110011
10011001
110110100
10100101011
1101001110
11010010011
10011100110
1100010001
10111111100
10110011111
10101011011
1010010111
1000001011
1111111100000111
1001111000
100001011
101011100
11010
11001111
1111111111110010
101010010
10100001
1111111111010000
1111111111100001
11010110
100000100
10111000
1110101
1111111111011111
111110
110101100
110100001
0
11111001
1110100100
1011100011
1111000011
11001110010
10000001001
11110101111
10100110000
11000000011
10011110001
10110100011
1101111100
1100101
110000010
1010101
100000111
10100101
1111111010110100
1111111110111010
101100001
1111111110011010
100010110
1111111101001100
1111111111110101
1111111011101000
1100110
1111111001111000
1111110001110110
1111110001010000
1111111000110100
1000000100
101011011
1000011111
100
101010110
100001011
11110
10010000
101011100
101110101
1111111100110001
1111111101101100
100100001
1100110
100100010
10100
1111111100000101
1111111011001100
1110011
1111111111111010
1111111111110010
1111111011000011
11001001
1111111101110000
1111111011101111
10
1111111010110100
1111111101100011
1000001
1111111101000100
1111111101000100
1000101
10100
1111110
1111111101110000
1100000
1111111100111010
1111111101100101
1111111101110000
11101011
1111111101000101
1111111101101101
1000110
10001111
1111111011101001
