10011011
1111111110001010
1111111100100111
101001101
11011
1010001
1111111110000011
10011101
11011011
10100111
11001101
11111000
10000000
10011111
100000100
1111101
110111
100101101
1111111100011010
1111111101111001
110
1111111110111101
1111111101001110
100010100
1111111110000001
1111111
1101001
1111111100010010
1111111100001000
1101011
1111111011010101
1111111010100011
100010111
1111111101101001
1111111111100001
1111111010101110
0
100100111
100011000
100011110
1101011
100111011
11100
1111111010111010
1111111101101110
1011111
1111111111011001
1111111110100010
1011110
10101110
1111111001101111
1111111110010110
101001101
10000101
1111111111111110
11001100
1111111011111010
1111111111010011
1111111101101110
1000110
1111111110000000
1111111110100001
11011000
1111111100110100
110
1111111000101001
1111110101101000
1111111110011001
1111110101011110
1111111010010010
1111110010011001
101000
1111111011111101
1111111000001101
1111111100011111
100010
1111111010110000
1111111100110110
1111111001111001
1110110
1110110
1111111010111100
1111111101110010
1111111110110100
1111111011010101
1100101
1111111110010001
100111101
1111111111101101
1111111110010100
1111111010110001
1111111000100111
1111110000001011
1111110100011110
1111110001001111
1111101101100110
1111110011001000
1111101011011011
1111111000100100
1111111011010000
1111111010001101
1111111010011101
1111111100101001
1111111110100000
1111111011101100
101111101
10001
1111111010100111
1111111010001000
1111111100110011
1111111011001010
1111111100011000
100100011
1111111011011010
1111111111011000
100010010
1111111101011000
10
100110001
1111111000011100
1111110111110010
1111101011110000
1111111000011001
1111111011011110
1111111100010110
1111110110100101
1111110111101100
1111111110001100
1111110111111100
1111111101011011
11110
110000111
1111111110110001
110100000
1101000000
1000001010
1100111111
1111111110101010
10110100
10000100
101
10110011
11100
1011111
101010111
1010111
100000001
101011110
1111111000001011
1111111110000100
1111111100011110
1111111111000101
1011110101
1111111100111110
1111110110100000
1111110100100110
1101000101
10000101110
1111111111011101
1111110111000000
1111111011110000
1111110101111010
1111111110001010
111
1000000000
111010000
1111111111111011
1111111011000101
1111111101111110
10100000
11011111
1111111100000000
101111100
11001111
100010100
10101001
11101010
1011110111
10000011
1101111101
111010101
1100001101
1011101101
100000000
1010010101
1000010100
1111110010010010
1111111100001101
10011100
11001
1111111011100111
1001000000
1111111010111111
1111111110010100
1111111110001010
1001100
1111111100011101
10100110
101001
111101
1111111111000000
10000110
10000001
1111111111101111
11101100
11010
100011100
1111111100100100
101001001
1111111111000001
1111111010010010
1111111101101010
1111111110000101
111111
1111111001001100
1111111101011100
11100010
1111111010100000
1111110111011010
11011000
101011010
1110100
10010001
1000110
1111111110111000
100101
11010100
1111111110000011
1000101111
101101111
1000010111
1001111000
1000001011
1100110011
1111111111100011
1110111
1111111001001101
1111110101100001
1111110001110111
1111111110101111
1111111000111110
1111111011100001
110001111
1111111011110100
1111111001000110
11000011
1110
10111101
1100001100
110100110
100101011
100001100
1111111011101110
1111111011010110
11110001
100010111
1010000100
1110111101
1010010001
10000001011
1001011001
1001001
1111110110110100
1111110110110011
1111110011010100
1111110100000101
1111111101100001
10111110
101010000
1101001011
1010111011
1111111011101010
10111010
10000001010
10010000011
100111010
101111101
100101010
10111001
1111111011111101
1111111111000100
1111111101011100
10101001
1010101100
110100100
1000110
1111111101001111
1000111001
1111111101000111
1111111000001101
1111111000000011
1111110100100001
101011000
1111101101110010
1111111001101111
10001100010
100011110
110110011
100011101
1001100101
1011110000
1000010111
1001011111
1111111100100100
100101011
110100100
110011101
1111111101100010
1111111110110001
11110001
1101110
1111111111111100
110011111
1111111001111010
1111111111111101
10001101011
1001010100
100010001
111101
11110011
1010110100
1111110010000100
1111111010010101
1011010001
1001011
1111111
100100100
1111111111010111
1111111110001110
100001000
1100010010
100011111
110010000
10000101
1111111110101010
1111111100011111
11010001
100100100
1000011
1110111
1111111110111010
101001100
100110010
1100100010
1110101100
100110000
11000010000
1111011100
1011110101
10011110001
1111111111111010
101001100
1111111111101110
1100001
1011111
100011111
1111111110100100
10110110
1111010010
1011101001
1111111111110001
1111111111010100
100010101
1111111011000100
101101
1111111100101000
11101101
1000111
100010001
11011100010
1111010111
1110110100
101101010
1011100011
1111010011
10010001111
10100001001
111100001
1111111101001000
10011111101
1111111011010111
100011110
1000001110
100101101
10100010000
100101101
11010111
1111111111101101
1111111110100100
1111111000101111
10110101
11
10011011
10100000
11010
1111101
11101
11011111010
1011010
100010110
1001111110
1011101011
1111111010001000
1100111010
1101011101
110101001
100010100
111001100
11000111
110111111
1101110000
1111110100
1111111110010110
111010111
11001010
11111011
1111111000111100
1111110101111010
1111111111000100
1101000
10000101
1111111101100000
1111111110110001
1111111101100111
1111111101011001
1111111001010101
1111110010110100
1111110011100010
1111111001011111
11100100
1111010110
11100110000
1110000000
111011100
10001100001
1100010111
110001010
11010011001
110111011
1111111100111100
1111111111100101
10010110
10001001101
111100000
1111101100011101
1111110011011010
1111111011001000
1111111110001110
1111111011101010
100001111
1100000
11101101
1111110101100111
1111101011010011
1111110000111000
1111111001001010
1111111110110000
10110101
1010000110
1111111010011100
10110011111
11111101110
11100011101
11101100110
1101000101
10010000000
1000100010
1111111011000111
111010000
1110100
1100011110
1111111011000000
10111
1111110101000000
1111110101010001
1111111010101111
1111111110001011
1111101
1111111100111111
1111111100100110
1111101011110000
1111100101011100
1111100111111011
1111110001010111
1111100110111011
1111101110000100
1111011110100100
1111011100010010
1111101111001101
100011011
1111111001100101
1110101100
111110101
1001001
100001101
1111110110001011
1111110101100110
1111111111001010
10001
11000101
111100101
1111111101101100
1111111101001011
110101
1111111101010101
1111111100001111
1101001
11000101
1111110001101001
1111110101110100
1111100100011100
1111100010110101
1111010011001011
1111001110101000
1111010010110000
1111011011110000
1111011101010010
1111111001100010
1111110000001110
1111101010010001
1111110111101000
1111110010000000
1111101111110110
1111110001111110
1111101100100111
1111111010001110
1111110101000010
1111110011001110
1111111111011000
1111111010011000
1111111100101100
1111111111001010
1111111011000000
1111111101111011
1111111100011001
101010100
1111111001111011
1111111101101000
1111101001101000
1111101011101010
1111100011110101
1111110011011100
1111110001001100
1111100010010111
1111011101111100
1111100010010110
1111101100000101
1111101101100000
1111110010001101
1111111101000001
100000011
1111111010110010
1111110011110101
10011101
1111110100001000
1111110001010011
1111110101111010
1111111111010000
1111111011000011
100100111
10101110
101100
100101101
1111111110110000
100000011
100100
1111111100000111
1111111010101111
1111111000101011
100110011
1000111110
101001001
10000101
101101101
11001111
1111111111110001
11110001
1010001010
111110010
1111110010111111
111001
111100
1111111001111101
1111110110000011
1111111010010100
10101
1111111110111100
1111111101001001
1111111011110111
1111111011011101
1111111110100111
100001
10100110
10100010
11011011
111100110
1001110111
110110000
1111111100111100
1001001000
1
1111111010011110
1111111001100101
11011110
101011
1110111
1111111001001100
1111111001001011
11001001
1111111111011111
1111110111011110
1111110111100101
1111111001101010
1111111110001111
1111111110110101
1111111101001011
10011001
101101
10001100
1111111100100010
100001100
1111111100101101
100100001
101101111
1110111011
1111111110101001
1111110010000111
101011100
1111111001001100
1111111101000110
100100
1111111101011010
1111111010001100
110110010
1111111101001100
1001100101
11001110
1111111011100111
1111111110001100
1111111010110011
1111110101011011
1111111101101010
100010001
11001111
1111111011110010
1111111100110110
100100010
1000010001
10001000
110010001
10010
1001110
1001111110
101010010
1001111101
1101100000
1111110111110101
1111111011101001
1100111
101011
110111110
101011001
1110101001
1001100101
110011101
1111111001010111
1111110110101101
1111111111001011
1111111011100110
100010101
1111111110110110
1111111111011001
1111111100010001
1111111110101011
111101
10011
1111111110111101
1000001101
1111101000
101111101
1111
1111111011001000
1110000
1111110111111000
1111110100001010
1111111011000110
1010000000
1111111100001100
111111000
1111111100001011
1111111000001100
1111111011011000
111010
10110110
1111110111111110
1111111111101110
1010101
100110100
1001101
10001111
101010
1111111011111010
1101100
1100101
1111111100011001
100111101
10101101
1000111
1111110110110011
1111110100100000
1111111110001011
1111111000100011
1111101101101110
1111111100000110
101010000
1111111001001001
1111111000101111
1111110100001111
1111110001011100
1111110110111000
1111111111000000
1111110101100011
1111111010000001
10100
1100
1111111111100110
1111101
1111111101110001
10101100
1111111011011010
10111000
1111111011010001
11001001
101001101
10100010
1111111100110010
1111110111111111
1111111010100010
1111111010101110
1111110100000000
1111110111001100
1111110110100010
1111101110010010
1111101011001100
1111111000000001
1111110011100110
1111110001100000
1111110101110011
1111111110010101
1111111100000001
10000101
100111010
11011001
1111111010100101
11111
10110100
1111111011110000
1111111110010111
100001110
1111111110010000
111001
100110011
11001001
1111111110100011
1111111011100001
1111111101101001
1111111100100111
111100
1111111100111010
1111111100100000
1111111101110100
1111111111111110
1111111011011100
1111111111010010
10011
1111111101011110
100001
1111111111011111
1111111110100000
11111100
1111111110000100
1111111101000001
11111110
1100100
