1111111101110101
10001000
1111111100100011
11001000
1111111100111111
1111111101111101
10111000
1111111110101110
1111111111111101
11010000
10000
1111111100101111
100000001
1111111011010001
10101001
1111111111100000
11000
1111111101111110
1111111101101000
10010011
1111111010101110
100110110
1111111111101101
1111111100001010
10010010
1111111100010000
1111111101111101
100110
111110
1111111101111010
111010
1111111011101111
1011111
1111111011000010
1110001
1111111010101010
1011010
1111111110110110
1111111100110000
10100110
1111111101110001
100
100110010
1111111111001011
1111111110101011
100101000
100101001
1111111110000000
1111111101110111
1111111011110001
100101011
1101010
1111111110000011
101011110
1111111111111011
1101
1111111110001011
1111111100101010
1111111110010111
101011111
1111111101111111
1111111110101011
1111111011111000
1111111100101000
1111111111001111
1111111111100100
10000010
100000111
11110110
1111111100001011
1111111100101010
100010010
1111111010101111
1111111101010111
1111111110000000
11101
11100110
1111111011111101
1111111101010001
101001100
1100001
1111111101011111
101010011
10101101
11011111
1100000
1000000
1111111011110011
1111111111100010
1111111110011001
10001101
110100
1111111011110001
1111111010010100
1111111100011100
1111111100111011
1111111101110010
101000000
1011001101
1110001011
1010111000
1100101011
111111011
1111111001011101
1111111011000010
1111111101000111
1111111101001110
1111111110010110
11001001
10
1111111100001000
1111111110011111
1111111110000111
1111111011010100
1111111011101101
1111111011010110
10001000
11110101
100000110
1111111100100101
110011
1001110
1111111101100111
11010011
101011111
1011010110
1110101001
10100000111
10011110010
1101001101
11010101
1111111101010101
1111111101100001
1111111110100011
11100011
1111111100101111
1111111010110010
1111111111010110
1111111100010110
11100
1111111011000101
11110100
1111111101100010
1111111100011001
110101
1111111001110000
1111110111110000
1111111001110111
1001110
1111110110000001
101100
1111111010001000
1111111100000010
1001011111
111001110
10000011000
10000001001
10001100011
1010001001
1111111100010011
1111110110110110
10000000
100
1111110100010011
1111111110011111
1111111110111001
1111111110010100
1111111101001100
1100101
1011001
10101010
1000001
1111111000101101
1111111110111000
1111110110111101
1111111100010100
1111110101111001
1111111000011010
1111111011000010
1111111101011110
1111111010011110
1111111110101001
1111111011110001
1111110111101001
1111011010
100000011110
11101000001
10001001100
1111000100
1001101001
1111111100111100
1111111011001001
1111111010001011
1111111010010011
1111111111000101
1110010
1010
1111111101110101
11110110
1111111010110110
10100
1111111101100011
1111110011010101
1111110100101000
1111111101111100
1111111001111010
1111111000011010
1111110011001000
1111110011101011
1111101101101111
1111110000011011
1111111010111000
1110000011
11100100110
101101101010
11100011100
1100010001
1101000000
1000011011
110101011
10011000
1111111010100010
1111111001110010
10111010
111010
1111111111111001
10100101
1111111101011001
1111111001011011
1111110010110100
1111111110000111
10111100
1010001
1111110101001011
1111111010010011
1111111001001101
1111101111101100
1111110111000110
110100100
1111111110001101
111100000
110101100
11010101010
11101101110
10011011011
1111101010
100101111
1011100
1111111001101111
1111111011000010
1010111
110101
100011101
100001100
1111111101111010
1111111100001000
1111111110000001
1111111101000110
0
10001010
1111111100110110
1111111110011010
1110111
1111110100011110
1111111001110110
1001111110
1111111010111001
1111111001100111
1111110011100100
1111110100011001
1111110101000011
10101110101
11001010111
111010111
11000111
110111001
1000111
1111111110000010
100010
1111111110100110
1111111111010010
1111111100010101
1111111011000001
1111111111000001
1111111011000011
1111111101100000
101110
1111111001110110
110111
1111111111000100
1111111101110101
110000101
1101001010
10000000111
101000
1111110110011000
1111101100011111
1111100100000011
1111110110000110
1111111100001010
1110010001
1000110000
10010001100
1111010010
1000101
1111111100101110
11100110
111011
10100101
10000100
1111111010110001
1111111101000101
1111111110101000
1111111100111111
1111111111101011
100001001
10100011101
1001101111
110011011
1101010011
1111111000011000
1111111011000111
1111111001111110
1111101101001011
1111101010001111
1111111101100100
101001110
11001011
1100111000
1110110000
10001110011
1011010001
11001001
1111111011111001
1111111110010110
1111111100110111
1111111111100000
11111000
0
1111111111111011
110001110
1111111110011010
10011000
1111111110010101
1111111111011011
10
100110010
1111111101011111
1111101101010100
1111101001010101
111
1111111100000011
1111111001110101
1100
10110000
10101011
1011100100
1111111111100110
1110010010
1111001010
10010111
1111111000011110
1111111010110011
1111111110001100
1111111110001010
100010011
1111111101011001
101000010
111111110
100111000
1111111101100000
1111111000001110
1111111100011001
1111111000100010
1111111101110111
111010
1111110010100111
1111110101101011
100001110
1000111100
1111101111000101
110010
1101
1100001101
1111111011001101
101000101
1011110100
1011011100
111111
111110
1111111100110000
1111111110000111
1111111101011110
100101111
1111111011110001
100010110
101100
1111110111000011
1111110111010101
1111111001010101
1111110110111100
1111111010010100
1111111110010101
1111111100101111
101111
1111111110110000
1001110010
1111111110010110
1111110111001110
11010100
1111111000000101
1111111001001111
101101010
10010101100
11000010
1111111101000111
1111110110101100
11000001
100100
10011000
100000001
1111111111100110
1111111110100101
1111111011110000
1111111100110001
1111111010010111
1111111101111110
1111111010000001
1111111010101011
1111110111000111
10100101
10011011
10
111000000
11010000
1111111111100111
1111110101101010
1111110011111100
1111111100001010
110000100
1111111101110101
11000011
11100001
100101100
100000
100101111
100001101
1111111010110001
1111111110101011
1011
10000
1111111010111100
1111111011001001
1111111001111100
1111111110001000
1111111000100111
1111111001011110
101101000
1010111
1111111100111011
1111111001101000
10110000
1111110010101010
1111110011000000
1111111100001000
1111111110101001
1111111000001011
1111111010100010
1111110101000010
1111111100011011
1111111111010101
111010
11001100
11100100
1111111111101100
1111111100000110
10011111
10111000
100110111
1111111111000111
10011000
1111111000000110
1111111011000110
1011100
101
1001110011
110111
1111110101011010
1111111000010001
1111111001000110
1111110010101110
111111
1101111
1111111011000000
1111110100111001
1111111001000110
1111110111000111
1111111010111111
1111111011010001
1111111101110010
1111111101010000
1011100
1111111100010010
10101001
1111111011001110
1111111110011011
100100100
1111111101100100
1111111111110001
1111110100001110
1111111010100100
1111110111000101
1000100001
1111111110001011
1111111010101011
1111111011001100
1111110001000001
110011
1001011100
1010011011
1111111110001011
1111111101000010
1111111100001111
1111110101110010
1111110100110100
100101011
10000100
1001010
11001100
100111111
1111111100100011
1111111101011001
1010011
101001111
101011000
1101111
1111111010010001
1111111011001010
1111111100000111
1111111011101000
110111010
11000010
100101000
1111110111100000
1111111100110101
1011001011
1111110000
111111011
1111111011011100
100110111
1111111001000011
110
1111110100111110
1111111010010011
1111111011101010
10110011
1111111101111011
101011
101001001
100001001
1111111011011110
11100010
101111
101
101100101
1000000011
1001000100
1111111111011111
1111111010111011
1111111000101101
1111110111110100
10110
1111111011011101
110111111
1010111011
1100010
1111111001001010
1111111110111000
1100111
1111110111111011
1111111101101001
1111111001110100
1111111011011110
1111110111100110
1000110
1111111011001011
10100011
1111000
1111111111001111
10011100
1111111110111101
1001010001
10011110
1010011100
10110011101
1000011111
110110101
1110001
1000010110
1111111100000000
10011101
1001111100
110000110
1111111101011000
1111111111110011
1011010
10100001
1111111010100110
1111110110101111
1111111001111011
1111110101101010
1111111101010011
1111111100100000
1011010
1111111111011010
100011001
110100
11011000
1111111111101011
100100110
101011101
11000100
10010110101
10010010001
10011010001
1001001111
11010101
1111111101011000
1111111111001001
1111111111000011
110100100
100000
1111111100011000
1001010000
101
1111110111110100
1111110011000000
1111110100000010
1111111011101111
111011
1111111011100010
10111011
1111111110001011
10010110
10000111
11111000
1111111100000101
11010100
100000101
101011010
1001011110
1010000011
1011011100
1001101011
11100100
11011000
1111111110010111
1111111110000000
1111110000110101
1111111000011011
1111111001010101
1111111101111110
1111110100010010
1111111100101100
101
1111111011101100
1111111110010010
100100100
10000100
1111111110100101
101001101
11000
11111100
110001
1111111111111101
110010011
10100100
10111010
11011111
1111111110110010
1111111111110010
100010000
1111111000010001
1111110100111100
11010010
1111111110010001
1111110010101111
1011101
1111111110111110
1111111110111101
1111111011010001
1111111111100101
10001010
1111111111101010
100011010
1111111101100000
1110001
11100000
1111111010110101
1111111100100000
11111000
111001
10000000
100011111
1010010
1111111101101111
1010011011
1100111010
1000010000
101011111
1111111110100010
1101011
1111111101001001
1000
100011011
1111111101101100
100011110
1111110101000100
1111110111011010
1111111001110011
11101011
1111111100010001
1111111110010000
1111111100111111
1111111111000101
1111111011010000
101001111
100111001
101010010
1111111100001000
1111111110100001
11100101
1111111110100100
100111110
11110100
11111111
1010110101
1010010000
1111000011
101100000
1001101
1111111110100100
110000011
110001000
1001011
1111111011011001
1111111100000110
110000010
1110111
1111111101111101
1111111011110100
1111111011100000
1111111100001000
10001011
1111111011011001
10010001
1111111111101010
1111111011001010
1111111101110000
101000000
11010111
1111111011000110
1111111011011100
1111111100110010
1111111111100111
11010101
11010010
1111111110001011
101011100
1111111010101100
11000101
1111111011100010
1111111010110010
1111111101101011
11111111
11101111
1111111100000010
11101000
1111111100101001
1100100
11000011
10001111
1111111010111011
1111011
