101011
1111111111100010
1111111011000110
101110
1111111111111110
101011001
1111111111000001
1111111110111111
1111111100001000
1111111010101000
100010000
1111111110100011
1110000
1111111111011001
1111111100110010
1111111110100101
1101
101010010
1011111
10110
100110001
1111111101000101
100110001
1111111100011100
11000000
1101
101100000
1111111110001100
1100101
10111011
11101000
1111111111011100
1111111110001001
1111111100110110
101010101
1111111110101111
11000011
11101101
100010
111000
10100001
1111111001110100
1111111001010011
1111111111011111
1001111
10000000
100101000
100
1111111100101001
1111111101000010
1111111110110001
1111111111110100
10110
1111111111000110
100101011
100001111
101011110
1111111110011010
1011111
1111111011111010
1111111101100011
1111111110011100
1111111100111110
10110100
10101011
100101000
10
101010
1111111001000011
10100101
1111111010100111
1111110110000001
1111110101000011
1111110100110101
1111110101011000
1111111001011110
1111111001110101
1100001
1111111110100101
100000
1111111110010110
100101001
11000000
1111111100100110
1111111110011101
1111111101111000
1111111100010010
1111111011001001
10001000
1111111110100101
1111111101100011
11011111
110100101
1000000010
100001101
1101110111
1110010001
10100100
1111111100001011
1111110110010100
1111110111011101
1111110011111010
1111101010011100
1111101011001101
1111110101110000
1111111000011101
1111110101100110
1111111101110000
10111100
1111111011000111
10101011
1111111100110101
101001100
1111111110110111
1111111110011110
1111111101000110
1111111010111100
101000010
1110110101
1000100111
1111111110
1111100011
10011000010
1001111101
10011111011
110110011
1111111001000001
1111111100101111
1111110110011111
1111101111000010
1111110011100101
1111101101110101
1111110111011111
1111111000000111
1111111011110011
100
11100010
1111111101111010
111001
100011010
1111111101111001
1111111010110001
1111111101110101
10000100
111101110
1101100100
1101011010
10000101000
10000100110
100011
110101011
10101101111
10011100110
111010101
1011110000
1000000001
1111111110100101
1111111000100011
1111110100010111
1111110010111000
1111101001011010
1111110001000000
1111110011111100
1111110100010010
1111111001000110
1111111100010100
100011011
100101000
1101101
1111111011100010
1101010
100101100
1100011110
1000000110
1110010101
1001011101
1111111101001101
1001110101
1100111010
10001001010
1100100010
1000100010
11011001
110011101
11010000
11011011
1111110001011000
1111101101101011
1111101110101100
1111101111000111
1111110010101011
1111110101110100
10111
1111111100001000
11010001
1111111011100000
1111111101011101
1111111101101010
1111111111100111
111001011
10110010100
1110101
1001011000
111110
1111111011111011
1111111000100011
1111111010011110
10011000
1111111010010101
1010011011
1001010110
1011011101
1101101010
111010101
1111111001101100
1111100101111111
1111100100100111
1111100001110110
1111101010001111
1111110010111100
1111111111001011
1111111011100001
11110101
1111111101001011
1111111101101011
1111111100011110
1111111101001111
1000110010
1101101000
101111110
100011011
101111001
1111111011101101
111101010
1011010010
1111111011110011
1000010011
11000011110
11000110011
100001110110
1001110111
1010101110
1111111000110101
1111100001100011
1111100000000011
1111100100010110
1111110001101010
1111110011001011
1101011
1111111000111000
1111111111111100
1111111010010111
10000100
10100011
100000011
1001101111
100110000
1001001111
110010
11100111
1111110010001100
1111110100110101
1111111010000001
1111111011000000
111111000
10101100011
11110101111
11111011100
10010001011
10000110111
1111110010101100
1111100111100010
1111100011000000
1111101110100011
1111110110010101
1111111110011001
1111111111100110
1111111010101000
10001010
10001001
1111111110001110
11110
1111111101011111
10000001
100101
1111
1111111111100101
1111101111111010
1111011100010111
1111100011111011
1111110010011111
1111111000110011
1111111001001111
10001000011
100000010101
10100111000
1100101110
1111111101000001
1111101011000101
1111100111011011
1111100011100000
1111110111001101
1111111111000111
1011
1111111110101010
101000000
1110011
1110011
101000110
11001011
11111011
1111111011100100
1111111001011110
1111110100111110
1111101110110000
1111101001001010
1111110001111111
1111110110000110
1111111000100101
111010111
1010111111
1101111001
1101011010
1011010110
1111101010001101
1111100111111011
1111101000110010
1111110000110110
1111111100000101
1111110110011100
1111111100111010
100011011
11100100
11000100
1111111011100010
1111111110101111
1111111100001110
1111111010111110
1111111100100100
1111111101100010
1111110100001101
1111110001001011
1111100011011011
1111101010110001
101010111
10101
1111111011111110
1111111111001001
1001101011
110010010
111000111
110010
1111110010101000
1111101100110001
1111110101111000
1111111011000111
1111110100011111
1111110100001001
1111110100001101
1111110111101011
11001110
110000101
100111000
1111111101111111
1111111111011111
1111111101000111
101010101
1111111101001010
1111111101011011
1111110000101000
1111101111011000
1111111000110101
101001000
0
101100011
1111111111000001
101110111
1001011001
111000010
1111111
1010111
1111111111000001
1111111111100010
1111110001000011
1111110100001100
1111110101000000
1111110010111110
1111111110001100
101010011
111000011
110111111
110000111
10010110
1111111100101111
1001010
1111111111000010
1111111011110000
1111110100100100
1111111001011110
1111111101111011
11110010
101100001
1111111000011000
1111111000110011
100101101
11101
11111110
100110
1111111010011010
1111111000100011
1111110110110110
1111111111000110
1111110100001110
110110000
1110
1111110101101100
100010111
100100000
101010111
10010110
11110000
11100101
1111111101000001
11010010
1111111000100000
1111111100101101
1111111011001101
1010000001
1111111011101001
11000101
1111111001011101
1111110110010000
10100101
110101100
11010
1000
1111111111110000
1111111010110000
1111100101101101
1111111100010100
100011010
10011000
1000101111
101000100
1100000
1001000100
101110001
1000101
11111110
10000101
1111111101100100
11101001
1111111010000010
101001110
1001011111
10100010001
1101000100
10101011011
101101000
1111110111001111
1111110110000101
1111110111010101
1111111010010101
1111110101110111
11110011
1111110101010110
110111010
1110001111
1000001000
11101001
1010110111
11000001
1111011011
1000011011
111110001
1111111111011101
100001110
1111111010111001
100110011
110111000
10010101
1111111001010000
1000100000
110111010
111110001
1100000000
1111111011011111
1111111100100001
10000001
1000011001
1100011010
1111111101101101
11111011
10011101
100000111
1000011001
100110001
111000101
1100001101
100100100
1001000101
10000010101
111
10110001
101011010
1111111111000101
1101
1000110100
10000000
11010110
100000010
1111111010101100
1111111100101111
1111110110111010
1111110100110010
1111110000111110
1111111000011101
1111111110101110
1111110
1111111010100010
1111111000010110
1111111100101001
101
1111111101100111
11111110
1111000001
10011001110
1110001000
1000001010
1001110000
101000011
10011010
1100
10110110
10000000
1111111110100101
1111111111001011
100001110
1111110101100001
1111111001111010
1111110011000110
1111110000101010
1111101101101010
1111101110110100
1111110101000000
1111111101111110
101001110
1101001
10011110
1001000011
1111111100100101
11010111
100110100
100010101
1101010101
1101101000
1111111101010111
11101000
101111000
101011110
11110100
1010111
101011
110001011
110111
1111111110100111
1111110100110111
1000110101
1111111100000110
10010111
1111111110010001
1010111
111111100
1100
1001101000
11111100
110110011
100001011
110100110
1000011111
1011101011
11110110
1111
10010001
10100111
10110011
10101100
100001101
10111011
1111111101100010
1001
1111111110010000
1101100
1111111010010111
1111111001000010
1111111111110000
1111111001100010
1111111000001111
1111110011011100
1111111101100100
1111111011111110
1111110111000110
1111110101111101
1111111101011111
10110000
1111110111000100
1111111110011111
11000001
1111111001101010
1111111001010110
1111111010101000
1111111101100001
11100111
1111111110110011
10001111
1111111111001101
100011001
110
11001
101110101
11011011
1111111100001001
1111111110101100
110001111
1111111100100111
1111111111111110
1010000
1111111000011111
1111110010010100
101011
1111110111001111
1111111011001111
1111111000000101
1111110010010011
1111111110111110
110111011
1000100011
1111111100000110
100000
1111111001000001
1110101
1111111111010001
100010001
1111111110101001
1001100
11011001
1111111110011011
1111111100001000
1111111111011110
1111111010101100
10000
1011100
1111111111110011
10101101
1111001
1000001110
110011000
1001100010
1111110011111100
1111111001111000
1111111000010111
1111111100101000
1111111100000101
1111111000001100
100110111
1111111110001010
1111111000101000
1111111101001000
1111111100011001
1111111111001000
1111111011111000
11111000
1111111011010011
1000010
1111111011011000
1111111100010100
101000011
11011111
11011000
1111111111000000
1110101
10011101
1111111111010011
110000001
1000101
1111111010011110
11011111
1111111000001101
1111110101001001
11011111
1111111111001110
1111111100011100
1111110100000101
1111110101000101
1111110111010011
1111111100101111
1111111011011100
1111111101000010
10011
1111111111111011
1111111100110010
1111111101110110
1111111101100001
1010010
110000000
0
101001
11011111
1101000001
101101010
1111010010
101111110
1111111011000101
1111111111000110
100010
1111111000110010
1111111111111111
1111111000000011
1111111110010000
1111111011110001
1111110101001001
1111110111001100
110
1111111110001001
1111111001011011
1111111111000010
1111111111100011
1111111010110000
10111000
11011000
100011100
1100000
1111111111001010
1111111111000000
1111111010010100
1111111011110101
1111111101111110
1111111100111110
11001100
1111111100100000
1111111101000000
1011010
1111111101100010
100011011
10111101
1101001
101000010
1111111101011011
1010011
111101
1111111101010010
111000
11001
1111111011111011
11100110
10011110
1111111111000001
1111111110111101
1111111110011011
1111111111000110
1111111110000100
100101011
11101010
1111111001111110
1111111110011100
1111111111101111
1111111111101010
1111111101110001
1111111010111101
1111111011110110
110000
1111111011100110
1111111100110111
1111111101100011
1111111110100010
11
1111111101000111
1111111111100110
1111111010110000
1111111110010011
10101011
1111111101000100
1010011
10010011
