1111111010100110
1011101010
1111011111110101
1101101100
1111101001101001
1111110010001000
1111101110111011
1111110111000110
111110011
1111110111100000
101010100100
1111100001000100
1111101111110100
1111110111011100
1111101100001000
1111111111101100
10100001010
1111111010
1111111101101110
1011011101
