1111100100000011
1111100011000110
1111101000100100
1111100011111110
100011111010
1111101101111001
1111101100101110
1111001000111110
1111000010010101
1111010001111111
1111101101000000
100000101010
110001110001
1100100000
1101100
100111111000
100110111100
1111010101001011
100000011000
1111111101110011
