1111110010001011
1111010111101110
1111011010101101
1111111100110101
1111101010001100
101110111111
1111110100001011
1111101010001000
11100110111
100011010101
1010010010
1111100111110001
100110111111
1111010110010111
1111111111111111
1111111101000011
11100100001
1111011010110000
1111110110111110
1101001110
