1111111111011100
1111111100010111
1111110101001001
0000001000011001
0000001010001001
1111111000101100
0000001000010001
0000000000010001
1111111110000111
0000001000010001
0000000100101011
1111111101110111
1111110110100111
1111111110011111
1111110110001111
0000001001100110
0000000011011011
0000001000000000
1111111111000010
1111110110001001
0000000010101001
1111111100010011
0000001001100101
0000000111001110
0000000010110000
1111111101000111
0000001001100010
0000000111100110
0000000010111000
0000000101001111
1111110101100101
0000001001010110
1111110101100010
0000000101010100
1110111010111001
1111000001010100
1111101011111110
1111000101110110
1111001010111000
1110110100000100
1111000111000111
1110111111010010
1111100110101110
1110010001001111
1110011010110010
1110100000100001
1111111100000110
1111010000101110
1111011000010101
1111011100011111
1110101001010000
1110110000010001
0000000110001011
1111111011001001
0000001010111111
0000000111110110
1111111001011000
1111110111001100
0000000101101000
1110100101010011
1110010110110000
1111111011111000
1111001110000011
1110110111111011
1110110010000110
1110001101001011
1110010000011111
1110011000110011
1110011111101111
1110010011001000
1110110001101000
1110100110011100
1110001010110101
1111100111101100
1111100101010111
1111001110111001
1111111101010111
0000001110100010
1111001001100000
1110001010001101
1111101101001101
1111111111011100
1111111110100101
0000000111111010
1111110101110111
0000000101001000
0000000110110001
1110100100011011
1110010100110001
1111111001101111
1111000001100010
1110010100011011
1101110011110010
1110000000011110
1110010100110100
1110101000101010
1101000011100101
1100011100111100
1100011100110001
1101101110101111
1111000100101011
1111011000101100
1111011110100101
0000010011011010
1111001100000011
1111110100100111
0000100001110010
1110101110001011
1111000000100001
1111010110000100
1111111010011001
0000000010111110
1111110101101000
1111111111111001
1111111000101101
0001010111110101
1111100001001111
0000110110111010
0000010010010011
0000011000011001
1110111111101000
1111000000100010
1111000010111000
1111111010111110
1111010011010010
1111000000011010
1101110011011000
1110111001011111
1111000111100101
1110110100001101
1111100011001101
1111001101011101
1110111111001101
0000001110000000
1111011010011101
1111110001001000
0000101010101010
1111100110100111
1111000010110111
1110010001001010
1111111110111110
0000000111010111
1111110111110111
0000000101010001
1110011100010001
1111001111000110
1111011010100010
1111001101110110
0000000111011101
0000000101101110
1111111010000011
1111110000011000
1111111001010001
1111100100100100
1111010001010110
1111100111000011
1111010000101010
1111010011100110
1111111001010001
1111011100010101
0000000001101110
0000110000000101
0000110000110011
0000001001111001
0000100101100010
1111111010011011
0000100111101011
1111011101001110
0000001000111000
1111000011011100
1111100011101101
0000101101011101
1111111000010101
0001001110111110
1111111111010000
0000010010101111
0000010101001001
0000000101110110
0000000001010110
0000001000110011
1111111001010001
0000001111101110
0000010101100111
0000000001000100
0000001110001010
0000010100010010
0000000010011010
0000001100000000
1111110110001100
0000000110110011
0000011101110100
1111111010001010
0001111010111100
0000001111001100
0000001111110110
0000010101001000
0000101011011110
1111100110011101
0000001110000111
0001010101001100
1111001001000000
0000001111100001
0000010111111101
0000011001001000
1111110111011111
0000001111001100
0000100010001101
0000001100000100
0000001000110000
0000010000011001
1111110010000010
1111111101101011
0000010010110111
0000001100110000
0000000011111010
0000010111011010
0000010101100101
0000000010001101
0000011011011111
0000010110010010
0000011010110111
1111111000001111
1111111010110010
0001001011011010
1110100010101100
1111110111101000
0000110101101000
0000100011110100
1111111110111011
0000000001011111
1111011101101001
0000010110110011
0000100011011011
0000100100101011
0000010011100100
0000010010110110
0000000100001101
1111111101110100
0000010101010111
0000000000100011
0000001000111101
1111111101000100
0000010011001111
0000000011010000
0000000110100000
0000001001101110
0000001000110101
0000011101110011
0001010100110101
0000111101010011
1110111101010001
1111100100011101
0001111010001011
0010001110011110
0001010100011000
0000010101100000
0000011101100111
0000100111101000
0000000011101011
1111101011110111
1111111100111010
0000000110010110
1111111110011110
0000100100001000
0000011001111011
1111110100011000
0000000001010000
1111111011101010
0000000001110100
0000010100101100
0000001110000001
1111111111010111
0000000111001000
0000001010100010
1111111101001010
0000010011110000
0001100010001000
0001001110111001
1111010011101001
0001011010100111
0001101001111111
0011001010011000
0001010000000001
1111101111100101
1111011000110000
1111111011011000
1111110101001101
0000010110111111
1111111100011010
0000010000101100
0000101111110100
0000011001010011
0000001110010110
1111111100100011
1111110000000111
1111111001110110
0000001110110111
0000000010111101
1111110110011110
0000010111001101
0000000110001110
1111110000100111
1111111001110010
1111111111011100
0000110000000100
0011110001000001
0000010001110101
0001011110011110
0010111111011001
0000001100101011
0010010111001001
0000010110011000
0000000001011100
0000010110011001
0000000100001100
0000010111000001
0000100001100001
0000011111101001
0000011001000001
0000100100110101
0000100110010101
1111101111011101
1111111011111111
0000010101100101
0000000110101010
0000001100011110
0000100010011110
1111100001111000
1111100001000001
1111100011110001
1111100001000110
1110001111110010
1110011111001110
0001111100110011
1111111001001010
1111011110000101
0001100101100110
0010001110011001
0011111111111101
0000001011011010
0000001101101111
1111111100101100
0000011110111100
0000011011100101
0000011011101111
0000001000101100
1111111100011101
0000100101011010
1111110110110010
1111101111110010
1111010101000010
1111110001110111
0000000111100101
1111110101110101
1111110011100111
1111101111001001
1111101101000010
1111010000111111
1111010101000111
1110010101110110
1101100100110001
1101110000111111
1111110100010010
1111100000000010
1111110101110001
1111010101011101
0010101100110011
1111111001000111
0000110100101100
0000111011011111
0000000100010110
0000011100010010
0000001011101001
0000001000010100
1111111110011110
0000011010101110
1111111001000111
1111110100011110
1111111001111010
0000000111001100
0000011011110100
0000011101110100
0000001101111010
1111111010011100
0000110101101110
0000100100100011
0000011001101000
1110001010011101
1111000110011010
1110011000010100
1110101010100101
1111001101001011
1111101001001110
0000001010001011
0010010011100101
0000101101001111
0001011011111010
0001001011001100
1111110111100010
0000011001010011
1111111110011010
0000010111101000
0000001111101011
1111101010100101
1111101001101100
0000001101010000
1111111010100011
1111111110100011
0000001100100000
0000100000010011
0000001010100000
0000010011010010
0000011000100100
1111100101000010
0000010111001111
1111011100011011
1110111001100110
1110110010111101
1110101010110100
1111110011001111
0001000100101110
1111010000101000
1110101101001011
0000011011110101
1111010101010101
0000001010010101
0000000110101001
1111101111101110
1111111001001010
1111110110111111
0000001001100110
0000001111010001
1111111110101111
1111011001111011
1111100101011011
0000000100011010
1111111001110101
0000101100001001
0000010010001101
1111111110011110
0000001101100010
1111111000100000
0000101011110100
0000110010101011
1101111001111011
1101111001111001
1111000100100100
1111101111000110
0001011001000011
0000000011011101
1110001111101011
1110111010100011
1111010010111001
1111101111000101
1111101010001011
0000000100111110
0000010001110010
1111111101000110
1111100111110000
0000000010101011
0000000101101010
0000001000001000
1111011010101011
0000011001111000
0000001001011100
0000011101010010
0000001101101110
0000001100101101
1111111011101000
0000010101001011
0000000011000000
1111001101000110
1110001110100100
1101011000100110
1101101100101110
1110101011000010
1111111001110000
0001000001100110
1110111111001001
1110101101001011
0000001110001010
1111101001001100
0000001110101110
1111101000000110
0000001110000110
0000000100001101
0000010111011111
1111101001111000
1111101111010001
0000000100001010
1111101101101011
0000101101001010
0000011001011111
0000000100101111
0000001010111111
1111110111001111
0000010111101101
0000001110101111
1111110110010000
1111001110101011
1110010111011110
1111111110001101
1111000111111100
1110101111000011
0010000000000100
0001001110000110
1111111011010011
1111001100100111
1111110100110111
1111111100011110
0000010110110011
1111101011101110
1111101111011010
1111111010101101
1111100111010100
1111111100100100
1111100101110111
0000001101110101
0000010111000110
1111110101100010
1111111010110001
1111101101110100
1111110111011010
1111100010000010
0000010100100010
1111100010111111
1110100001110100
1101111010110110
1110010011010010
0000001000110100
0001000111111100
0000111010000100
1111111000110110
0010011001101001
1111110100101010
0000000100100001
1111001011001001
1111100100111000
1111110100011000
0000000111010110
1111100100010000
1111000111110000
1111000101011100
1111100001010111
1111010111110000
1111110111001000
1111110011110011
1111110101000100
1111001011101010
1111101100111110
1111011100011110
1111101101111100
1111110001000110
1110111111111001
1110000111010101
1110010101011101
1110111010110100
0000010100101110
0000001101011011
0000001000101011
0000000001010111
0001011100101010
0000101000110011
1111110010010110
1110100111111010
1111101011000110
1111001111100011
1111011010000010
1111010001000111
1111101001111010
1111010001101010
1111100011100111
1111111000001010
1111111010010010
0000000000110100
1111100100100001
1111101101111001
1111111100111101
1111110000110011
1111011111001000
1111001011100111
1111001101111001
1111001001101111
1110111000000110
1111011111011000
0001010001001010
1111111111011111
0000010000101011
1111110111101000
1110111101100110
1110011101001101
1110001110011011
0000110011100001
1111101000110000
1110110000011001
1111101100001000
1111101111010001
1111100111111001
1111101101100000
1111011110000010
1111101110110000
1111011010101111
1111100100110011
1111101010011011
1111100110101101
1111011100001111
1111011001001101
1111100100111101
1111100100010101
1111001010110000
0000010010011100
1111100110010001
0000111101001001
0001001011001000
1101011101110101
0000001010011100
1111110111101010
0000000111010001
1110110111001111
1110110001110110
1111110010100110
1111100111011010
1111000010011101
1111011101001000
0000011011001000
1111111010100111
0000000100011001
1111111100110000
1111101011000101
1111100100001111
1111111110101000
1111100010010100
1111111001110011
1111011011001001
1111011111111101
1111110111001101
1111111101011111
1111110110000010
0000100011010001
1111110011010111
1111111110001010
1111011111011101
1101101001111101
0000000111111000
0000000101001010
0000001001001010
1110001010100111
1110101001001001
1101011111000001
1111110111011100
0000010001101101
1111110101010101
1111111000111100
1111010111100000
0000010110011110
0000000101100111
1111110110010010
1111100101101000
0000000011101111
1111101001111001
0000001010101100
0000000011010101
1111110010100111
1111010100101010
0000100011111100
1111111111011011
0000000110010101
0000000010001001
1111101100110110
1111000111110000
1110101100010001
1111110101111111
0000000001110001
1111111010101001
1111010001101100
1110111110100010
1111000010010000
0000000000000111
1111000011111000
1111001101001001
1111111001100100
1111100110010010
1111100000010101
1111011001010110
1111011000100101
1111100100101100
1111011110010011
1111011111001100
1111010101100011
1111101001010000
1111001010011010
1111010101100100
1111110010111001
1111010011011101
1111000101000001
1111100001110000
1111011011011011
1111010101111000
1111100010111001
1111110111110101
0000000010010000
0000000010101101
1111101111011110
0001101111001110
0000000000001000
0000100110001011
1111100010111100
0000011110000111
1111010001000100
1111111010011110
1111100011111001
0000010000111000
1111100010101001
1111110011000001
1111101001100011
1111110010111000
1111111111111010
1111110010101001
0000001010100100
1111110100000010
0000010111111111
0000000011000101
0000000111110011
0000101011001001
0000001110000001
0000010001010000
1111010010111011
0000000111101011
1111111100010110
1111111100001101
0000000110100110
0001000111101010
0001100100111110
0001100001001110
0001110110001010
0010000111000010
0010010110110111
0010110000100100
0001110001111100
0001110010101000
0001010010110000
0001010010001101
0010000010001101
0001001011110001
0000101010110011
0000100111000101
0000010000110011
0000100010000010
0000000001000101
0000101100011101
0001100001111111
0001010111111011
0001001101010010
0001001110100011
0000000011100100
1111111110101110
1111110110110010
0000000101001000
0000000011011110
1111111111010010
0001101110001011
0011010100110111
0100100011001011
0011111100110110
0101010111011110
0111001000111110
0100011111110011
0100001111010001
0011101000011011
1000011111100001
0111111011011100
0111010110001100
0110111011001111
1000000111100110
0100100101111010
0011010001010000
1111111100101100
0001101011011110
0010100011111000
0010101100001010
1111111111110100
1111111000000011
1111111001101001
0000000100100001
