1111111000010011
1111111000011010
0000000100101001
0000000111100100
0000000111100010
0000000011000010
1111111010100011
1111111011110111
0000000111101101
1111110110001010
1111111110100011
0000000100011100
1111110110000010
1111110110110000
0000000101110000
1111111100100101
1111111100011001
1111110101110101
0000000000101011
0000000110110100
0000000101010101
0000000110101011
0000001000000111
1111111100111100
0000000100001101
1111110110011111
0000001001000011
1111111100100010
0000000010110001
1111111011000000
0000000000000110
0000000001110111
1111111001110100
0000000101101001
0000001011000110
1111001010100110
1111001101000010
1111000010101111
1110110101000100
1111100100011000
1111010011010110
1111000110100011
0000111000111011
0000100101101110
0000000101100001
1111011011111101
1111110111101111
1111111100010110
1111110101111110
1111110111011011
1111110110101110
1111111000011100
0000000011000111
1111111011010000
0000001001100000
1111111110000010
1111111111111110
0000000101000110
1111111111110101
1111111010100001
0000000101011111
1111011111100010
1111111100101110
1111110101010111
1111110000110010
0000010110000101
0000010001001111
1111101001010101
1110101001011001
1111100010111001
0000001010011011
0000011010110010
1111100111101011
1110010100001101
1101101101000100
1110100110000001
1110111111010101
1110111111001100
1111100000011011
0000110100111010
0000100011101110
1111110101010001
0000000010011000
0000000110110111
1111111001101110
1111111100101100
0001011000101111
0001010000000001
0000110010011100
1111011000000111
1111011010111110
0000011111110000
1111100101011010
0000000000110101
0000001100111111
0000100000100101
0000010101011011
0000001111000110
1111010000100111
1111110000001011
0000000001111111
1110111110000010
1110101100010011
1111101000001100
1111000000001010
1111001100010011
1110101100101100
1111111011011100
1111111010100101
0000000000101110
1111111111111101
1111110111110010
0000000110011111
0000101001011100
0001111011110000
0010000010110111
0000010111101110
1110101001110011
1111001110111110
0000100001010100
0000110011101010
0000100000010011
0000010011101100
0000011110001010
0000101101000101
0000110000001110
0000000111110011
0000000110011110
0000011010111110
0000001001101110
1111111110011100
1111110001010011
0000010001010011
0000000101011101
1111001100010110
1111111000010101
1111011001100001
1111100111110001
0000010110101100
1111101111011010
0000001000001000
1111111100111110
0001111101100101
0000100111111110
1111100110000101
0000101010110000
0000100010001110
0000000010100101
0000010111001000
0000010011001101
1111111100110101
0000010011011000
0000010111001001
0000100101110011
0000010011011000
0000011001010100
1111111110001110
1111101111000011
0000001000101001
0000010111011100
1111111100101001
0000001001110110
0000001011011011
0000001010010111
0000001000010100
1111110011100100
0000001110111001
0000000010010001
0000000001111100
0000000110101100
0000001101011101
0001000110011000
0000110000001100
0000001011100010
1111110100100000
0000000000011001
0000000000111010
0000001010110011
0000001011101101
0000001100101001
0000001111010100
0000011101011000
0000101110000001
0000011100011100
0000011011011000
0000101010000101
0000100101110110
0000000000000111
1111110101000111
0000010110111111
1111001011001111
0000010101000101
1111111111110111
0001011000010111
0000010111100001
0000000110111101
0000110000110111
0001100100101110
0010000001000000
0000111000100111
0000110110100100
1111101110110100
1111111011001101
1111101000111110
0000010110011101
1111101010010010
1111111010111000
1111100001010001
0000001101000110
0000100111100010
0000011010111100
0000101010001110
0000100111111000
0000001000001100
0000000001100100
0000000011101010
0000010100101000
1111111111001000
1111110111001110
1111010011001101
0000001010100000
1111111000001011
0001000011010111
1111101011001101
1110101011000101
0010011010101110
0010010111110000
0000111001100000
0000111100110101
1111011011101000
0000010011100010
1111111001010101
0000000101011100
1111100010110000
0000000001010011
1111111010000110
0000000111100010
0000110001010011
0000101000011011
0000100000000011
0000001011001101
0000000101011000
0000011011101010
0000010001101000
1111110101110100
0000000000100100
0000001001110101
1111011100010111
1111101111111100
0000011011001101
0001010000000111
0000010101111101
0001100001001110
0101110011011100
0010110000001000
0001100110011101
0000110101110011
1111110100000100
0000001101100100
0000000000110011
1111110010101110
0000001011100010
0000010001111110
0000010000001110
0000000100011011
1111101100000110
0000100010111011
0000011111011011
0000000011110101
0000001010111001
0000001111001011
0000001111011110
0000000101000011
1111110111100111
0000001000011111
1111101111100111
1111010011010100
1111101100101100
0001001111011111
0001111101101010
0001010100011111
0110011010010110
0011001101001001
0000011101110000
1111110110110010
0000010001001110
0000011011011010
0000010110010100
0000001100010011
0000001010100111
0000001010110000
1111110010011111
1111100010010000
1111100101100001
0000000010011110
0000011101101101
0000101001101011
0000000000111100
0000010110111000
0000010110000111
1111111111010100
0000001101010100
0001000001110100
1111111000001000
1110101011011001
1111110111011001
1111000111001111
1111110110100101
0001110011010101
0000110100000100
0010100010000110
0000010011011101
1111011111101001
1111110111001011
0000011110001010
0000101111000110
0000001110110110
0000000011110101
1111110100100001
0000000100001010
1111111010001101
1111010111010111
0000111011111010
0000101001111111
0000000100001001
0000010010111010
0000011100101101
0000001011110100
0000111001010111
0000101010001111
0001100111001101
0000101110011100
1110111011111010
1110001110001111
1110100111001100
1111001110000110
0001011000100100
0001110101111010
0010000111011011
0000110001001001
1111101111011010
0000100001101100
1111101110111100
1111110011010101
1111101110011101
1111110010011111
1111011110010011
1111111011100010
1111001110011011
1111000110001101
0000101100101001
0000010001001011
0000011011010110
0000010100100111
0000100001100101
0000110100001010
0000100110010100
0000010010101111
0000010000001001
1111110100001010
1111101011110111
1111101010110001
1111101111110010
0001111100010100
0000110100011001
1111110011101110
0010001011010000
0000000100111011
0000100000011100
0000000011100010
1111101110100110
1111111010100000
1111110111110001
1111111101101001
1111011001011100
1111011110001001
1111000010001110
0000000110010110
0001000111010111
0000100000100111
0000010110111000
0000010111110010
0001000001011010
0000011000110010
0000001111111110
1111100011111010
1110111100010011
1101100111111010
1110110001101100
1111110001101111
1111101101101001
0000000001010000
1111101010001101
1111010010010110
0001011101010111
0000100000001111
0000000110110011
1111001011110101
1111100111111100
1111110011100001
1111101000100011
1111001001101101
1111000011011011
1111011011110010
1111100001000111
0000011010010110
0000011010001100
0000100101010100
0000010000110010
0000011010101001
0000010001011011
1111101110100100
1111011110010001
1111000110001000
1110111001100100
1110111100010000
1110110011011110
1111100101010001
0000000000011101
1111101000001011
0000001011110001
1111000100100001
0000000010011000
0000111101001010
1111010111101100
1111100000000000
1111111010000001
1111010011001010
1111011100001101
1111000001011110
1111100011001000
1111110100010010
1111111011100010
0000100011110001
0000011000101100
0000010010000010
0000010101100111
0000000010100010
0000000101110000
1111100001011110
1111100011010101
1111100010001101
1111100000110111
1111011001001111
0000010110100101
0000000000111011
1111111101010001
0000010011000110
0000101100101000
0000001010000000
0000001101000011
0000111001110101
1111111000111011
1111100111111000
1111100100001100
1111100111110011
1111101001011011
1111110000111000
0000000010111011
1111110100011011
0000011111000010
0000000000101000
0000010001001100
0000001010000011
0000001110100111
1111110111011010
1111100111000000
1111101001101101
1111111100001110
1111110100000101
0000001010001111
1111110001000101
1111111011001001
1111101110000001
1111111101100110
1110001001100010
0000001000110001
0001000110101100
1111101001010101
0000000001100010
0000001011011001
1111100001011000
1111001010101110
1111101101101110
0000100001011000
0000011000111000
0000001011100110
0000000101101111
0000010111110101
0000011001000111
0000010010100100
0000000111111111
1111011110000101
1111100101100111
1111001110000110
1111011000101000
1111100000100011
1111110010110010
0000000110110100
0000010101111100
0000100001000110
1111011010010010
0000010000010110
1111100111001001
0001101101011111
0000110011000000
0000100011011010
0000011111001110
1111011000000001
1111101111001111
1111110010000110
1111101110101110
1111101001001110
0000001000110110
1111111001111111
0000001010010000
1111100000100011
0000100001000011
0000011000011100
1111100110011100
1111101101010010
1111101110100110
1111111010011101
1111101101001010
1111111100011101
1111110101001000
0000000111000000
1111100100000010
1111011010111000
0000010101111100
0000000110010000
0001100000101110
0000110011010000
0001001111011101
1111000101100010
0000010100001100
1111101000011111
1111101111001010
1111111111011001
0000010101110101
1111100111001101
1111111101001110
1111011101100110
1111010010010100
1111100001101101
1111111011111110
1111100110111001
1111110111100001
0000000000110110
1111111010001010
1111110101111100
1111111011100011
1111110000001101
1111101100111001
0000001111011111
0000100110111101
0000000101100101
0000100011110001
1111100010110111
0001010000001110
0000001010110100
0000011101110110
1110111000110110
0000101001101101
0000110001010111
1111001100100110
1111111000001110
0000000000111000
1111111000000001
1111110110011001
1111110001101010
1111110000000101
1111101000110111
1111011111110001
1111101000010100
1111010110101011
1111101010101111
1111101001011010
1111100100011001
1111111011010000
0000000011111110
1111101001011001
0000000000011001
0000001101100011
1111111010101001
1111010010111010
1111110101101111
0000110110100101
0000110011011001
0001001110101111
0000000011000001
0000000010000100
1111101001101100
1111101010001010
0000000010011010
1111101111110100
0000000000011011
1111110011101101
1111110110100000
1111101000111000
1111110110100101
1111110110100011
1111101111111111
1111011001111001
1111100011010010
1111010111101011
1111110000111110
0000000100011011
0000010111100000
0000001101001111
1111100010001000
1111001011110001
0000001111110001
0000111000011100
1110010111011110
1111111110100001
0000110100010101
0000101011000111
0000000011011101
0000011001111110
0000000010001011
0001001000101100
1111110111011000
0000001011100111
1111111110000001
1111101101001010
1111111000101001
1111110010001011
1111100101000101
1111101000110001
0000010011110110
0000000010000111
1111101101010001
1111101110100000
1111001110111100
1111100001110100
1111010101110110
0000000010000111
1111001100111001
1111010001000100
0000010000001000
0000111100010101
1111010001010111
0000000011000110
0000000010001111
1111110100111011
1111101110111010
1111001100000001
1111100011001001
1111001111011010
1111100100101101
1111101111010001
0000010000001100
1111100111001100
1111101001011000
1111110111000101
0000000000111111
0000001001110011
1111111000110011
1111110010011100
0000001000110111
0000010001000000
0000000000001110
1111001001010000
1110100101111011
0000000001011110
0000001010011111
0000000000100000
0001000101000110
1111001000101011
0000110110010100
1111111111010011
0000001001001000
0000000110110011
0001001110111001
1111001001011111
0000111010011000
0001010111011100
1111110010001111
1111100110101001
0000000011111000
1111100000001110
1111111011010111
0000000011000110
1111101101011111
1111110010101100
1111011110010011
0000011100101111
1111110001110000
1111101011010100
1111011010010001
0000011010010100
0000000111001100
0000011011000010
0000000111110001
0000101110001010
0000100100101101
1110011011001001
0000111111010011
0000001010010000
0000000000010011
0000000101000010
0000010000011001
1111101110001000
1111001000010000
0010000111100110
0000101111011011
0000011100000101
0000101000001111
0000011101000000
0000000100000100
0000001111100100
0000100111100010
0000010001010111
0000110011001010
1111101010110101
0000011001001010
0000101011000111
0001001100010010
0001100011001000
0010101001001001
0001100110000011
0000000000011000
0000101101011110
0001000010010010
0000100101100101
1111110110111011
1111111000110101
0000000010101011
1111110110101101
1111111101011001
0001000110100100
0000010110011011
0000110000101000
0001101001101101
0101011111110011
0100111110001011
0100111011110101
0100001000011010
0011110111010111
0010111010100001
0011101001110011
0100100010000111
0010101100100111
0011100000010010
0010010010100001
0010010111000010
0010100000010111
0001110010011011
0010001001011000
0010010110110001
0010010001101100
1111000011001101
0001001001000010
1111111001101101
0000000001110101
0000000110101111
0000000111111001
0000000110010110
1111111101110001
0010001001110100
0010111110001001
0100100111001100
0101011001101011
0110111110111011
1000100011001110
0011101011100010
0001111101101000
0010011101011111
0110001111011000
1100100100100100
1011010101001011
1010100001000010
1010010110011001
0110011101110101
0100010010001010
0001011110010010
0001100011101111
0001111000000011
0010000100001110
1111111010110000
1111111111110001
0000000000000101
0000000001110100
