1111111001010011
1111111100100000
0000001001000100
0000001010110010
1111110111000110
0000000111000011
0000000011010010
1111110101010101
0000000011100101
0000001001100001
1111111101100010
1111110110000000
0000010101011101
0000001001110110
1111110010100010
1111111010001011
1111111001010111
1111111101011011
1111111011100000
0000001010110110
0000001001100111
1111111111001011
0000001010100111
0000000010110101
1111111101011010
0000000100111111
1111111111000101
1111111000011110
0000000101110000
1111110110010001
1111111011011101
1111110101110011
0000001110110101
0000000111100111
0000100001001000
0000101000000010
0000100100110100
0000111101101110
0001011000111100
0000111010001111
0000111010100011
0000111101011000
1111111011100001
1111101100011100
1111001000110100
1111110000001101
0000110000110101
0001000111100100
0001001010010011
0000101100110000
0000100000111101
0000010100101001
1111111111010100
1111110111101111
1111111010011001
1111111100111110
1111110111101100
0000000111101011
0000001110100001
1111111011110111
0000010111001010
0000101110111100
0000100111001010
0000110000100101
0000110010101101
0000001101010000
0000011011111010
0000011010101100
0000011101110010
0000001001101001
0000010011010001
0000001111011000
0000001000011001
0000010001100000
0000100100110110
0000111100110110
0000110100110000
0000110010011110
0000111111100010
0000111001011100
0000010011010000
0000000011011111
0000000100010111
1111111111010110
1111111111011000
0000000111101110
1111101111110000
1111111110100110
0000011000101100
0000100011000001
0000101100111010
0000011000000111
0000001100111001
0000010111000110
0000010010100000
0000010111110100
0000001001110111
0000000101000000
0000011000110101
0000011000010111
0000001011010101
0000011010111110
0000011011001101
0000101100100001
0000011100110100
0000100011111001
0000010110000011
0000101010100110
0000011011010101
1111110111010110
0000000100110000
1111111100110110
1111111111000011
1111110111011100
1111100011100010
0000000000010000
0000001000111101
0000000010111010
1111111100011011
1111110011000110
1111111010101010
1111100111111111
1111110000100011
1111110110101010
1111111011001101
1111110100010110
1111111000100000
1111110001110111
0000001100110111
0000010100000100
0000011100010110
0000011110000110
0000101101011111
0000011111000000
0000100001010010
0000101101001010
0000001001011001
1111110111111000
1111011001111001
1111111011000101
0000000001001001
1111111001110111
0000000000010111
1111101000011010
0000000010110001
1111011111100000
1111111010010010
1111111001011100
0000000101101000
1111111101000010
0000000010000100
1111110000011101
1111111101011101
1111100101110010
1111110010001111
1111111101100111
0000000101100110
1111111101000010
0000001110010011
0000001010110001
0000001101101110
0000001001010011
0000011001101110
0000011111100001
0000011000110111
1111110110010000
1111111101010011
0000001110001011
0000000101101101
0000001011011111
0000010111000000
1111110010010011
0000010000110001
0000011100011111
0000000100001001
0000011001101011
0000001001001111
1111111010000101
1111101011111000
1111011111101011
1111011111101011
1111011011111001
1111100001000111
1111100010001011
1111011111101001
1111101010011111
1111011010110001
1111100111111110
1111100101101101
1111111010001010
0000000101111100
0000010110101000
0000011100001001
0000000101101110
1111110011111100
1111111001011111
1111111111000001
0000010110001000
0000011010000010
1111111100111100
0000100110001101
0000110101000000
0000010001100001
0000000111100110
0000000001000010
0000000000100001
1111101000000011
1111101101110111
1111011111111000
1111011010011110
1111010100101000
1111011000101000
1111010010110110
1111011010101011
1111100111101000
1111101001010011
1111100111000101
1111100010001010
1111110000001001
0000001100000100
0000011000110001
0000010001101010
0000011110110100
1111111001100001
0000010001100010
0000011010011001
0000101011110011
0000100110100111
0000100111010010
0000011100100000
0000001011010101
0000010011011011
0000000001000100
0000001001110100
1111111101110000
1111100101111000
1111100110010011
1111011100110101
1111010001101111
1111001110001010
1111011001110010
1111101001111011
1111100011111011
1111100101011011
1111101011111111
1111111011110110
1111111011000011
0000001000000010
0000000111010011
0000011100010111
1111111010111100
1111100000000111
0000001100001000
0000100010000101
0000111100001101
0000010101000100
0000010011101000
0000000011000011
1111111001101100
0000000010100001
0000010100100100
1111111000000100
1111111010010100
0000000001000000
1111111010111101
1111101010010011
1111100110100110
1111100000001011
1111111010001001
1111111100000001
0000000000010001
1111110100001000
0000000101011100
0000000101101010
1111110100101010
0000001001000110
0000000110100001
1111111100010000
1111100010100000
1111110000001000
0000011000010110
0000011101101001
0000010111000010
0000001010000010
0000001001000111
1111110100111011
1111110111100110
0000000100101101
1111111111100011
0000001100110100
0000000011111011
1111111111100111
0000000001100000
1111111101101001
1111110100100011
0000000110111011
0000000011111111
0000000011100000
1111111111101111
0000000010110100
1111111100001110
0000000000000111
1111111000100111
1111101100110100
1111111101100101
1111101001001100
1111010111001010
1111101000001110
0000011010010111
0000011101111110
0000011001111100
0000010011100111
1111111101011011
1111110101001101
1111111110111100
1111110111000110
0000001000101001
0000010100001011
0000001110000100
0000001001001011
0000011001101101
0000001011011100
1111110001001100
1111111101000001
0000000010100000
1111110100001011
1111111000101101
0000000100000010
1111101101101000
1111110101010001
1111101010001110
1111101001010100
1111001110100110
1111011100001101
1111001101111101
1111110011000100
0000001011100000
0000001100001101
0000100000111010
0000000110111001
1111011011100111
1111101011001101
1111111101100000
0000000000111000
0000001010110010
0000010000010111
0000011011100101
0000100101011110
0000110101001000
0000000111101110
1111101010000110
1111111111111000
0000001101011000
1111111001101001
1111110010110010
1111110001010001
1111101010001000
1111110110011011
1111111001011100
1111110011111010
1111110010101000
1111011010110110
1111000110010111
1111100101010100
1111110101100000
0000010011100010
0000100000000001
1111110111001001
1111010110110100
0000000110100101
0000010110101101
0000010100001001
0000010000000100
0000010011011001
0000011101001110
0000100110110110
0000011001101010
1111101110100110
1111101011101100
1111111001100111
0000000011011110
0000010000111101
1111111111001000
1111111011110100
0000000001010000
0000000100101110
0000000110001101
0000100100111101
0000010100001111
1111101011111111
1111000011110000
1111101001000010
0000000100110000
0000010000101000
0000010100000110
0000001010100010
0000000010011100
0000011101001001
0000001101010000
0000010001001111
0000001011101011
0000010010001101
0000010101100110
0000011000100010
0000010010001110
1111100101010001
1111101110100101
0000000100001011
0000010100100110
0000010000001100
0000001011000010
0000000111010110
1111111110111010
0000001001100101
0000011100001101
0000011100001000
0000001011001000
1111101110010111
1110110010100011
1111110010101101
0000010110011111
0000001011111011
0000011001111101
0000011100010000
1111111110011001
0000000110010110
0000001101110110
0000001110100000
0000000110100000
0000010000001110
0000000111001110
0000011000111101
0000010000101000
1111111010101101
1111111111110010
0000001000101000
0000001100110110
0000010111101000
0000001010010001
0000001000011111
0000001111011100
0000011000111111
0000001111010001
0000010101000111
1111110111001010
1111101100101111
1111000001001011
1111101100101001
0000010011110010
0000001010010010
0000001100011100
0000001001111010
1111100010011010
0000000001111100
0000000011000100
0000001101100011
0000000110001010
0000000110000101
1111111100110111
0000010011010100
1111111001001010
1111111010000010
0000010100000100
0000010010000011
0000001100111010
0000001000000101
0000001101000011
0000010111010110
0000010100100010
0000101000010000
0000001101010101
0000000001111011
1111111010100001
1111011111001001
1110101111110110
1111011010010001
1111110110110010
0000000000101011
0000010110011101
1111101111111101
1111101000001111
1111110101001110
1111110001011001
0000001101010100
0000000101011000
0000001111100001
0000001110011100
0000000110010001
1111101110000110
0000000000000110
0000010110110110
0000001000101000
0000001011010001
0000000110000100
0000001111111011
0000000011010011
0000000111111000
0000010111110001
0000001011000001
0000010000100011
1111110100111000
1111110110111000
1111000011001011
1111011110110001
1111101000111001
0000001010110110
0000010000101100
0000011010101011
1111111001111000
1111110000000111
1111111000000111
0000001000000011
0000010001000000
0000000010101110
1111111011100100
1111111111110011
0000001101100110
0000000111100100
0000000001011010
1111111011010101
1111111100101111
1111111111111111
0000001110011110
0000000001010110
1111111101010010
0000000110001011
1111110001010010
1111110011111011
0000000101010101
1111011101001010
1111101001000001
1111111100110011
1111111101100001
0000000010000101
0000010111101011
0000100010101011
0000000001101111
1111111010100010
1111110111111101
1111110000101011
1111110110100111
1111111001111110
0000001100100001
0000010100111010
0000001110000000
1111111011100010
0000001001101111
0000000011111010
0000000101011011
0000010010110110
0000001110000010
1111111010001100
0000000101001010
0000000000101011
1111011101100001
1111100011110010
1111110011010011
1111011111110001
1111100101111000
1111111000101001
0000000101011011
0000001101111110
0000011010010111
0000010001100001
1111101010111001
1111010110110111
1111100010100010
1111011111010010
1111100110000101
1111110111000001
0000000111011000
0000000001001111
0000100000100101
0000010000110100
0000011111101100
0000010011100100
0000000110111110
0000000100111000
0000000010100101
1111111111000011
1111101001100101
1111011011001100
1111001011001011
1111011011111100
1111011111001001
1111010100111010
0000000000010000
1111110110001100
0000000100101111
0000000011001110
1111111110110010
0000100011001011
1111011110100001
1111011011001000
1110111001011001
1111001111001111
1111101001100000
1111101010100111
1111111101010011
0000001111101001
0000100011101100
0000100010100111
0000010110001011
0000011111000001
0000001010111011
0000001001110000
0000000010010000
1111101111101100
1111101100001000
1111011110110000
1111011001001110
1111110000001010
1111110100101101
1111101110000011
0000010010010110
0000000111100111
0000000000000000
0000000010110000
1111110100010111
0000000111111110
1111101110010100
1111100110100101
1111001101000111
1111010110010100
1111110000000100
1111111011100011
1111111010000101
0000000010000010
0000000100000100
0000000100000110
1111111101111110
0000000001010010
0000000110101111
1111110110110000
1111101101011000
1111111000000010
1111110011111101
1111111001011010
1111101101101110
1111100111110111
1111101110010110
1111101100101001
0000101110001001
1111111110100100
1111110111111111
0000000010010110
0000000100101111
1111110000000111
0000001010011001
0000011010100100
0000100011101010
0000010010010110
0000000111000100
1111111010100101
1111101110111111
1111101100111101
1111110000101001
1111101001010110
1111101110010000
1111110101100100
1111101110101001
1111101100001101
1111111100011001
1111110100111001
0000000110110111
1111111000110100
1111110001101110
1111101000111111
1111101101011001
1111110011111101
0000011010011101
1111111111100111
1111111111111000
1111111001100101
1111110000000110
0000001100010101
0000001111101101
0000011110001000
0000010111011000
0000001000100101
1111101000100001
1111111100111000
1111101101001001
1111101111010001
1111100111100100
1111110100011110
1111110011001101
1111101101001001
0000000000111011
1111111011101001
1111111111011111
0000000000010101
1111101110110000
0000000000010010
0000000001011101
1111100100110001
1111110111101011
0000010000111000
0000001010010001
0000001000101001
0000000101111111
1111111010000110
0000000110100101
0000000001101101
1111101100100000
1111111011111111
1111110100001110
1111110100000010
1111100010111000
1111101111000010
1111110001100010
1111111101100111
1111101100001011
1111110001010010
1111110101011100
1111111101110111
1111110100001111
1111100101000010
1111100001001101
1111011000111010
1111010011001101
1111100110010110
0000000111101100
1111101101010101
1111101010000000
0000000101111100
0000000111011010
0000000010001100
0000001001010111
0000000111010100
0000000011111101
0000001000111001
1111110100100101
1111111011001000
1111101011000111
1111101111000000
1111111011111001
1111110010011010
1111101011111111
1111100000000011
1111011100111011
1111100111111110
1110111011000011
1111010001010001
1111010110111011
1111011010101010
1111010000011110
1111100010011110
1111010110111110
1111011110101001
1111011110010011
1111101011011101
1111101100111010
1111111000001111
1111111001000110
1111110101010011
0000000001100000
0000000011110000
1111110110100110
1111111101101000
0000001111110110
0000010011011110
0000000101001010
0000000100100101
0000001100101000
1111111000101100
0000000000010100
0000010001111000
0000000111111101
0000010010101010
1111100010011000
1111110001000111
0000010001100100
0000001000110000
0000000011111100
1111110110101000
0000011101101000
0000001001111111
0000010100000000
0000010011011110
1111111000000010
1111110101011001
1111111001000111
0000000000010101
