0000000011000010
0000000011110111
1111111010001000
1111110100111000
1111111101100011
1111111110111010
1111110110011000
0000001000001101
0000001010101000
0000001010010101
1111110110000011
0000000111000101
1111111010100010
0000000000000100
0000000101011111
0000010110011111
0000001010011111
1111110110011101
1111111101110110
0000000100110111
1111111011110010
0000000010101011
0000000011100011
0000000011111111
0000000010010111
0000000110100111
0000000010010001
1111111100101110
1111111000110010
0000000000001111
0000001001011111
0000001000100000
0000000101000000
1111111110110010
1111100100001010
1111011000101110
1111010110100010
1111011111011111
1111011101001001
1111100001101111
1111100100111010
1111101011000101
1111110111100001
1111110101010000
0000010010110010
1111111111000000
1111110100011010
1111101100001100
1111101010010000
1111110011001110
1111101001111000
1111101000111101
1111111100100000
0000000010000010
0000000011101110
0000000100101101
0000000001001101
0000001001101000
0000000110011110
0000000111110100
1111111101011101
0000000000101000
1111011100100100
1111010011101001
1110111110110011
1110111101101110
1110111001000000
1110110100100100
1110100111101001
1110111000011001
1111010100101011
0000000001100000
0000010000001011
0000010000001100
0000001111100010
1111110001111110
1111110001011000
1111100100011010
1111101010110001
1111011100001000
0000000000101111
0000000110010000
1111111001110101
1111111010011101
0000000000101111
1111110101010110
0000001111100011
0000001100111000
0000000000110101
1111100110010110
1111110000101000
1111011101100000
1111010001010011
1111001110011111
1111001110000010
1111000001101001
1110111111011101
1110110011100111
1111000010111101
1111101000111010
1111110110101111
1111111111110001
0000010010010001
0000000110000101
0000000001100100
0000011000111110
0000001110000111
1111110011011011
1111101111001100
1111111110010100
0000000110001000
1111111111110011
1111111111101010
0000000100101111
0000010010011001
0000110111100001
1111111101010000
1111111100100100
0000001111010100
0000010100110001
1111101100000000
1111110101011001
1111110111010110
0000001001101011
0000001001111111
1111111111011101
0000000101110101
0000000011111111
0000000010001001
0000001110101001
0000011110111001
0000001100000110
0000000111010001
0000011111100011
0000010000101011
0000001000110000
0000110010011101
0000101011101010
0000000100010111
1111110111011101
0000000001111011
0000001000010011
0000000001010010
0000010000101011
1111111101100001
0000011011110000
0000010001011110
0000011100101101
0000010010000110
0000000101010111
0000000000111100
0000010010010000
0000010010010000
1111111110001011
1111111101100000
1111111001101110
1111111101000110
1111111110011010
0000001010000101
1111110111010101
0000000111000101
1111111101100111
1111111010000011
0000000001101001
0000011010000110
0000111100000010
0000010101110111
0000001010110101
0000001001101011
0000001001000011
0000010110011100
0000000100100000
0000000111111101
0000100010000110
0000010100100101
0000000101000110
0000010111110101
0000101000100000
0000010101100111
0000001111011100
0000000111100010
0000001011101101
0000000011000011
0000001010010010
0000001110000101
0000000111101000
0000000000000001
0000001010000011
0000001001000011
1111110111110110
0000001001110100
0000011011101000
0000110111100110
0001001010000001
0000100110110011
1111110001001000
1111111001100001
0000010001010011
0000100011011010
0001000101000111
0000010011100110
0000001011101010
0000011101000110
0000000010110001
0000010111011111
0000010011001111
0000001111101100
1111111111110110
0000000011001110
0000010010011010
0000000110011010
0000000100010100
0000000010011011
0000000001100011
0000001110010000
1111111111001111
0000001110111010
0000000110001000
0000000111010111
0000011001110111
0000111000011001
0001011010000110
0000011111100111
1111110111101001
1111110010001100
0000000111010001
0000110010110111
0000110111100111
0000010011110100
0000011110101100
0000010000100001
0000010001100110
0000100011101110
0000011010110110
0000010100100010
0000000010001000
0000001000010100
1111111001000111
0000000010111100
0000000011111101
0000000111010011
1111111001111011
0000001111010000
0000001010001011
0000001001111100
0000010001000110
0000001111010101
0000010110101101
0001010100111101
0001111000100101
0000101010111110
0000010111110010
0000001000000001
0000100010100000
0000111100111101
0001001000101001
0000001100100011
0000010101001111
0000011100100000
0000010010011011
0000011010010111
0000011011000000
0000011001011101
0000001011001011
0000000011000001
1111111011000110
1111110111001110
1111111010000001
1111111010100100
1111111110110101
0000001100011000
0000000110001011
0000010010001100
0000011110000111
0000100011000010
0000101000000001
0000111110110000
0001111011100011
0000111000110100
0000101100100011
0000000100010010
0000000101000110
0000111111011100
0001000111000010
0000011101110110
0000010000100100
0000010000001011
0000011011010011
0000001000000010
0000010111110111
0000010000000001
0000001010010000
1111111110101111
1111110000101000
1111110110011001
1111111011100011
0000000011100111
1111111111101100
0000000110100100
0000001011010000
0000010001010010
0000001001111101
0000011010100011
0000001010111011
0000110101100101
0001100010101000
0000111011010111
0000101000001100
0000000101000101
0000000001001111
0001000011101000
0001001001011011
0000000101110010
0000000010001100
0000000110101000
0000001000001001
0000000100101111
0000000111011110
0000000110010001
0000001011000000
0000001000100001
1111110000000101
1111111111100101
0000000101101010
0000001111101001
0000010101011101
0000001000001001
1111110111011100
1111111010001001
1111100111001111
1111011110001100
1111001001011010
1111011111000000
0000010001111111
0000101101111100
0000001111101110
1111110101111001
0000001110011101
0000111011111110
0001000000100000
1111111100010101
1111111101110000
1111111000110100
1111110000110000
0000001100110010
0000001000100000
0000001100101101
0000010101110110
1111111110111101
0000001001110011
1111111011010011
0000000111011100
0000011000001111
0000011111001111
0000001000100110
0000000101101000
1111110001010001
1111100000110000
1111100101111010
1111001011110000
1111000100101101
0000001111001100
0000100110100100
0000000011101011
0000000100111001
0000011010111101
0000011010101011
0000010101111011
0000001010100100
1111111111110000
1111110110111100
1111110111100001
0000000010011011
1111111110000101
0000010011001011
0000010101111000
0000001100001110
0000001100011100
1111111010110100
1111111110100111
0000001010100110
0000010100101110
0000010011111000
1111101010101111
1111111011100011
1111110000001111
1111100010000100
1111011100000111
1111110111101101
0000011101110111
0000111110100101
0000010001000101
1111110110110000
0000010111000111
1111111110011011
0000010110111000
0000010110111111
1111100111111110
1111110111010100
1111110011110101
1111110101011010
0000000100101100
0000000001111010
0000001011000011
0000010000110010
0000001101101001
0000000001000110
1111111110010000
0000001000101000
0000101010010111
0000001010110001
1111111001011110
0000001010001110
0000000011010010
0000000010101100
1111111000101101
0000001000100011
0000100001010100
0000110000101001
0000011010000101
1111111111000011
0000001110001100
1111110111010010
0000010101010101
0000000001100000
1111110001001101
1111101000111001
1111100011111101
1111101110100111
0000000101111111
1111110111111110
0000000100001010
0000001101010010
0000000011011011
1111110101111010
0000000011111000
0000001001110101
0000100011001111
1111111101100110
1111111010101111
0000001111001001
0000000100011111
0000000101010101
0000001011000100
1111111111111101
0000000000100001
0000110011111011
0000100001000000
0000000111110100
0000000001100001
0000000101111011
0000011010100011
0000000110000010
1111110101011010
1111111101011100
1111101101000101
1111101101101100
1111110110001001
1111110011000000
1111110001001011
0000100001010111
0000011000011000
1111110110001000
0000000111111011
0000010001111111
0000011011011001
0000000110001010
0000000011100010
0000000101110010
0000001010100001
1111111011001000
0000010010011100
0000000011101011
0000000111011010
0000101101011110
0000100001001011
0000000101100110
0000001000000011
0000001111001001
0000100000010011
0000001100001000
0000000001000110
0000001111100101
0000000001001100
1111111000010011
1111110101000010
1111100001010101
1111110001110101
0000000010010000
0000000110010000
0000000111011101
0000011000110001
0000010111000011
0000010010011110
0000000011011101
0000000101000000
1111110111111001
1111111010111101
1111111010111010
1111111000100100
0000001110011110
1111111001111010
0000100000001010
0000000000111101
0000001011101011
0000001101110110
0000011011000110
0000010101100001
0000001111001001
0000000100001011
0000001110101110
0000000110100111
1111111010101111
1111101000101011
1111101111010100
1111011110100011
1111101001101001
1111111111101110
1111111010100101
0000000111110100
0000000011101101
0000001110010100
0000000111001001
1111111010001000
0000000010000111
1111111011010001
1111110000000110
1111111001001011
1111110110101100
0000001100110100
0000011110011000
1111111001000100
0000000010010000
0000001111010100
0000111000011101
0000100001010110
0000010100100100
0000001111010001
0000000111101111
1111110101011111
1111110011111100
1111101111001010
1111110000010010
1111100000010111
1111010101100101
1111101100111101
1111100111011101
1111110000100100
1111101011111011
1111111000001111
1111110110101000
1111110110110000
1111110101010010
1111101100101110
1111100101000100
0000001011000001
0000000010001100
0000000000011100
0000001101001010
1111111000101110
0000000101000011
0000010111010100
0000101100000101
0000011011001011
0000011010110110
0000001011100000
1111111000110001
1111101011010000
1111110001101111
1111101000011100
1111101111110100
1111100000111110
1111100010100111
1111101010000111
1111100111111111
1111100110000110
1111101011001110
1111110000100010
1111111001110011
0000000111000010
1111111001110110
0000000000001111
1111101111101011
0000000110011010
0000001001101110
0000001000110010
1111111000101010
0000001001001011
1111111010110101
0000000110010110
0000100101100000
0000001010010011
0000001010101101
1111101110010001
1111100111001001
1111110010010010
1111110100001100
1111101101010101
1111101001010101
1111101110011010
1111110011100100
1111111000010101
1111110000111011
1111101111111100
1111110010010110
1111101100011101
1111110001100001
1111110101111100
1111111011000100
0000000110110010
1111111101000010
1111111010111111
1111110100100101
1111110100101101
1111100100110101
0000000110011111
1111101010101001
1111111000011111
0000010000101001
0000011010011011
0000001100010101
1111100011010000
1111100001100100
1111110111001110
1111110111011100
1111110010100111
1111111011101000
1111111100000111
0000000011111101
1111110110001100
1111111101100001
1111110111000011
1111110110001111
1111101101011001
1111110010010000
1111111001001000
1111110010010001
1111110001010010
1111111101100111
0000000000011000
0000000011001111
1111110010110011
1111101010010111
0000000101011110
1111111011100100
0000000101000001
0000001100111010
0001000111011111
0000010101001000
1111100111001100
1111100000110110
1111111000000100
0000000100100010
1111110101011000
0000000101001100
0000001100111101
0000000011110000
0000000010011011
0000000001000011
1111110000000101
1111110101110101
1111101101000010
1111101010100111
1111110011010100
0000000000000111
1111110010011001
1111100111001100
0000011010001111
0000010110001101
0000001111010111
0000001010000111
1111111101100011
0000001000111100
0000001010111010
0000010011000011
0001001000110111
0000111010110000
1111111110100011
0000001101000100
0000001010111111
0000001001010000
1111111010110111
0000001110111101
0000010100001110
1111111101011001
0000001101000000
0000000100110000
0000000101010000
0000010001001010
0000000100101010
0000001011100011
0000011011010111
0000100100101011
0000011101100010
0000100011111011
0000100011011001
1111111111000011
1111011100101110
1111011111100100
0000000001110100
0000000100100001
0000000001000011
0000010101110110
0000100010001110
0000110110010000
0001011011010100
0001010101011110
0001010111100101
0000111101111111
0001010001101111
0001110101101010
0001111101010001
0001101010100100
0001100011101101
0001011101011010
0001100011110010
0010011000010111
0010001011110000
0010001010011011
0010001110000100
0001110110100100
0001110011101101
0001001000101001
0001001011001111
0000101011110001
0000000110010110
1111110000100011
1111111101100110
1111111111011010
0000000011000011
0000001010011000
0000001100011010
0000101111010010
0001000000000111
0001101011101001
0010000000001111
0010100100000011
0010111110101001
0010111101100100
0010110101000100
0010111101110101
0011000110011101
0010111000110110
0001111111100110
0010100101101010
0001111010101110
0001111010111001
0001100110010001
0001100100010111
0001010011111010
0000101110001110
0000101000010110
0000010100000001
0000001101000010
0000000001001101
1111110111111010
1111111110011110
1111111001000000
0000000010101001
0000001011000101
0000000000000110
0000001010100000
0000011101100110
0000100101000111
0000100110111010
0000101011100011
0001000101011110
0000111100111010
0001001001011001
0001011000100111
0001111100001111
0001101010110011
0001010011000101
0000111100001011
0000110010010101
0000011100011001
0000010000011101
0000101011011100
0000100110110110
0000010111101110
1111111000101001
0000000010000000
1111110111000110
1111111001010010
