1111111111110101
1111111110011000
0000000001110011
1111110110111111
0000000010001100
0000001001011010
1111111010000110
1111110111010011
1111110110000001
0000001000011110
1111111110001010
0000000000001000
1111111100101100
1111111001101001
1111111101011101
0000000111110111
1111111110001011
0000001000101101
1111111100100111
1111111110110111
1111111000000010
0000000011100001
1111111011001011
1111110111110001
0000000101001111
0000000001110101
0000001000000001
0000000100011000
0000001010101110
1111111010010111
0000000110101000
1111111111010110
0000000001101110
1111110111000000
1111111011001001
1111110101001100
0000001000010111
0000000100001111
0000001001010101
1111111000111110
0000000111010000
1111111000100010
1111111110110101
0000000110101100
0000001000110000
1111111010110101
0000000101001110
0000000110011000
1111111101011000
0000000101110000
1111111101110001
1111111100100100
0000000111110100
0000001001011100
1111111111000010
1111111001000001
1111110100111000
0000001010001111
0000000111110111
1111111011000011
1111110111110001
0000000001001111
0000000011000011
1111111101111011
0000000000101110
1111111101010101
0000000001110111
0000000011101011
1111111000101111
0000000000100010
0000000001101110
0000000111011011
0000000111110001
1111111100101101
0000000011000111
0000001001101010
1111111110000101
0000000010111110
1111110110100001
0000000011011001
0000000010111001
0000000001101111
0000000101001001
0000000001111110
1111111111001010
1111110111110000
0000000101001110
1111111011000011
1111111001010111
1111111111011010
1111111010101010
1111110111000101
0000001001001100
0000001000110100
0000001000101000
1111110100111111
1111111101001000
0000001010010010
1111110100111010
1111110110000111
1111110110110000
1111110111110001
0000000100100000
1111111001101100
0000001010101010
0000000010010101
1111111000110010
0000001001110110
0000000000101111
1111111110111010
0000000101010001
1111110110101111
1111111011100111
0000001010010111
0000000011110101
0000001010100001
0000000001101000
1111111110011001
0000000001010101
0000000100000010
0000000101010001
1111110110001111
0000001000110100
1111111000000010
0000001000000101
0000001001011010
0000000101100010
1111111110010011
1111111000110011
0000000111101111
1111110110011011
0000000110101010
1111111111010111
0000000010111101
1111110111110000
1111111010100111
1111110110011111
1111110111001010
0000001000110010
0000001010110101
0000000000011101
0000000111110100
0000000110110011
0000000001001000
0000000000100001
0000000100010000
0000000110100100
1111111011100110
1111110100101100
0000000101010111
1111110101001111
1111111010111100
1111110101001010
1111111110011010
0000000100000110
0000001001101110
0000000111010001
1111111101010010
1111110110001111
1111111011101000
0000000111000001
0000000111001001
1111111011011111
1111110110000100
0000001000101001
0000000100101000
0000001000001101
1111110111001000
0000001000111110
1111111000011000
0000000010011100
1111111111011010
1111110110111001
0000000000110111
1111111001011010
1111111010101011
0000000100011000
1111110110100011
0000000101001001
1111111101110110
1111111000101111
1111111111111010
1111111101101001
0000001000100110
1111110110011100
0000000001110110
0000000110101100
0000000001000001
1111111101111010
1111111101101111
1111110101010001
0000001000010011
1111111101110101
1111111010110111
1111111111101100
0000001010101111
1111111010011100
1111111011111101
1111111101111101
0000000000100010
0000000010000111
0000000001100101
1111111001111010
0000000111111111
0000000000000001
0000001000111111
1111111010001011
1111111011110001
0000000101110111
1111110011000011
0000000010000101
0000001000010010
1111111001110111
0000000101000100
1111111100011110
1111111011110010
1111110101000010
1111110111010010
0000000010101011
1111110101100000
1111111111001100
0000001001010001
1111111111011110
1111110111100010
1111111101111010
0000001001110101
1111111101100011
1111111110010100
0000000111101100
1111111101011000
1111111001111101
1111111011101010
0000000001000101
1111110100001100
0000000001100110
1111110010111001
0000000101100000
0000000011010100
0000000110111100
0000000110001010
0000000010101010
0000000100010001
0000000101001101
1111110101000111
1111111101111001
0000000010001000
1111111101100111
1111111000101011
1111111110010110
0000001000010001
1111111110101010
1111110110110111
0000000011100100
1111111001001001
0000000011010001
0000000000010101
1111110110001100
1111111110110011
0000000000110011
0000001000110101
1111110010111110
0000001000010110
0000000100100000
0000000010001011
1111110101011101
1111111110111101
1111111011100100
1111110101101011
1111111100010101
1111111011101110
0000000100000011
1111111011110010
0000000110101011
1111111010010010
1111111000001101
1111110101110101
0000001000100010
1111111011111110
0000001010101110
0000001000111010
0000001000001001
1111111101101001
0000001010001100
1111111101001011
0000000000001011
1111111111001100
1111111001011010
0000000100111011
1111111111000011
0000000110101011
1111110110100111
1111110101101001
0000000101001000
1111111000010110
1111110101101010
1111111110010110
0000000000110110
0000000111001101
0000000001100110
0000000110000011
0000000100011111
0000001000101001
0000001001110111
0000000000110000
0000000111001100
1111111110111110
0000000110011010
0000001001101110
0000000111110011
1111111010111001
0000000110111001
0000000100011010
1111110101000101
1111111110011111
1111111010100111
0000001000011000
1111111010111100
0000000110010110
1111110101001101
1111111111110011
1111111011010001
1111111000100010
1111111000110110
0000000110010110
0000000100010010
1111111001010011
0000000111110101
0000000000001001
1111110110010000
1111110100100001
1111111111110011
0000000011110010
0000000101001101
0000000111100111
0000000000011001
1111110100111101
1111111110110011
0000000110000000
1111111100101001
1111110110110000
1111110101010100
0000001000110000
1111110110111111
0000001001001011
0000000001101010
1111110100011110
0000001001001101
0000000100011110
1111110111010001
0000000110111110
1111111000010011
0000000001100111
0000000000011010
1111111111011101
0000000001000001
1111111110001101
0000000111010001
1111111101110011
1111110100011011
1111111011000000
1111111100010100
1111111101111010
0000000010011011
1111110110101010
1111111001011111
1111111001011011
1111111000001111
1111111001110000
0000000000100010
0000000101111100
0000000001000000
0000000001011111
0000001001100010
0000000010010011
1111111010001011
1111110101100100
1111111001001011
1111110111111100
1111111010101010
1111110110000100
0000000011010000
0000000110101101
1111110011111100
1111110101011000
1111111100101111
0000000000101111
0000000000110111
1111111011101101
1111110110000011
0000000000001101
1111111010001000
0000000101010001
1111110111010101
1111111000000111
0000001000100110
0000000110011001
0000000000001101
0000000110100100
1111110101100001
1111111100111111
1111111010000011
0000000100101100
1111111100110010
1111110111000111
0000000000001110
1111111011010000
1111111101011101
1111110100011001
0000000101111110
1111111011011100
1111111101110011
1111111110110111
1111111001011111
1111111000011101
1111110111011101
0000001000111101
0000000011100111
1111111110001000
0000000111101110
1111111100010110
1111110110100110
0000000100000101
0000000100101111
0000000111100000
0000000101111001
0000000110001110
0000000111100000
1111111110011110
1111111000001001
1111110110100101
1111110101011101
1111110110010100
1111111111111010
1111110111010011
0000001001011101
1111111111010110
0000000001010110
0000000010000001
1111110110110101
0000000011100110
0000001001101100
1111111011100001
0000001000111111
0000000100100000
1111110110000011
1111111101010001
1111111010100010
0000000001100000
0000000011000010
0000001000001111
1111111110111110
0000000000010001
1111111001101001
0000000100001110
1111111101101011
0000000000111110
1111111110001011
1111110101111101
0000000001101110
1111111101000101
1111111111111000
0000001001010010
0000000100011001
0000000010000001
1111110011101011
0000000110010000
0000000000010000
1111111100001000
1111111111100110
1111111110100001
1111111011000110
0000000011101011
0000000100010010
1111110110100111
0000001010110110
1111111010101000
0000000111001010
1111111001011111
1111111101111010
1111110101000110
0000000010000000
0000000000110101
0000000001111000
1111111100001110
1111111011010011
0000001000000000
1111110100111011
0000000011101101
1111111010001101
1111110100010111
1111111000101011
0000000101101010
0000000001001011
1111111001010011
0000001000100110
1111111000000010
1111111001111011
0000000110010010
0000000011010111
1111110110101101
1111110110001100
1111111010000100
1111110101001111
0000001001100110
1111110101010001
1111111101110111
0000000000011001
1111111000101001
1111110101010101
0000000011101000
1111110110010111
1111111110111110
1111111001110100
0000000110100100
1111111111101010
1111111011010111
1111111100010010
1111111101110111
1111111001110011
1111110111000100
1111111000111011
1111110110011111
0000000110010000
1111111110010010
1111110111111110
1111110101101111
1111110101100001
0000000100101001
0000000001110001
1111110110100001
0000000000101101
1111110111110000
1111111101111100
1111111001010000
1111110110101101
1111110111101101
1111111010100011
0000000001101100
1111111101110101
0000000010001110
1111111010000011
0000000000010100
0000000100011011
1111110100010110
0000000101110100
1111111001101000
0000000100001000
1111111111110001
0000000001110001
0000000110111100
1111111110100000
1111111000110100
1111111010101000
0000001001101100
0000000001001000
1111111101011010
0000001010100110
1111110111110110
0000000111011110
1111111110110101
0000000010100101
1111111000111001
0000001010000001
0000001010101110
1111110101010010
1111110110100001
0000000001101000
0000000010001110
0000000011001000
1111110111100010
1111110100010010
0000000011100011
1111111001101100
1111111110100010
1111110100100001
0000000101110110
1111110110001000
1111110011111110
1111111000111001
1111111000101011
1111110110010000
1111110101010101
0000000000000000
0000000111001011
1111111011010010
1111111011000111
1111110110011111
1111111010000000
0000001010101001
0000000101010011
0000000111010000
0000000101000101
1111110111100001
0000001001000001
0000000010111111
0000000110111101
1111111010010010
0000000011011111
1111111111100001
1111111110110001
0000000001100110
1111111010101111
0000000000100110
0000001000001000
1111110110111000
1111111101001001
1111110110111100
1111111100001010
1111110111011101
0000001000100011
1111111101001110
1111111111011011
0000000111101000
0000000000100011
1111111100111000
1111111011000111
1111111100001111
0000001000110111
1111111100000010
1111111100010001
0000000000100011
1111111010110100
0000000011101110
1111110101001011
0000000001111001
0000000100001011
1111111111111000
1111111100100010
1111111000001000
0000000011001001
1111110100010000
1111111101101011
0000001000000101
0000000110110011
1111110101110001
0000000100001110
1111111011110111
0000001000000110
0000001000010011
0000000101110001
1111110101110000
1111111011101000
1111111111000011
0000001010001100
1111111011100010
0000000100100101
0000000101000101
1111110110001100
1111111100110010
0000000111111101
1111111101001010
0000000010010111
1111111101100000
0000000110000101
1111111100011100
1111111101011001
0000000100000010
1111111111100101
0000000101111001
1111110111000100
0000000100100000
0000000000011011
1111110111100000
1111111001101111
0000000010111010
1111111000110101
0000000000101110
1111110101010010
1111111010110111
1111110110101101
0000000110000111
1111111110100001
0000000101111001
0000000001110111
0000000011010001
1111111001100111
0000000101011100
0000000100111010
0000000000101100
1111111000111101
1111111101100101
1111111111111001
1111111100000111
0000000000010110
1111111100000111
1111111111101101
0000000000100101
1111111110011010
1111111011001001
1111110101100111
0000000100011011
0000000010110101
1111110101111100
1111110101100101
0000000011010001
1111111001110011
0000001000011100
1111111001110001
0000001001110000
1111111111111000
1111111011001100
1111111011111001
1111111110111111
0000000011010100
0000001010001011
1111111111010011
1111111100111110
0000000101100000
1111111101010111
0000000100110101
1111111001001010
1111110011111110
0000000000111010
0000000100011101
1111111011000001
0000000010011111
1111110111011000
0000001001000000
1111111010100111
0000000010110100
1111110101101000
0000001010001000
1111111001101111
1111111001011111
0000000000001011
1111110110011110
0000000100010110
1111111111000001
0000001001001001
1111110110110101
1111111111111001
0000000101100000
1111111100001101
1111111100100110
1111111011010100
1111111010111101
1111111011100111
0000000100101110
1111111001111001
0000000000110101
1111111000011011
1111111011111010
1111110100100100
1111110100111000
0000000010111011
1111111001001111
0000000000011011
0000001001111010
1111110110110110
1111111110111100
0000000101110001
1111111001011110
0000001000010101
0000000001101010
0000000001011100
1111111001010000
1111111010100110
1111110101101111
1111110100111111
1111111110001100
0000000000100110
0000000111110100
1111111110000001
1111110111001110
0000001000010000
1111111111011011
1111111101000101
0000000111100001
0000000011000100
1111111000111111
1111111010111101
0000000010110011
1111111011011010
0000000001001010
0000001001010010
0000000010000111
1111111100001011
1111111110111101
1111111011010011
0000000110011111
0000000011100110
0000000100011110
1111111001011101
1111111101101010
