0000001001100101
1111111110010101
0000000011110100
1111110110010011
0000000000101011
1111111000010110
0000000110100001
0000001001001010
1111111110001000
0000000110011001
0000000111101000
0000000000101001
0000000000100001
0000000111110110
1111111101111111
1111111101111100
0000000011010101
0000001011000101
0000000011000011
0000001010101000
0000001001000101
1111110101011101
0000001000100111
1111111101001110
0000000111110011
1111111110100000
1111111001010011
0000001000011110
0000001001110010
0000000010100010
1111111100100010
0000000110100010
0000000001010101
1111111010111000
0000001001001111
0000000000111110
1111111000100000
1111111001000011
1111111010010110
1111111011100001
1111110101011101
1111110101011001
0000011101010110
0000011000110010
0000011000011001
1111111001011100
0000000011111001
1111111000111111
1111110100110001
1111111101101000
1111111110011110
0000000110110101
1111110101011110
0000001000010100
1111111010100010
0000000001101101
1111111110111100
0000000001100011
1111111010000000
1111110110101001
1111111111110000
1111111111111010
0000000100100011
1111111001011110
1111101110101111
1111010110001111
1111100010100011
1111111011111110
1111100100010110
1111101111011010
0000000010011110
0000010000011011
0000001110110111
1111111111010001
0000000110100100
0000000011110011
0000000000000100
0000000100101001
1111111111100000
1111111111100110
1111100111011011
0000000111010011
1111110101110001
0000000111011100
1111111000001000
0000000101010111
0000010111001001
0000001111100111
0000011011100001
0000010001111101
0000010000101100
1111111011111100
1111110001001010
1111101100010000
1111101100101100
1111101101001010
0000001011001011
1111111010001101
0000000011000001
1111111111110110
0000001011000001
0000000001100110
0000010010101000
0000001000110101
0000001001011001
0000000000111111
1111111010011111
1111111101001110
1111110110000011
1111100100010110
1111110011110011
0000000010110000
0000000110010011
0000000011111110
0000011010000110
0000011101101011
0000011011001000
0000101101101000
0000010100000011
0000010101111111
0000001001111100
1111110000110001
1111111110100011
1111111010010110
0000001101000111
0000000010101010
0000000100010011
0000010100100110
0000000001110001
0000001100100100
0000010101000110
0000000111110100
1111111110101000
0000010010100111
0000000011011001
0000000101000111
0000001100101001
0000000000001101
1111111111101011
1111111011010011
0000001001000001
1111111000001000
0000101000010111
0000010100100110
0000100001101010
0000100001000100
0000010111100001
1111111000111101
0000000010011001
1111110111011001
0000000100011111
0000000101011100
0000000001100100
0000000010101101
1111111101100000
1111111111000000
0000001101010011
1111111101010011
0000000011011001
1111110111100111
0000000100001110
0000000001100010
0000010101100000
0000010100100101
0000001000010101
0000100111010000
0000110010010011
0000001011011110
0000000100110100
0000001001010101
0000001010111001
0000010000100001
0000001001110100
1111111100001010
0000000011111000
1111110101000011
1111111101101100
1111110101001100
0000000100000001
1111111110100000
0000000010000010
0000000111101010
0000001000010111
1111111010101010
0000000001010111
1111111011101001
0000001000010001
1111110011011101
0000000110000101
0000000000011001
0000000111111010
0000010001100100
0000100111101001
0000110001010101
0000101111111000
0000001110010011
1111110110110101
0000011111110100
1111110010010100
1111111011110100
0000000010010101
0000010111011010
0000000101101000
0000000011101001
1111111011010001
1111110110001000
1111110101011000
1111111100011100
0000001010100010
0000000101011001
0000010010000101
0000001011111011
0000001011101000
0000001110110010
0000000011011011
0000001001010101
0000001011010110
1111111100010110
0000010001010010
1111111101110010
0000011100000001
0000110011000110
0000001110111010
0000011001110101
0000000110001000
1111110000001111
1111101100111101
1111110010111110
1111111001011110
1111111100111110
1111111001101111
1111110010100000
1111111100001100
1111110110100001
1111111001111000
1111110100000110
0000000001001001
0000001010011010
0000000111000011
1111111110100101
0000001010111010
0000001001011110
0000001001000000
0000000001011000
0000001001001101
0000000011110001
0000000011111000
1111110011001010
0000100100010011
0001010101010001
0000011101010011
0000011010001100
1111111011101101
1111110111110010
1111011001011101
1111101010000010
0000001001001010
1111110101110110
0000000110010010
0000000100001100
0000000000000010
1111111000110100
0000000010001000
1111111111110010
1111111100001111
1111111011101111
1111111000011000
0000001001011001
1111111010111011
1111111100001100
1111111011000100
1111101001010001
1111111101000100
0000000011001101
0000000100100101
0000001010001101
0000110001110000
0001011001001001
0000010011010111
0000011010110011
1111110111000101
1111110100111101
1111110000000001
0000011100100100
0000000100000011
1111110000011000
1111110001111011
1111101101001100
0000001000101000
1111111100010011
1111110101111100
1111110010101011
1111110000000111
0000001101111011
0000001100110111
0000000101101110
1111111001001100
1111110010001000
1111101101101110
1111101010001111
1111101010111110
1111110101001101
0000000000101101
0000000110010001
0000111111110110
0001101001011010
0000100110100100
0000000001101111
1111111111101001
1111100101110110
1111001111010111
0000010101000000
1111111001010001
1111100111100111
1111110110011010
1111110010100110
1111110011110111
1111111010000100
1111101010111000
1111111101111111
0000001010010010
0000010111001110
0000100100111100
0000010011010100
1111110111111000
1111111101011110
1111111101100101
1111111001011010
1111110011001001
1111011101110011
1111000111101001
1111100101110011
1111101101001000
0001000010100010
0000010100100000
0000001101100010
0000000101010011
1111010111110101
1110111000010111
1111110100000101
1111111101000001
1111101001100110
1111110100110010
0000000100111011
1111111101111100
1111111100110100
0000001111000101
0000001001011010
0000001100100011
0000010100011100
0000101110101001
0000001001101111
1111111100110010
0000000001110110
1111111011011000
1111110010001111
1111101110100100
1111011000101000
1110110111101010
1110110001101010
1110110001101011
1111110111010011
0000000111101010
0000001110110101
0000001101001010
1111011111001101
1111001110101011
1111111000110000
1111111101101000
0000001001010100
0000010000001101
0000001110001000
0000001110100010
0000000010111011
1111111110010011
1111111100101000
0000010000110011
0000011101100111
0000100100001100
0000001011101101
0000000111100111
1111111111101010
0000001000100000
1111111111100110
1111101010111100
1111100111111101
1111010111001101
1111001011110001
1110100110100100
1111011100110111
1111101110101101
1111110001100100
0000010100000001
0000000010100101
1111110100111110
1111100100101101
1111111001110010
1111011110010000
1111111001011101
1111111000001100
0000001111101010
0000001110110010
0000001111011100
1111111001110111
0000000101101001
0000010100100111
0000011000101011
0000000010111010
1111110100000001
1111110111111100
1111111110111100
1111110001101001
1111111011011100
1111110111110111
0000000001010000
1111101001100011
1111010011001110
1111011111000010
1111101111111101
1111101110001011
0000010010100000
0000010110011001
0000010010001110
1111111011100010
1111001011000010
1110111100011011
1111000000001011
1110111110001101
1111110011110100
0000001010100100
0000010101000110
0000011111010101
0000011110011100
0000100001101100
0000001101110011
1111111000011101
1111110111010011
1111110000110101
1111110101111100
1111111000011111
0000000000111101
0000010010100000
0000010010010001
0000010000000111
1111101000000011
1111000111111000
1111110101110010
1111100110011000
1111101011100110
0000100010010110
0000011011010111
1111110101010001
1111011011101011
1111010100010001
1110111010011000
1110101000110001
1110100110000110
1111000011001101
1111101011101001
0000010100011111
0000001100101101
0000001101111010
0000000011001101
1111100101110110
1111101011011011
1111110010011010
0000000111011100
0000010001000001
0000000110011110
0000000000011010
0000011111110110
0000011000011011
0000000100111100
1110101110001000
1111110001101111
1111101011111111
1111111100101111
0000100000101101
1111110110001100
0000001000111110
1111111011011101
1111110000010101
1111101110011110
1110111111110011
1110011000100000
1101011001001100
1101110000110011
1110001100001001
1110111000001010
1111010100011111
1111011011110110
1111101001100100
1111111001110111
1111111110100111
1111110010010011
0000001001001010
0000000001110101
0000001101101111
0000011001100001
0000000110111101
1111011110001111
1110100010110000
1111101110010011
1111111000111111
1111101010011100
0000100111100111
0000001010011011
0000110111011000
0000001101011101
1111111110000001
0000001000101110
1111111111111010
1111100101000011
1110100101001011
1110011100000111
1110011110000111
1110110001101011
1111010001001100
1111110111100101
1111110010101001
1111111100101010
1111111101101000
0000001010001001
0000001100010111
0000001010101000
0000010101000011
0000010001101101
1111101011011111
1111011000001010
1111011100010101
1111101100111101
0000011000101100
0000010111100110
1111111010010100
1111110111111111
0000111000110110
0000010011000011
0000000000110100
0000011100000001
0000001100110110
0000010000011101
0000011011011110
1111111110110011
1111110101001001
1111101010010011
1111110110110010
1111111000101010
1111111111001000
0000000011011101
0000000010111000
0000000001011101
0000000100010010
1111111101011110
0000001011111100
0000001110011000
1111110111010110
1111100001110101
0000000011001010
1111111011101011
0000011101101001
0000000111101001
0000010011001010
1111101001001111
0000011001010111
0000010001000101
0000000010111000
0000001001101001
0000000111010110
0000101000000000
0000011100111111
0000010110110111
0000010100001111
1111111011101001
0000000000001010
1111111100000100
1111111101010101
0000000100000111
0000000011011111
0000010000101001
1111111001000111
1111111011000000
0000000011001010
1111111011000011
1111110010010110
1111100110101000
1111100000110110
0000000111100111
0000011111000010
0000001011111110
0000011101110011
1111111111101001
0000001100100010
0000010111000101
1111111001110100
0000010110011111
0000000110010110
0000010010111101
1111111111000101
0000010001010001
0000010000001001
1111111011010111
0000000100100101
0000000010101101
1111111101110101
1111110111000101
0000000100000100
1111111111010011
1111110111010101
0000001000000110
0000000000110001
1111100110100110
1111100110011111
1111100010111000
1111100001000100
0000001101110110
0000001010000011
0000011001000001
0000010101011110
1111111101011000
0000001001001101
0000001000000110
0000001110111000
1111111110011110
1111111000001001
1111111010101010
0000000011111100
0000000101011011
1111111101111001
1111111101100001
1111110010010100
1111111111100100
0000000100001010
0000000101000111
1111111110101110
1111111001111101
0000001110010010
0000010001011110
1111110010110000
1111111101101101
1111110100001101
1111100011111011
0000000000000001
0000011010100001
1111111000101100
1111111101011111
1111111110111011
0000101100011111
0000111000111110
0000111001101110
0000011111111110
0000001000010100
0000000110100100
0000000100111111
0000001001001100
0000010111110011
0000010010101000
0000001011001110
0000001000010011
1111111001101100
0000000100001001
0000000100111000
0000000101101101
0000000111011111
0000000100111101
1111111001011010
1111110111010111
1111101000010011
1111010000110010
0000000000000000
0000001010100001
0000100001010011
1111110110111100
0000001010010001
1111110111001011
1111111111000101
0000101000100001
0000100110100100
0000011011011010
0000100111100111
0000011100010011
0000001001100011
0000010010100000
0000011011100000
0000000001100011
0000001001011011
1111111001110000
1111111100000000
1111111000101001
1111111100010010
0000000010101101
1111101000110111
1111100110101111
1111100000010011
0000000111000101
1111111010000010
1111011011011100
1111101110001000
0000010010111011
0000011010111011
0000001000101111
1111110111100000
1111110100111101
0000001110001000
1111111111101011
1111101101110110
0000000011000111
0000010000101100
0000100010011110
0000100010100101
0000001110101111
0000001010010100
0000010010011111
0000011100000000
0000010100110101
0000001000001010
1111110100101110
0000000010010000
1111111000001000
0000000010100101
0000000000111110
0000000111110110
0000001111010000
0000000110110101
1111101001001000
1111101111010001
0000000110101101
0000000000000110
0000000010101001
0000001000000111
1111111100010110
1111111010000010
0000001011010010
0000001101001011
0000010011111000
0000000010111101
0000001110011000
1111101100101010
0000000101000110
0000010001100110
0000000110100011
0000000010111110
0000000011101010
0000000000011111
0000000110110001
0000001000111111
0000000100011000
0000011111000011
0000001000100011
0000100111110100
0000010000110100
0000001101010111
1111111001101111
1111110101110000
1111111000010100
1111110110100101
0000000010001001
1111111101010010
0000000111101000
1111111010101101
0000000000000100
1111111100011010
1111111010111111
1111110000101100
1111101000110100
1111110110101100
0000000001101111
0000001001101010
0000000011001011
1111101111011110
1111110010100011
0000001010001011
0000001011101000
1111100010100100
1111010101111010
1111011100000011
1111101010000110
1111100101101101
1111101001011110
1111101001101101
1111111110101001
0000000011001100
0000000100001000
0000000111111101
0000000010011110
