0000000101111110
1111111100101011
0000001000010010
0000000011000110
0000000010101100
0000000011011000
1111111111100010
1111110100111101
1111110111100010
0000000010101100
0000001001011100
0000000001011010
0000000011111000
0000000011011110
0000000100100110
1111111110011110
0000000111010010
1111111101001111
0000000001110000
1111111111000000
0000000000000010
1111111101100010
1111111110001110
1111111110011000
1111111011011010
0000000100111001
1111111011010101
0000000000111000
1111110110001101
0000000011001001
1111111101110101
1111110110011001
1111111111000110
0000000101011000
0000000011100100
0000010010000110
1111111001110000
0000000001011000
1111111111100000
0000001011010000
0000001011100101
0000010101110101
0000011110000111
0000011101010001
0000010101011101
0000011101111111
0000101000011000
0000011110010100
0000010010000000
0000011001011000
0000010101011001
0000000101111000
1111110110011101
1111111110000010
1111111110110111
0000000011011001
1111110111100110
0000000000000111
0000001011111110
0000010000100111
0000011000110101
1111111000000000
0000011011101011
0000001001010000
1111111000000010
1111111101110011
0000000000111100
1111111001000011
1111101011101110
0000001100111001
0000010010101110
0000100001001101
0001001111111000
0001000110101101
0001000010111010
0000111000010001
0000101011000100
0000111101111010
0000101000010000
0000010100100111
1111110010100001
1111111001100101
0000000010111000
1111111001111100
0000001000110101
0000000001000011
1111111111101101
0000010010011100
0000001001111111
1111100110110110
1111011000100011
1111011100100001
1111001111101011
1111010001101010
1111100000010110
1111011011001101
1111100101010010
1111110110100001
0000000010100111
0000000100101111
0000001001010100
1111111110100100
0000011000100110
0000001011110101
1111111111100000
0000001001000001
0000001000011101
0000100100000001
0000011000110100
1111111110001011
0000001111111110
0000001001111001
1111111001001010
0000000000100110
1111101010111100
1111101011101000
1111001111111011
1111000111010001
1111011000011111
1111100000010011
1111010011101110
1111010001011001
1111100100100101
1111111001010001
1111110010001010
1111110010100011
1111111101111001
0000001111011110
0000001110001111
0000001100000001
0000000101000101
1111111100010110
1111110010111110
0000001000011010
1111110110111111
1111110100110000
0000001100010001
0000010110110010
0000011001010000
0000010110000110
1111110110101001
1111111100100000
1111101100111011
1111100111110011
1111000010101111
1110110111110000
1111010000110111
1111100010010011
1111110001001010
1111110010011110
1111111010000100
1111110101011101
1111111010010110
1111111110000100
0000000001110100
1111110111100101
0000000010000111
0000011101100011
0000001100000001
0000000111010110
0000010011000000
0000001101101000
1111110001001000
1111110000110010
1111110000111011
0000011000100011
0000101110011100
0000001111100010
1111111110111011
0000000011000110
1111111100101000
1111000101101110
1111100000011111
1111011101100001
1111100101111111
1111110001001111
1111111101001000
1111110000001011
1111101111110101
1111111001101110
1111111110011000
0000000010111000
0000001000001110
0000000100111101
0000000001010001
0000001111001010
0000000011110000
0000000100001010
0000000101111110
1111111111001001
0000001010010010
0000001010001100
0000000000101110
0000011100010010
0000001010000001
0000010111010110
0000000000100000
1111101111111100
0000000000000110
1111010111110110
1110100111110001
1111101000011101
1111110111101011
1111111001111100
0000000101101001
0000000110011100
0000000110001011
0000000110001001
0000000010100110
1111110011111100
1111111101010010
1111111100011101
0000010001000010
1111111101011110
0000001100011011
0000000000101000
0000000100110111
0000010000011010
0000010001111011
0000011010011111
0000101010101000
0000100000000110
1111110011111011
0000100010110101
0000000110011101
1111111011011011
0000000011000011
1111011000001000
1110101100110010
1111011000010011
1111110101111001
1111111010101100
0000010001011100
0000010100111111
0000001111111000
0000000110100110
0000001000110101
1111111101000010
1111110101110100
1111111000000000
0000001000100111
0000001011010100
1111111110110011
0000000110101100
0000001010010100
0000001011111110
0000001011101000
0000100111100110
0000111011000000
0000100111011010
0000011010100101
0000100000101111
1111111001011011
1111110010111010
1111110010001101
1111100000001101
1111001111011000
1111101001001010
1111111110011000
0000000000001001
0000001101000110
0000011001110001
0000001110111010
0000011000100110
0000001111100100
0000000001111110
1111110101010100
1111001101000111
1111100001001011
1111111001011110
1111110001000110
1111111101000011
1111111001010011
0000001110010010
1111111100110010
0000110111100001
0001101111111011
0001001001010011
0000101111101010
0000000110100011
1111111000101000
1111101111100010
0000000011111101
1111011001010010
1111101100110001
1111111001011011
0000000011011100
0000001010001000
0000100000101011
0000101100001010
0000101011100010
0000101011010101
0000101111011100
0000011000011011
1111110110110110
1111001101001111
1111011100101111
1111101101010100
1111110001000101
1111101110111101
1111111110011000
1111111000100010
0000000010010000
0000101111110011
0001100111010101
0001001111001011
0001001010001011
0000000100110011
1111111101110110
1111101101101010
1111101111010000
1111001001000001
1111010101100010
1111111110100100
0000011111011101
0000100011011011
0000010010110011
0000001111011001
0000010101000010
0000010011001000
0000010100011101
0000111000000001
1111111111101000
1111001010011101
1111001101100100
1111010111100101
1111101100011010
1111100110100101
1111100010010110
1111101000111011
1111101011111101
0000010001100100
0001100010010101
0001000010101111
0001010000111011
1111110111001011
1111111111011001
0000000111111001
1111101110110011
1111111001010101
1111011101000101
0000000100110011
0000011011001101
0000010101010001
0000001000010010
0000000101000010
1111111110100000
0000010000111000
0000011000001110
0000100100011101
1111110101001010
1111101000000001
1111011100001001
1111101100110101
1111101101111010
1111101000111110
1111110001010110
1111101101000101
1111101100110100
0000010110011100
0000101110110101
0000010010110011
0000010000010000
1111101111011000
1111111101100011
0000000110010001
1111111001011111
0000000100110010
1111100100000101
0000001001110100
1111111110110000
0000000010000000
1111111010011111
0000001011111011
0000001011010111
0000010111110011
0000011010011001
0000001101010010
1111110000111011
1111101100010011
1111101000110111
1111011001000111
1111110010011011
1111110000110110
1111110001001000
1111110111101111
0000010011111010
0000100111101001
0000110101110101
1111110111000110
1111110011011100
1111110101000101
0000010111101110
1111110110010110
1111101000010110
1111011001001100
1111101011010110
1111110111101011
1111100101110101
1111110001111000
1111110011100100
0000000000010000
0000001011010101
0000001111011110
0000001100000010
0000000011011000
1111111011101010
1111111001110011
1111101001010101
1111011100011111
1111100100010101
1111010100011111
1111101100000110
1111110111010000
0000000110100010
0000011100010111
0000101110100101
1111110010100000
1111011001110110
1111110011001110
0000011100111001
1111110111101010
1111101101111110
1111100001110110
1111101001101100
1111110100001100
1111100111011010
1111110110001010
1111111011001011
0000001011011010
0000001110000000
1111111010111011
0000001100111100
0000001100010001
1111110100011010
1111110010110001
1111100100110101
1111011100100000
1111110000011011
1111100010000000
1111110010001011
0000001110100101
1111111001100000
0000000100101001
0000110000110101
1111111010001110
1111000110111001
1111101101100010
1111100101011111
1111110100001011
1111100011010011
1111101110010001
1111010110101100
1111111101010001
1111101111000011
1111110000111111
1111111101011110
1111111110001100
0000001000010011
0000000100101010
0000011010001000
0000000001101100
1111101100110010
1111110101000011
1111011011010000
1111011101011110
1111100101101100
1111111011101101
0000000000111111
0000000010101111
1111111110101110
0000010010010011
0000000001011000
1111111000110010
1110111100000110
1111100101100010
0000000000100000
1111110100001100
1111010110000000
1111100110101110
1111110110111010
0000001110001100
0000010011010110
1111111000010011
1111110111001000
0000001000011110
0000001010100011
0000001111001101
0000001011111011
1111101110100110
1111100001111011
1111100011111100
1111111100110010
1111111001011111
1111111011011010
0000000000000010
0000001010100100
0000000011001010
1111110010001110
1111110111110101
1111111110101100
1111001111011010
1111001000011011
1111100101010101
1111110110110011
1111100001100101
1111011011111100
1111001001100001
1111110110010010
0000000110000101
0000011111100011
0000001100111111
0000001101101111
0000000111010110
0000000101111101
0000001101101010
0000001001101001
1111100101111101
1111100101001001
1111111100010001
1111111111011100
1111111001010000
1111110100111010
1111111011111011
1111110111110000
1111110111110011
0000000010010011
1111111011010001
0000000110001101
1111001111101010
1111010011011000
1111101111111100
1111111101011111
1111111110111101
1111101111001101
1111000110110100
0000000001100010
0000000110001111
0000001010101110
0000010101110100
0000010110110100
0000011010111111
0000011100001111
0000100000110000
0000010110101010
1111110111111010
1111110110001100
0000000001100000
0000000000001110
0000000101001110
0000000100110000
1111110011011111
0000000011110011
1111110110011011
0000001110101010
0000001011011010
1111110000010101
1111000010011100
1111100000110010
1111110001011011
1111111101010000
1111111100111011
1111110111100111
1111011101100011
1111111010010000
0000010110010111
1111111111010000
0000001001001101
0000001111010011
0000010110000111
0000011011101111
0000100010011110
0000101010100101
0000001101100001
1111111000011011
0000000111110010
1111110000101000
1111110101101111
1111110111011010
1111110101011010
1111101011011101
0000001010101100
0000011110100101
0000001000100011
1111010111110110
1111010010101010
1111100010000010
0000010111111001
1111111100010001
1111110000011110
1111101111010110
1111111010000111
0000000000001101
1111111010110001
0000000111100011
0000001011110011
0000001001101101
0000001110111001
0000001010000011
0000010011110011
0000100001010001
0000001110011000
0000001100001101
1111111010100101
1111110001101010
0000000001001101
1111110010011101
1111111010001000
0000000000101011
0000001111101010
0000011100100110
1111111111000100
1111010011111111
1111101000101010
0000001011101000
0000010001000010
0000000010100010
1111111010100101
1111110110110010
0000000110011100
0000000000101001
1111111000001001
1111111101101010
0000001101110111
0000000010001110
0000000100000000
1111111101110101
0000001000010101
0000011001111011
0000100110110011
0000010000010011
0000010000001101
0000001000110101
1111111111110111
1111111101111000
1111111111001000
1111110111111010
1111111110110010
0000001000001100
1111110100100011
1111101100010101
1111111000000000
1111111110010011
0000000100110111
1111111001100111
1111111101101110
1111111100110010
0000000101011011
1111110010010101
1111111101111101
1111110101010011
1111110010101110
0000001100001010
1111111110010111
0000001110110101
0000001110011100
0000011000110011
0000011111110011
0000011110010110
0000011001101000
0000001111101011
0000001010101111
0000000100101111
1111111101011100
0000000100001010
1111111101100100
1111111101101100
0000001100001111
1111110111010110
1111111010011010
1111110100110101
1111111101111100
1111111000110010
0000000000110001
1111110111101010
0000001111110101
1111011010011110
1111010110101010
1111101101100101
1111101110111011
1111111011111010
0000001111001111
1111111110000101
0000000101010100
0000001110101111
0000001011011000
0000010001011110
0000011100111011
0000011100111110
0000001010011101
0000011110111101
0000100000000111
1111111011111111
1111100001100000
1111100101111010
1111111111100000
0000001101100001
1111100110110011
1111101110110101
0000000110010101
0000001001000101
1111110101111011
1111111000111000
0000010001100100
1111110001111111
1111010100000000
1111011001100110
1111100111000101
1111011100011000
1111100111100100
0000000000110011
1111110000001110
1111110100011001
1111111110110001
0000000101011001
0000010110000000
0000100010011011
0000100011111011
0000100111110100
0000100001101101
0000000010100000
1111110000100111
0000010110111111
0000001000111000
0000001100010110
0000000010101100
1111111011000000
1111110101011111
0000000111101110
0000000111100111
1111111001010100
0000000111101000
1111111111101010
1111010011001010
1111000110000100
1110111101001111
1111000011100111
1111000110101100
1111010000101001
1111111100101100
1111111100001111
1111110101001110
1111011000101111
1111100100101000
1111101110001011
1111110000100010
1111111100100011
0000000110111100
0000001001011010
0000000000100101
1111111111001110
0000011000011010
0000000000011110
1111111101010011
1111111000011000
0000001000101011
0000000110001001
0000000000011001
0000001001010101
0000000101001101
0000000101000000
1111110000111000
1111101011110001
1111100100010111
1111101110111000
1111100101100010
0000000001000101
1111111000111001
1111101111000111
1111101110101011
1111001000011111
1111010011101110
1111010111011110
1111010011001011
1111100011100000
1111100010110001
1111101110100111
1111100100111101
1111100110000001
0000000011100011
1111110111110001
1111111111111100
1111111011001111
1111111000111010
