1111111000111001
1111111011011010
1111110111011011
1111111111110111
0000001010000100
0000001001111111
0000000111011100
0000000001000001
0000001010001110
0000000011110010
1111111000010010
1111110110010010
1111111110110111
1111111110110111
1111111101101111
0000000011111111
1111111110110001
0000000111011111
1111111011000010
1111111011100000
1111110101110001
0000001010001101
1111111111111111
1111111101111011
1111111011011010
0000000100111001
1111111100111000
1111111000111001
1111110110111101
0000000000100100
0000000001110000
1111110111011010
1111111010110100
1111111000100110
1111111101110110
0000000111000000
1111111000100101
1111111001100100
1111110101001111
1111110000101100
1111100111101111
1111110001110111
0000000100000000
0000001011110010
1111111001100100
0000000000110111
0000000000000100
0000000001001001
1111111001011011
0000000000001010
0000000001101011
1111111110110010
0000001000111111
0000000011010100
1111110111000001
0000000011111011
1111111000000010
1111111010001111
0000000000001111
0000001001110011
0000000111101100
1111111100100101
1111111000111101
0000010101100010
0000000010101100
1111111001111001
0000001000010011
1111111000110110
1111100111110011
0000000110111111
1111111111111110
0000000011001110
1111111111001000
1111110000000110
1111111110100101
1111110011011110
1111011111000010
1111110101110111
1111111010111110
1111110101101001
1111110010100001
0000000001100101
1111110110100110
1111110100111001
1111110111001100
1111111001011000
0000011010110110
0000000101111010
0000001000000011
0000000000110000
1111111010100110
1111110111000010
1111011101011011
1111100001000010
1111001110101011
1110111010111100
1111001010111001
1111010111110101
1111100001110000
1111100100011000
1111110011111100
1111110100011001
1111110101110010
1111100100011011
1111001100111101
1111001000001101
1111100001010010
0000000001111001
0000000010110110
1111111111110001
0000001001001001
0000001000111011
0000000011001011
1111110111011000
0000010010011111
0000100001011010
0000001101000011
1111101110010010
1111111101000111
1111011011011111
1111001000000010
1110110111010000
1110100000100101
1111011001101000
0000010010001010
0000010010011111
0000000110011100
0000001010110000
0000010111010011
0000000011011111
0000001101101010
0000011011101111
0000011000110111
0000011110111010
0000010010010110
0000000010000010
1111111010111110
0000000011100011
0000001010011111
1111110110001011
1111111101001110
1111111111011100
0000001100111110
0000011001001110
1111100110000001
1111101111100110
1111110101011101
1111101110110111
1111101001011111
1111100100001010
1111001000110100
1111011001100100
1111011111110110
1111010000011001
1111000011100010
1111000111111001
1110111111111010
1110111001110111
1111101001111011
1111110000101101
0000000100000100
0000001010000000
1111110101000000
1111100000110001
1111110011111001
0000000001001000
0000000010001000
0000010000000001
1111111001110111
1111100100000101
1111110101100111
0000010101111100
0000000110100000
0000001001111011
0000000011000111
0000000011001010
1111111001110010
1111111001010110
1111110010011011
1111111111111110
1111110100000000
0000001110000010
0000010000101110
0000001110110001
0000000111000011
0000001101011010
0000001001101011
1111111100110000
1111111000011000
0000000011101100
1111110000100011
1111001100111010
1111011110100011
1111110010011101
0000000110001010
0000000110001110
0000001000111111
1111101000111100
0000010111110000
0000100000010101
1111111010111000
0000000001000111
0000000111011010
0000000011000010
1111110101011100
0000000011010011
1111111110101110
0000000010100100
0000010110101001
0000011011000111
0000100111000100
0000001101110111
0000011110000111
0000011011011111
0000010110111010
0000010110101111
0000010001111010
0000001011100011
0000000111001111
1111101111111000
1111010110011010
1111100011011001
1111101010100100
1111101110101011
1111101111110011
0000010001101101
0000001110011000
0000010001010110
0000000101001010
1111110100011000
0000001010100000
0000010011100011
0000000101011001
0000000000011001
1111111000110011
0000000010110010
0000001111111011
0000001011000111
0000011011100010
0000010010100000
0000010011101101
0000011000111000
0000001110111000
1111111011011001
0000000000100101
1111111001010101
0000000111111100
1111111110111111
1111100111111010
1111011000111001
0000000100110001
1111111010100010
0000011010100100
0000110000101000
0000001010010111
0000001001100000
0000001011010010
0000000100101110
0000000101000000
0000001000001000
1111111110110111
0000001100111111
0000000111011011
1111111111010011
0000001111101001
0000010001111001
0000100011001011
0000100000010101
0000011000010001
0000011010111110
0000001000111010
0000000010000000
1111110001000111
0000000010000000
1111111010111000
1111110101000011
1111111001110101
1111110010101010
0000001001001001
0000001111110010
0000011011111000
0001000100001111
0000011001110011
0000001110000110
0000000001100110
0000000101111010
0000010001111010
0000000110111100
0000001010011001
0000001000000001
0000000111000000
0000001111000111
0000000011100010
0000011110100100
0000110110110110
0000111010111100
0000100100001010
0000001101000011
0000010010001100
0000001110110111
0000010000010100
0000001010110101
0000011011100111
0000000010001010
0000001000011111
0000001010111010
1111110100011010
0000000010011000
0000011100101100
0000100010110110
0000111001011010
0000010001000001
0000011001101110
0000001010011001
0000001111111000
0000010101000100
0000010000110011
0000010010000101
0000010001001010
0000010101101000
0000001100011011
0000101100011000
0001000101101000
0000101010000011
0000010111010101
0000011001100100
0000010111100011
0000010011101001
0000010011000011
0000011011100110
0000010111110000
1111111100011100
1111110111000000
1111100110100000
1111101101011100
0000011110011000
0000100000110111
0000100111110111
0000110100011010
0000100100101010
0000011100010010
0000010000101110
0000011001000010
0000100100111110
0000011100001101
0000001101010111
1111111011101010
1111111000010001
1111001001100111
1111100100000000
0000100001101010
0000010010110001
0000000011000000
0000010101111100
0000011000101010
0000000111111100
1111111101011111
0000000101011111
0000010110000110
0000000011110010
1111001110100111
1111011010011010
0000000001101111
0000011101011111
0000010100000001
0000001111110100
0000101100101100
0000011010010011
0000100111101010
0000010101101010
0000010010011000
0000000110111110
1111111010010100
1111111000001110
1111101001110010
1111001010000101
1110111100110001
1111100111101000
0000001001111000
0000001010011010
0000000000100000
0000000001010110
0000000110010110
0000000111011011
0000000111111000
0000001110010100
0000001010100010
1111011001111101
1111100110011100
1111101001011110
1111011111011100
1111111100011000
1111110011110101
0000001011001100
0000101111110101
0000000010001011
0000010011001100
0000000100010110
1111111011101011
1111110000101110
1111101101110100
1111101001101001
1111100100010100
1111000110011011
1111000101110110
1111110111001010
0000010010010111
0000000110101000
1111110101110011
0000000011010010
0000000001110110
0000001010111100
0000000101000001
0000000110000111
1111111110101110
1111111000011101
1111100110010111
1111111010011010
1111111011101111
1111111011001011
1111111111011011
1111111011111100
1111101100100111
1111111011101001
1111101100000110
1111100100001111
1111110110111011
1111110101001110
1111100001001111
1111101011011100
1111100010100000
1111101001100011
1111101001000101
1111110011101001
1111111110010111
1111111100110110
1111110010100100
0000001001011010
0000001110001110
0000000011010110
0000000011100000
0000000110001100
1111110111000111
1111101100110101
1111011100100000
1111010110101100
1111101001000010
1111111010010010
0000010110101001
1111111110111101
1111110100001011
1111100011010110
1111100110001011
1111101100110100
1111110101001101
1111110010001001
1111110101110100
1111100111010001
1111110011101100
1111101110001111
1111100101011111
1111111000101100
1111111100111110
1111110110010101
1111110100111001
0000001000101110
1111110011110000
1111111010000011
0000000101001010
1111111011111110
1111101101100111
1111101001110100
1111010000100100
1111000100101000
1111001110011110
0000001001010001
1111111010000011
0000001111001011
1111111101001111
1111011000000100
1111100001100000
1111100111100110
1111011101111100
1111111100010010
1111111011001101
1111110111010011
1111111110111000
1111111011111001
1111111100011111
0000000011000011
1111111011000000
1111110100000011
1111110100010111
1111111110100101
1111111010000111
1111110111111000
1111111111001001
1111110001110011
1111111001001111
1111010010001100
1111000101001111
1111100001110001
1111101000110111
0000000100010011
0000010101001100
0000001011000111
0000010011001000
1111010001011100
1111100001000100
1111100001110011
1111100001111101
1111100110111010
1111100001010111
1111110110010000
1111111110011111
1111111001110111
1111101111100000
0000001100100010
0000001000001011
1111101110111100
1111101001011000
1111111000001110
1111111101100101
1111111000010101
1111111100001001
1111101001000011
1111011001111111
1110110101111001
1110011101010101
1111001111111001
1111111100000111
0000010110111000
0000001100000010
0000010011100101
0000000111010111
1111001011110010
1111110010011110
1111011011110100
1111010001100010
1111001001010111
1111100110011101
1111100111100101
1111110010110100
1111110001111000
0000000100100010
0000001011000110
1111111100111001
1111110101010101
1111101110011110
1111101010010100
1111101100001010
1111111011100011
1111110110111101
1111011101011101
1111000001111111
1110110101000100
1111010110010101
1111101001011110
1111101111001000
0000001010110111
1111111001011000
1111110111111100
1111100011101101
1111000101101010
1110110110010111
1110110100100000
1110011111110111
1110110011111101
1111100001011000
1111101001100010
1111110110001110
1111111110111010
0000001001100110
0000000101100010
0000000000001100
1111101010000010
1111110101100000
1111101010110111
1111010110100001
1111101001010110
1111011101001100
1111000110111111
1111001101001001
1111010111110110
1111101000001010
0000011000011000
1111111010110111
0000001110000001
0000000111000010
1111110101101010
1111100111010011
1110111011001100
1111000000110000
1110110001100100
1111001100101110
1111100001011101
1111101100000000
1111101100100010
1111110110100100
1111101110110111
1111110110000001
1111111101011111
1111111010010110
1111110011011010
1111101100001110
1111101000000101
1111010011101001
1111011101111101
1111100001000011
1111100111001100
1111001101010100
1111010110000011
1111111110110111
0000100100011101
1111100101001111
1111111111100001
0000001010111100
0000000000001000
1111011011011000
1110110111001001
1111010000001101
1111100110111101
1111101011100101
1111111111001110
0000010001000000
0000000100011100
1111110111001010
1111101010011001
1111110000011110
1111101101000100
0000000010100111
0000000000100010
1111111001001111
1111110010011100
1111100100100001
1111011110110101
1111011110011101
1111100111011000
1111100110110010
1111111010110000
0000000011010011
0000000000010100
1111111100010001
0000000101101010
0000000011001011
0000000110101011
1111010100010001
1111001110011100
1111110000000001
1111111110101000
0000001000110100
0000010011000110
0000000010101001
1111111011010011
1111110110100101
1111100101001011
1111110101011001
1111100100100000
1111110000111000
1111111000110011
1111110011011110
1111110011000100
1111100010001011
1111011101100000
1111010111110001
1111110110010110
0000010011010001
0000000011110011
1111110111101110
1111011011010001
0000001111101101
1111111100101011
1111111011110001
1111110110010001
1111110110011000
1111110111101111
0000001010000010
0000101101000100
0000001001010111
1111111010101110
1111101001110000
1111011101010111
1111100100111101
1111100111100000
1111100001011111
1111101001010001
1111011110000010
1111101010010000
1111011101011000
1111101110111101
1111110100010000
1111111011111110
1111110100111011
1111111011011011
0000000011100000
0000000110000010
1111110101000001
1111110101110001
0000001010000011
1111111001111010
0000001001000100
1111111000100111
1111100111010000
0000011000000101
0000000110110111
0000001111000110
1111110111100000
1111101101101100
0000001000011001
1111111101010111
1111101111001000
1111111111000101
0000011000110101
1111111111100101
0000001010001100
0000000101010101
0000010001110101
0000011110101000
0000011110011100
0000101101000011
0000011111111101
0000100101111101
0000010011111010
0000010110111100
0000100001110000
0000011010110100
0000000100010110
0000001000000110
0000000000101011
0000000000100001
0000000001110101
0000000011010110
1111111111000001
1111111100110001
0000010000100000
0000110100100001
0000111001100010
0001000111101110
0000110100001100
0000100100110011
0000010101100011
0000100111001100
0000111001100101
0000101100110111
0000100111011100
0000101000110011
0000100100001110
0000101010110110
0000000110000110
0000011001001010
0000101111111001
0000000101000110
1111101010010001
0000010010101001
1111111111111011
0000000011011100
0000000110011010
1111111110001110
0000001000000111
1111111010111110
0000010010111011
0000011001001000
0000011000001111
0000010100111000
0000101001110101
0000101110011000
0000100110000110
0000011000101101
0000011100010111
0001011010010011
0001010100101111
0001010001000000
0001000011100010
0001010001100110
0001011000000101
0000111000101011
0000010010111110
0000011101000111
0000100000011101
0000100000000010
0000000010000001
0000000001011111
1111111111001101
1111110101011101
