0000000001000001
0000000011000010
1111110110000000
1111110101101110
0000000001000000
0000000100010000
1111110111100100
1111111100000011
0000000110011100
0000001001101011
1111110101101100
0000000101101111
1111111111110010
1111110100000001
1111111011111110
1111111110110110
1111111101011000
0000001000100001
1111110110100011
0000000001000000
0000001010011110
1111110101100000
0000000000110110
1111111000011001
1111111000111000
0000000010001101
0000000011000100
1111111001011010
1111111100110111
1111111110010110
1111110101101001
1111110101100101
0000000000110111
0000000110110111
1111110000001001
1111110011111001
1111111100111100
1111110101000001
1111111000100111
1111101101000111
1111100100101011
1111100100101100
1111011011110100
1111010001000111
1111010010100001
1111010101100010
1111110100011110
1111101010111001
1111100111110110
1111100000111010
1111100100000111
1111100111111001
0000000110110000
1111111011110000
1111111101010100
1111111011111011
0000000011010111
0000000101010011
1111111100100011
1111111000101100
1111110101000101
0000000111010100
1111110101001011
1111101111000010
1111011101111101
1111000110110001
1111001011100100
1111000100010101
1110110100000111
1110101101110101
1110101010011010
1110100100111010
1110100010110011
1110111111001000
1111000000011100
1111000101101111
1111010101111110
1110111110110011
1111001101001011
1111010111000001
1111100001011101
1111100101010001
1111111101010000
1111111000110110
0000000111001101
0000000101111101
0000000000001110
1111100011100001
1111100110010100
1111110000101100
1111100100000101
1111000110010010
1111000001010111
1110101011111101
1110100010101100
1110010111010011
1101111011101101
1101110000001110
1101101110001100
1110000101000000
1110010010001011
1110111111100001
1111010100101100
1111011010001011
1111001111001110
1111100010110100
1111111101111010
0000000110010100
1111101000101001
1111101111101111
1111101001110000
1111110110011001
1111111100000101
1111111111100000
0000100001000001
1111100100001010
0000001001000101
1111111100101110
1111110000010101
1111011010011000
1111100010010010
1111110110010110
1111100110110110
1111101000110101
0000000011111000
1111111010011100
1111111101010001
1111110011111000
1111111101111100
0000000011001000
1111110101011001
1111111110011111
0000010000111110
0000000011010100
0000001111001110
0000000010001111
1111111000000110
1111011100011101
1111101101111011
1111111100101111
1111111001000011
0000001000000001
0000001111110110
0000000001011110
1111111010110000
0000000011110010
0000000110010101
1111111100110000
1111101000101100
1111110001011101
1111100100000110
0000000101011010
0000011001000110
1111111100010110
0000000100110111
0000000011110100
1111101101101101
0000000010000010
1111101011111101
1111110100100000
1111111010010000
1111101110010101
1111110101101011
1111110010001010
1111110001001000
1111110110001001
1111100101111101
1111111010110001
0000001000100110
1111101010001111
1111101010010011
1111100100011000
0000001111111100
0000000011000000
1111110011000111
0000000010101000
1111110111011111
1111101011110011
1111110100101010
1111111001001010
1111111101101110
1111111001001110
1111111010000111
0000000110001010
1111111100001110
0000000010000000
1111110101000110
1111110111000000
1111110110011100
1111111100001111
1111111111111001
0000000011100100
1111101001111001
1111111100000110
1111111000101001
1111111001111100
0000001011100001
1111100110100000
0000000000110010
0000001001100100
0000010100111000
0000001111101110
1111100101110000
1111110000010110
1111110010001000
1111110010011010
1111110010101011
1111111000100011
1111110100010010
0000000000010100
1111110101011010
0000001101010011
0000000100000100
0000000000000101
1111111011001101
1111110111011101
0000000010001010
0000000010001000
0000000101000001
1111111100010011
1111101100101100
1111011011001101
1111110011001000
1111111101110000
1111110101101011
1111010000010011
1111111010010011
1111111100010011
0000011000000110
0000001011110100
0000000110011011
0000000010000010
0000001001010001
0000001000110101
1111111100001110
1111110111011010
0000001000101000
0000000110111100
1111111111000110
1111110010100110
1111111110011101
1111110110100110
0000000101011111
1111110110100001
1111111001111100
0000000010011010
1111111010101100
1111101111000011
1111110001000110
1111100111010000
1111110011111010
0000001111011000
1111111111111101
1111100001101000
1111101101110010
1111101000011100
1111110101001010
1111111000110111
0000001010011011
0000001101110001
0000001000101010
0000001000011000
1111111110001101
1111110110100010
0000000100110001
1111111011010001
1111100011111011
1111100010111111
1111111001010110
0000001010111010
0000000101101010
0000000101010010
1111110111110011
0000000010111001
0000000011101001
1111110011010001
1111100011001000
1111001101110100
1111101001000110
1111100101101101
1111101010100110
1111100000111000
1111011110000001
1111010101001000
1111110000100101
1111110001101110
1111111111001101
0000000100010101
0000010001011111
0000000101000101
0000001001101010
1111111110100101
1111111110001011
1111110110101110
1111100111000000
1111011111100010
1111101100110111
1111110110001110
0000000100010101
0000001001100100
0000000001001011
0000000110110111
0000000111100010
1111101101010100
1111000010100110
1110101111100100
1111011000001010
0000001100111001
1111110100011110
1111100001101100
1111001100101000
1110111111101011
1111011111000100
1111111011000010
0000000001011110
0000001011110010
0000001111001010
0000010011110110
0000010101001010
0000000110001101
0000010101100100
0000001100001110
0000011100111011
0000001111110110
1111111011011010
0000000100101111
0000001110010010
0000000011100101
0000001010111001
0000001011011000
0000011000100110
1111110011011010
1111101011111111
1111001000001001
1111111111111110
0000001011010000
1111111001000101
1111010111001010
1111011011011110
1111001001110101
1111011111100001
1111110100011100
0000001010010000
0000001101011011
0000001011010011
0000010111110101
0000000110010110
0000000101100101
1111111101111011
0000011001111001
0000101110000000
0000011110001010
0000001100010011
0000001111010011
0000010101011100
0000011010110110
0000101010100000
0000101101101101
0000111110111100
0000111101101111
0000010010110001
1111011100110101
1111100100010001
1111101110110100
0000001010100110
1111110011011001
1111101010111001
1111011111111001
1111101110000111
1111111010000001
0000010001010111
0000011000001100
0000000100101001
0000001011000100
0000000000101011
1111111101100010
0000000000111101
0000011010010001
0000101110000110
0000101011101001
0000100010101100
0000010100110011
0000011011011001
0000101101000111
0000111000110000
0000101110110100
0000100111011011
1111110010110001
1111000000010001
1111001101111101
1110111110011001
1111101001011110
1111111111000001
1111110001010011
1111100110100001
1111110000001001
0000011000001101
0000010010011000
0000000101110000
0000000100001010
0000000110000100
1111111000001110
1111101110110111
1111111111111000
0000011001100100
0000100101111101
0000111010011000
0000011100001111
0000001110011001
0000100010111100
0000000101111001
0000010011011000
0000000011010001
1111110101101000
1111100101010110
1111011011001011
1110110100001110
1111011001111000
1110111101000001
1111101110110101
1111101101001000
1111111111111011
0000000111001111
0000000011100010
0000100010001010
0000000000000111
0000001100101100
0000001110000100
0000000011101101
1111110001010101
1111111010111010
0000001101100101
0000100010110101
0000110001110110
0000101010101010
0000010101111110
0000001111010110
0000011010111100
0000000101000110
1111111100011110
1111011111000001
1111100010111101
1111100110101101
1111101000110000
1110111100110110
1110111000101000
1111001110000001
1111110101010101
1111101110011101
0000000110000011
1111100110110101
1111101110010111
1111011111100111
1111100111010011
1111111110100001
0000010010010001
0000001101111101
0000000010000110
0000001000110011
0000010111101000
0000011001011100
0000101001100011
0000100000110000
0000001011001011
0000011110111010
0000001100111000
1111111010100101
1111011110101011
1111011001000010
1111011000010010
1111101001000010
1111100110001001
1110111100011101
1110110101110101
1111000100110100
1111101001001000
0000000010111000
0000001011011100
1111011110010000
1111001011000001
1111000100000111
1111000011101000
1111001100111011
1111111100111111
0000010111000000
0000001011100100
0000010001000111
0000100000100010
0000101010011111
0000100001001000
0000010101001110
0000000100011101
0000000101011111
1111101010011000
1111100101011101
1111011011010101
1111011111110101
1111100101001110
1111100101000100
1111100101011011
1110111010111011
1110100100110100
1111010101001001
1111101000001100
0000000001000010
0000000101000011
1111011001100100
1110111101010111
1110100011010100
1111000011111111
1111000111100010
1111100000010011
1111110101101101
0000010000101010
0000000100100011
0000010110000001
0000001110000100
0000001100110000
1111110111110110
1111111000111100
1111100110100010
1111101001110111
1111011111101001
1111011111100111
1111100011110010
1111110101000011
1111110001001001
1111011010001110
1110100011101010
1110101101001010
1111110010111011
0000000000110110
0000000110101000
1111011100100111
1111000010100011
1110110100000010
1110101111001111
1111010100010010
1111010010000100
1111100010011101
1111101101111101
1111101101010011
1111110001110110
1111100111111110
1111110001001100
1111101001110101
1111110100011100
1111101011001100
1111110000111111
1111101010100010
1111100100101000
1111101001110101
1111111011010111
1111110100101011
1111111010010100
1111011000111001
1110011000110011
1110111001000100
1111110011111101
0000010101100001
0000000101001111
1111110000111101
1111000111000111
1110101000010100
1111000100011111
1111101101101011
1111110000111001
0000000001100101
1111110101110001
1111101101010011
1111110010101001
1111101010010110
1111100111000100
1111110010011110
1111110011111011
0000000001001000
1111110010000001
1111101100101100
1111111100010010
1111110110000100
1111101110011111
1111111011101011
0000001100001010
1111011101011010
1110110100111010
1111011100001011
1111111010101111
1111101011010111
0000001001110111
1111111011001010
1111101000101101
1110110110010110
1111001011001111
1111110010011100
0000001100110111
0000001001010110
0000000001100011
1111111111011100
1111111111100001
1111110100100110
1111110100101101
1111111001111010
1111110001110110
1111111110010101
1111101110011101
1111110101010111
1111100011110001
1111100111001001
1111111010101000
1111111111010100
1111111111010011
1111011100011000
1111001001111101
1111011010010001
1111010101001101
1111111011010010
0000001010001001
1111111111101110
1111011001010001
1111101001100101
1111010011011011
0000000000111001
1111111100001111
1111111001111110
1111110101001101
1111101100101111
1111110110110011
1111110001110100
1111111100101001
1111111111001100
0000000010100111
1111111011001000
1111111011001100
0000000011001011
1111111011110011
1111110111111100
1111100010000001
1111100110111001
1111010011100011
1111100010010101
1111100010001101
1111101110011011
1111100111010010
1111111110111101
0000000101011010
1111110111110110
1111011010011011
1111011101001010
1110111110011011
1111100011011010
1111110001000101
1111101111110001
1111111110110101
1111101111101100
1111111001010001
1111111010001010
0000001000011110
0000001011100011
0000001100010110
0000001001011100
0000011000101111
0000010110100101
0000001111011110
1111111000110001
1111110111010011
1111101011010010
1111101001110101
0000001010110100
1111110111011000
1111101110011100
1111101110100000
1111110110111101
0000001000001111
1111111001100010
1111110000100101
1111010100111110
1110110110101011
1111001011101110
1111100001011100
1111101100101011
1111111011001000
1111110110001000
1111111001111001
1111110110101101
1111110001101100
1111101010001001
1111100010001000
1111110111111001
0000001100000000
1111110111100100
0000010011011011
0000100010010010
0000001100111110
0000001010111111
1111111000111101
0000011110100100
1111101001110101
1111101001111110
1111110111011011
0000001000011110
1111110101100001
0000000110010000
0000001001010010
0000001011100101
1111101011010100
1111010111111100
1111100010101011
1111011001110001
1111010100110001
1111010001111101
1111100101010000
1111010011110110
1111011100101111
1111100100110100
1111110100010100
1111100011110001
1111110011100000
0000000011010111
1111111011110001
0000001000010000
0000100000100101
0000001111000101
1111111010001101
0000100101001001
1111110010000100
1111111101100001
1111110100010111
0000000100101001
0000000011111101
0000000111001001
0000001000100110
0000001011101010
0000100001001001
1111111010011011
1111110101100101
1111100101101110
1111100010110000
1111011001110010
1111100111111111
1111010111000011
1111100111110001
1111100101001100
1111110101011101
1111100110100100
1111011010100000
1111101110110111
1111110100101011
1111111100110100
0000001100011100
0000000111101001
1111110000000101
0000100100111111
0000011111111101
1111110100101110
0000001000001011
0000000100000001
0000001000000101
0000000011000010
0000000100011011
1111111101110010
1111101001010000
1111101111100011
1111110001010000
0000000001000111
1111100101000101
1111101011011100
1111011100100011
1111110001101011
1111111010100101
1111001010110000
1111101000011110
1111111011110110
1111101111010101
1111011011110011
1111100111110111
1111011111111101
1111111100101100
1111110110101010
1111111000101111
1111110010100001
1111111111111110
0000000100010011
1111111100101011
0000000001001100
