0000001001001111
1111110111011101
1111111011001101
1111111110011011
0000000100111000
0000000001011100
1111111110000000
0000000001011010
1111111010111000
1111110100111100
0000000110110100
0000001010110000
0000000010111111
0000000000000111
0000010111011010
0000010101100001
1111111111010110
1111110101000011
1111111100100100
0000000011011001
1111111011011000
0000000110011111
1111111110000101
1111111101000101
1111111010101101
1111111010111111
1111111100010000
0000001010101010
0000001010000111
1111111100010101
1111111100100100
0000001000010111
1111111011100010
0000000101111100
1111110110100101
1111101000111011
1111101110101111
1111100000101011
1111101110011001
1111101011010110
1111100101101000
1111101000011111
1111110101111111
0000011000000011
0000110000010111
0000010100001111
1111111010110111
1111110011101000
1111111101000110
1111111000111111
1111110110001000
0000000111101100
0000000101000110
0000000111101110
1111111101111010
1111111000100001
1111111100010110
0000001010001010
0000001111100101
0000000110011000
1111110010100100
0000000100111111
1111101011100111
1111111001011101
1111110111001110
0000000111110010
0000000000101000
1111111010001011
1111111001000111
1111110001010101
1111110010101000
0000000101100011
1111111001011010
1111111000101001
1111110000100110
1111010110001011
1111011010100001
1111100100100000
1111100100110010
0000000011111100
0000010101011111
0000010011011010
0000001000111011
1111111101000001
0000000111010000
1111111001110010
0000001100101000
0000001100101001
0000010001110010
0000100100011000
0000010011011011
0000010011111111
0000010010000111
0000101001011111
0000110000000100
0000010011101000
0000010101001110
0000100010010101
0000000000010101
0000010101101000
0000010100010001
0000000110101110
1111111110110111
1111111110011001
1111111000101100
1111110100001000
1111101010001001
1111111101001101
0000011001111100
0000010011001111
1111110011001110
0000001010010101
0000001000101011
0000000100100000
0000010100010111
0000011111001000
1111101100110011
0000011001011000
0000001100111010
0000000110111011
0000010001010011
0000010010110100
0000010100100011
0000100010110110
0000011111010110
0000011000111010
0000011101010010
0000010010101101
0000101000000011
0000001111011001
0000010010011100
0000001000011011
0000000100101011
1111110011110110
1111011101011110
1111010100000011
1111111010111101
0000000111111101
0000011001111100
1111111010101111
1111111010111010
1111111011101010
0000011110000010
0000010111111011
0000011110000011
0000010010110101
0000000110111001
0000000110001101
0000000001101000
0000000010111000
0000000001110110
1111110101111001
0000001100111101
0000000101111100
0000001100001100
0000010100101110
0000010101110101
0000001100100001
0000001001111000
0000001110001110
0000010110110110
0000001111100010
1111111100111101
1111100000011001
1111101110000111
0000010101000101
0000011111101101
1111101000011001
0000000010001101
0000000110001000
1111111010110110
0000010100101011
0000010011100011
0000000010101010
0000000110100010
0000000111110101
0000001100111001
0000000100011101
0000000001110101
0000000000111001
0000000001000100
1111110110010110
1111111010000101
0000001011000011
1111110111111011
1111111111101001
1111111101101011
0000000010000010
0000000010100110
1111111000111100
1111101101101110
1111110111110100
0000000000110100
0000100000001100
0000001000110100
0000000101110011
1111111111100100
0000001101100100
1111111000100100
0000000001100001
0000100111110000
1111111111101111
1111111110110100
1111110110101100
0000000010000011
1111111111101100
1111111000100010
1111111101001010
1111111110010111
0000000000010001
0000000001010010
1111111101101010
1111111010000011
1111110000010000
1111110101101001
1111111101001111
1111111010111100
0000000111010001
0000001011101010
1111111111001001
0000010011111110
0000010010100000
0000001111001111
0000010101010101
1111110011111000
0000000110001001
1111110001111001
0000010101011100
0000110010010110
1111111101000110
0000001010000101
0000001001010110
1111111000100110
1111111000100100
0000000001010111
1111111000110011
0000000010011010
0000000001100110
1111111011110110
1111111001000111
1111110001100111
1111110101011010
0000000001011101
0000001011100010
1111111011100000
0000000101111000
0000001001010100
0000000001010001
0000001011100011
0000011111100101
0000110100000011
0000101000010110
1111110110110001
1111110011100010
1111101100011101
0000001010100001
0000011100100011
0000001101111011
0000010100111110
1111111101010110
1111111011010100
0000000010100110
1111101111011100
1111110111100001
1111101111000000
1111110110001100
1111110110001101
1111111001010101
0000000010010100
0000000011000111
1111111010000111
1111101111010010
0000001010001010
0000000001011000
0000001101110111
0000001011111011
0000001110001110
0000011001001110
0000101000101001
1111111111000100
1111111111001001
1111110101000011
1111100111110111
0000001110010111
0000011010101000
0000010010011110
0000011010101110
0000001001110010
0000001000011010
1111110000100101
1111110111110101
1111101011110000
1111101000110111
1111100111000110
1111111111111101
1111110011010011
1111111000001101
0000000011101010
0000001001110100
0000000110011000
0000000010011101
0000001100111000
0000001011100100
0000011010010001
0000000001101010
0000010011101000
0000101001110000
0000000001111101
1111111110100110
1111110100101010
1111101110010001
0000001001001011
0000100101000001
0000010000100111
0000000000010010
1111110000010110
1111011110111000
1111100110100000
1111011010101010
1111101100000001
1111101110011111
0000000010000101
0000100101010001
1111111100001101
1111101101000100
1111111001100101
1111110111000101
0000001100101010
1111111111111110
0000000100010011
0000001100001011
0000000111100111
0000010001100011
0000100101110001
0000100010010101
0000010000111110
0000000001110111
0000000110000010
1111110100010101
1111110100100101
1111101111000100
1111100010000001
1111001101000010
1111011010101000
1111010001101101
1111110101001000
1111110110010000
1111110001000010
1111111101101011
0000010101010001
0000110101110000
0000000100100110
1111101110000000
1111110111001110
0000000100001010
0000001100010111
1111111101111110
1111111001000110
1111011010111011
1111101000110001
1111101001000010
0000000100001010
0000011001101000
0000101010010101
0000010001011110
1111111111001010
0000010101111101
1111101110110101
1111001100110100
1110110000010001
1110111110000011
1111001100001110
1111110110001010
1111110101000000
1111110010000001
1111101101011111
0000000000001101
0000011100011110
0000100110100001
0000001001110000
1111111011000101
1111111000101110
1111111011110011
1111111100101001
1111110000111001
1111011000000000
1111000000110100
1111000110101001
1110110100101100
1111101011100111
0000100101000100
0000011010101101
1111110111111010
1111111001011100
1111111101010101
1111101011001010
1111000011110111
1110100111101111
1111001011010000
1111100100000110
1111110000111011
1111110010110100
1111101011011000
1111110011101010
0000000001001100
0000100000000110
0000100100001110
0000001001011100
1111110010010010
1111111110000111
0000000000100101
1111100110110100
1111011010101000
1111000110000110
1111001010111110
1110101110001111
1110110111101000
1111110100101110
0000111011100101
0000010101101101
0000000001001011
1111110000101111
0000001011001110
0000001101010100
1111110110100101
1111011101100101
1111111100101101
1111111000101000
1111110101100000
1111101100010000
1111110011000000
1111110010111010
0000001100110111
0000110111111101
0000101001001101
0000000001111010
1111110001110000
1111100011110101
1111100110111110
1111100101000101
1111010100011101
1111100010111101
1111001000100010
1111000101000010
1111101000110011
0000001111100101
0000101111100100
0000100101000001
1111111101011110
0000000000110110
0000001111101111
0000111101110010
0000001101111101
0000001000010110
0000001110000111
1111101111101010
1111100101100101
1111111011100111
1111110110001100
0000000000011011
0000011000011111
0000111000001111
0000011101111000
1111111100011000
1111111010110000
1111110010001111
1111110010111010
1111101011010010
1111100111001110
1111110110010000
1111110011111010
1111111101100111
0000010010111101
0000110010111111
0001000000111100
0000101011110011
0000000000010111
1111111110100011
0000001000111011
0001001100100001
0000100101101111
0000010110001100
0000001000100000
1111111011001111
1111110100010001
1111111100101011
0000000001001111
0000000111010111
0000001111011110
0000011001111000
0000001111011110
1111101110010011
0000000001001011
1111110011001001
1111110111011011
0000010001111110
0000000010101001
0000001111100101
0000000101010000
0000001101000010
0000000111111110
0000101101110000
0001000000011001
0000110001100001
0000000110111011
1111111110111000
0000000010000011
0000101100111100
0000011011110010
0000011011000010
0000000010111100
0000000001111101
0000000111110100
0000001000111110
0000001101111000
0000000101101100
0000001110110100
0000010110100001
0000000111000100
0000000110100110
0000000001011010
0000000101111101
0000000010001111
0000001100000000
0000010101100110
0000010110010000
0000011011010100
0000100010000000
0000101010111100
0001011010101000
0000110000111110
0000100111101100
0000001110010011
1111101010111011
1111101100101110
0000001100011011
0000001101011001
0000000010100101
0000000000011111
1111111110110000
0000001000101110
0000010101000101
0000011100010001
0000000011110110
1111111111010011
0000001110100101
0000000010001110
0000001000000011
0000010100000110
0000011101010001
0000100100110001
0000001111111010
0000001110110100
0000011010010001
0000011010101010
0000110001011000
0000101010011111
0001100001101011
0001000100011111
0000100111001110
1111110110111000
1111111101010010
1111111001101011
0000011100111011
0000010101011110
0000000011111001
0000010110001111
0000011010011001
0000010110110110
0000010101110010
0000001010111001
0000001000100100
1111110001110110
1111111001100010
0000000100001011
1111111111011111
0000000111101000
0000001111011011
0000011010011001
0000011101101001
0000101000111100
0000100110000001
0000011110011110
0000100111000000
0000110000001001
0000100111000101
0000101000001110
0000000110010011
0000001010110110
0000010111000010
0000100011001110
0000101000100111
0000011010001100
0000000000100110
0000010010011001
0000010101001101
0000000010010001
0000000101000001
0000000101101010
1111111111110010
1111111111011101
0000000001010000
0000000010011000
0000001101011110
0000001001111101
0000001100111110
0000011001010001
0000011100110111
0000001110111000
0000000111001011
0000011010011010
0000100110000110
0000101100001001
0000011101011111
0000010011001101
1111111000001011
0000010001100001
0000000111100011
0000101010110101
0000110000011001
0000110001000000
0000101010000010
0000100001110001
0000011100101001
0000001000001010
0000001100101110
0000001011101100
0000000010100110
0000000110110100
0000000111101111
0000010011111011
0000000101011011
1111111001110011
0000001111011100
0000001000001111
0000001101011111
0000010001011010
0000011011000110
0000000001101001
0000010111101001
0000100101111100
0000000101011010
1111101111011110
1111110011110010
1111111101110001
1111111000010111
0000101001010011
0000101110110111
0000011100111010
0000001101110111
0000000010110010
0000001001000000
0000001110100001
0000000011111100
1111111010000101
0000000000000010
0000001100110111
0000001111101011
0000000101100100
0000010000110110
0000010101100111
0000000100011011
0000010001010111
0000001100001101
0000010000101101
0000010000010100
0000010101011111
0000001100111100
0000000001100110
1111111111001010
0000001011000000
1111110101111110
1111111111011100
0000000010010001
0000010010010110
1111101110010101
1111010100100111
1111011011001010
1111110100111101
1111101010010111
0000000111001101
0000010001000000
0000000010001010
0000010010111110
0000011101111010
0000010011001110
0000011010000010
0000010001111010
0000001101000000
0000010001100010
0000000110010000
0000010011101111
1111111000010000
1111111011010110
1111110101011101
1111110101010010
0000100101000100
0000010101101111
0000001101111111
0000000001011111
0000000101011000
1111110101001101
0000010011010010
1111010010101000
1111001001010010
1110111111000110
1111010110010011
1111100001001101
1111100010001011
0000000011110011
0000001100110011
0000000111100100
0000010100100000
0000000001111001
0000001101011101
0000001101001001
0000010000011001
0000001111101010
0000000011001010
0000000010001100
1111110101100000
1111101001101011
1111001100111101
1111011111000001
1111100001110111
1111111011111010
0000010100001000
1111111111001010
0000000010000000
0000001010001101
1111110110001011
1111111011010011
1111110010011100
1111011010001010
1111011100101010
1111110010111011
0000000101010110
1111110100110110
1111111011011001
1111110000100100
1111100110001100
1111100111011110
1111100101101000
1111011100001010
1111110111001011
0000001100111101
0000001101101001
1111110111111010
1111100110110001
1111100100100111
1111010111101100
1111111111000001
0000000110111001
1111110101001011
0000000011000011
0000000100110011
0000000101010010
0000000010010111
1111111110000011
0000000100101101
1111111011011111
0000000011101111
1111110111010011
0000000111000001
0000001011110111
1111110111101011
1111111000011101
1111111100101110
1111101000110110
0000000000101010
0000001001110110
0000000001110101
1111100111010101
1111101110011010
1111111100000101
1111111001100000
0000010000101100
1111110011110110
1111110101010100
1111111000011110
0000000011111010
1111111100000111
0000000011111110
0000000010101010
