0000000111110100
0000000110001101
0000000011101101
1111111110000111
0000001001001011
1111111100010111
0000000001001110
0000000111001010
1111111001011110
0000001010000101
1111110110010011
0000000110111101
0000010100100011
0000010000101110
0000000110101001
0000011010000110
1111110110000101
1111110110000010
1111111110010111
0000000110100000
1111110111100010
0000001000101010
0000000101110011
0000000000001010
1111111010100010
0000000111000101
1111110111000001
1111111011011111
1111110111101010
1111111111011111
1111111000100101
1111111101001010
1111111110110000
1111111000101011
1111111111111001
0000000001101010
1111111111111011
1111111101111000
1111110010100101
0000001001010010
0000000101110101
0000010000000011
0000000000010011
0000010110010010
0000101100011000
0000010111111010
0000000010110111
0000001001100011
0000000011000000
0000000100000111
1111111001011100
0000000010010100
1111110110111011
0000000100000100
0000000000001011
0000000101101110
0000001001111101
0000000011010110
1111111111101110
0000001010110111
0000001110001111
1111110100011111
1111111001100000
1111111001101000
1111101101000001
1111110101011100
1111101111101000
1111110100101101
0000001011010000
0000000000001101
0000001000111000
0000001110101110
1111111100000100
0000000110000000
0000000111010011
1111101110000110
1111111001101000
0000010000110111
0000010101111100
0000010100101110
0000000110110110
0000000001101101
0000000100001101
1111111000111000
1111111001011011
0000001010000101
0000001001011001
0000010000111110
1111100111100110
1111111101010010
1111110010111110
1111110101010001
0000001010000010
1111110110101001
0000001001011001
0000001111000100
0000101000011110
0000010001111000
0000101100001101
0000010011010100
0000011011001101
0000101001110011
0000011001110010
0000001111001100
0000100100101011
0000001000111000
0000001010011111
1111110001111100
0000001000000000
0000000110101110
1111111000011001
0000001001011010
0000000010001001
0000000110001101
0000010000111010
0000101001101110
1111110011101010
1111110011011010
0000000011101111
0000001110100001
0000101011101011
0000100110111000
0000100011101000
0000110010110101
0000101001011111
0000101000101111
0000010011101100
0000010111100001
0000001001000110
0000001111011111
0000010101010010
0000001010011010
0000010110010101
0000001000111010
0000000000011100
1111011111000000
1111010011101100
1111101000000000
0000001001011000
1111111010001110
1111111001111010
0000000101110010
1111111101111111
0000001110101011
0000001011101010
0000010100010001
0000010111010011
0000010111001110
0000010111100110
0000001111000011
0000001111001101
0000011110010000
0000001010110001
0000100010010100
0000010110111011
0000011010101111
0000011001000011
0000001001110111
0000000000001000
1111111011000110
1111110000010000
1111011100010001
1111101000001100
1111001111101101
1111001101010000
1111100110011111
1111110111010011
1111111110000101
1111110101000111
0000011101111001
0000011111111011
0001001000011100
0000001000110110
0000101101110111
0000100010001000
0000010011100111
0000011001110111
0000001110101010
0000010000000010
0000010100000001
0000011010110000
0000100111101101
0000010100101011
0000100001100001
0000011111010011
0000001110111000
0000010000101010
1111111110000110
1111111000110111
0000000000100101
1111111010111100
1111011110001000
1110101111001110
1111001001100010
1111101000101101
1111111111100000
1111111001010110
0000110010000010
0000101111011010
0001010001110001
0000110100001110
0000100101000010
0000101010100001
0000010111110100
0000010110011111
0000011100000000
0000011001111111
0000010000000000
0000010100111100
0000001110101011
0000011001001110
0000001010011100
0000001011001100
0000011011011010
0000000110011011
0000001000000101
0000001111010000
1111111101111001
0000010001010000
1111100101100110
1110011111111000
1110100010011000
1111010100000000
1111111000110110
0000011011111101
0000011101000011
0000010001100000
0001000110001000
0000110111011001
0000011101101011
0000101001010010
0000011011111000
0000000010101111
0000001101110100
0000001100010000
0000000011011100
0000100100001101
0000011000010000
0000010100110000
0000011100001010
0000011100100010
0000010111101000
0000011111100111
0000001010100111
0000010111111011
0000000101110111
0000011001010101
1111111101111010
1110110010011001
1110100110011001
1111010010100000
1111101110110101
0000010101000101
0000010111000010
0000010111010111
0001001101011011
0000110110100110
0000010111010000
0000010001001101
0000000010101010
0000000000111001
1111111110100001
0000000001010000
1111101111000000
0000000101100001
0000010000110011
0000011101010101
0000100101001010
0000110011000001
0000101101100100
0000011111011000
0000011111101000
0000100000101100
0000001110011111
0000011000011111
0000000110010010
1110111001011001
1110100101100101
1111100000101110
1111101001100110
0000001001100011
0000011111110111
0000100011111001
0000111000110110
0000100000110000
0000001000100100
1111110101011010
1111110010110101
1111011111001101
1111101101010100
1111101110101010
1111100001100000
1111100101111100
0000000101001110
0000010000110110
1111111110010001
0000100010111111
0000110001001000
0000101110100110
0000100011101010
0000100111101010
0000100110001101
0000111001001001
0000011111001111
1111100110010110
1111001001010111
1111001110011011
1111110011011100
0000100001000010
0000100001100011
0000100100100101
0000100110000110
1111111010101010
1111100010101010
1111101110110110
1111101000100001
1111101111110011
1111100001111011
1111101011111101
1111101101001010
1111100100111100
1111111111010011
1111110000111011
1111101001000011
1111110101101110
0000000110110111
0000001101110011
0000011011101111
0000100100010000
0000010100110100
0000011110101010
0000001101001001
1111110111111000
1111010110011111
1111001000101101
1111101101101111
0000011111100100
0000001100000101
0000000111010010
1111111100000011
1111010000100110
1111001001110000
1111001010111011
1111011000110111
1111110001000000
1111101000110001
1111110011111110
1111100101001001
1111110001110111
1111101111100100
1111100001001110
1111100110100110
1111110000100000
0000000011111001
1111110010011100
1111111001101100
0000001011110011
0000001100111101
1111111011111011
0000000010100011
0000001011011111
0000001010101101
1111101100110000
0000000001000100
1111111010001000
0000000100001010
0000001110011010
1111101010000011
1111001001011111
1111001010111100
1111100110010010
1111110001101010
1111110101011001
1111110100101010
1111110100001011
1111101110111001
1111110101001110
1111110100111111
1111110000010000
1111100111001001
1111111011010100
0000000110101111
1111111010100100
1111110101110100
1111111110010100
1111111100001111
1111111010101000
1111110011000111
0000001110011110
1111111110110111
0000000101101001
0000010011011111
1111110100000100
1111111000111001
0000010101001110
1111100010011110
1111110010011000
0000000000001110
1111110010011111
1111111101100011
1111100110000100
1111110001011001
1111110110010011
1111110001111001
1111101101010000
1111111010010110
1111100110111111
1111110000111101
1111110011001111
0000000101101010
0000001001101101
0000001001011001
0000000101011110
0000000100110011
1111111000000101
1111111100001011
1111110111101011
1111110101111111
0000011100001011
0000010000010000
0000000101001111
0000000111101100
0000010111011111
1111100100100001
0000010010100111
0000010011110110
1111110011000111
1111110000111001
1111111000011111
1111110100100110
1111110110101001
1111101011110111
1111101100011111
1111111001011010
1111100111001010
1111111100111111
1111110110111011
0000000110011000
0000000101001011
0000001010101010
0000000100010001
0000001100010010
0000000000010010
1111111110010101
0000000001010011
0000001101110101
0000001101011000
0000010000111110
0000010101111011
0000100011011001
0000101110100001
0000001011111001
0000100101111111
0000001010111011
1111111001111001
1111111010101110
1111111100111101
1111111100000100
1111111011110101
1111111100110010
1111110011000110
1111100000111110
1111100111011001
1111101010000110
1111111010000010
0000000100000010
0000000111010010
1111110110100111
1111111101000011
0000000001100101
0000001001100111
0000000111100010
1111111101111010
0000000011100000
0000000101111001
0000010110110011
1111111010011101
0000011111000001
0000000101111111
0000001010010001
0000010101010010
0000010010000001
1111111101100111
1111110001011100
1111110111101100
0000000010111000
1111101100111100
1111110000011111
1111101100111001
1111100000001011
1111100010000011
1111101001000010
0000000000110111
0000000100001000
1111110010001011
0000000101001000
1111101011000110
0000000010010000
0000000110110011
1111111011111101
0000000101001001
0000010111100111
1111111001000110
0000011000001010
0000010010000010
0000001110011001
0000000010011110
1111101100001001
0000000010000000
0000010000101101
1111111011110101
0000000001110110
1111111000111001
1111110010000011
1111111011101011
1111110010011100
1111101010111011
1111100001001101
1111100001110000
1111111111011010
1111111001010011
0000000010110010
0000000100000111
0000000010110111
1111111001111010
1111111101010011
1111111111100111
1111111101011001
0000001100010011
0000101001101111
0000011010001011
0000001010000011
1111101000111011
0000100001001111
0000000100100011
1111111011011000
0000001000010010
0000001001000100
0000001101101001
0000001111110111
0000001000000100
0000000111111000
0000000010011101
1111111101010111
0000000111011011
1111110010100001
1111111010001011
1111110101111111
1111110010111000
0000000101010011
0000000001000111
1111111001011110
1111111101001010
0000000000111000
0000000001110011
1111110101000001
1111111110101011
1111111100001001
0000001001110000
1111111101100101
1111110111000110
0000100001111001
0000001000100100
0000010011101011
0000011100110101
0000100001101000
0000001100110001
0000000101101000
0000010011000110
1111111101100001
0000001100100100
1111111001011011
0000000010000000
0000000001110100
1111111110110111
0000000100010001
1111101111001111
1111111100010111
1111101010101001
1111111010111110
1111111001010101
0000000011000101
1111100111001111
1111110001111111
0000000001110111
0000001001000011
1111111110000010
1111110011110010
1111101011001001
0000011010001010
0000110011000111
0000011001110001
0000001001011101
0000001100001101
0000001001010011
1111110110101011
1111101110100011
1111111111110000
1111111001111011
1111110011111010
1111111111111110
1111111010110000
1111110111110001
1111110110111110
1111111001110001
1111110000110101
1111110001010011
1111111000000011
1111110000001011
1111011010010110
1111110110100000
1111110101101000
1111111101001111
0000001110010000
0000011001011011
0000000111101101
1111101101001111
1111111111111111
0000110100110001
0000011111011000
1111110000101111
1111111101001001
0000000110001000
0000011000001101
0000000011010100
0000001011001000
1111111011010110
0000000111000010
0000000110110011
0000000100011001
0000010000001100
0000000110010000
1111111101110011
1111110011100110
1111110110001110
1111111100001111
1111101110100011
1111100100001111
1111110001110110
0000000111100011
0000001000101011
1111111011000001
0000000100110011
0000011010011101
1111111111010101
1111111010010011
0001000011100101
0000100111111011
0000001000011011
1111110110110001
0000010010001000
0000010101001110
0000000000010111
0000000110101011
0000010011110001
0000011001010111
0000010110000010
0000011011100110
0000000110111001
0000001000100010
1111111110111001
0000000010010010
1111111111100111
1111100111111101
1111001111001001
1111010110101001
1111101110010111
0000000011100001
0000010110001100
1111110011011011
1111110111010011
0000000101000110
0000000011110110
0000000100001100
0000100111111000
0000110000100101
0001010000100100
0000010111000110
0000011001101100
0000010100001010
0000010010011110
0000000101111001
0000001100001110
0000001000011010
0000001111100101
0000010110100101
0000010000111001
0000010110110111
0000100000011110
0000010101000001
0000000111001111
1111100010011001
1111011000101101
1111010011100000
1111010110011000
1111101001011101
1111101101110101
1111110000110000
1111111111001100
1111110100111100
0000000110111101
0000000001101110
0000000000001110
1111110101111100
0000001111100100
0000011110011100
0000101001011000
0000101101101100
0000101011011001
0000100110011011
0000011101101111
0000100100101100
0000100000011011
0000001111001101
0000010110011101
0000011010000100
0000010011010100
0000011101000110
0000001111101100
0000001011011011
1111101001001001
1111011010101110
1111001101011001
1111100111110000
0000001111000110
1111111000001010
1111111101110011
1111111100000101
0000000100000001
1111111010001100
1111111011110001
1111111001011000
1111100101101101
1111111011101001
0000000101010100
0000100000011001
0000111010001000
0000010000111110
0000011110010001
0000001010101000
0000010100110101
0000101101001110
0000100110110011
0000011111110100
0000111110001010
0000110000110001
0000111001000011
0000110111110010
0000001110110110
1111111101110000
1111111101011111
1111111011110111
1111101011111101
0000001000011100
0000000011010110
1111110101110010
0000000000111010
1111111101100000
0000000111101111
0000000001111001
0000010100100100
0000001010011111
0000000101111111
0000011001110101
0000011010111110
0000011001001101
0000011101110010
0000010110101101
0000011100000011
0001000011010101
0001000010010111
0000110001111100
0001000000100010
0001010100110010
0001000100110010
0000100010101101
0000010101111000
0000000000111010
1111111110101010
1111111111001000
1111111010000101
1111111010110111
1111111000011110
0000000010110011
