0000000001011100
0000000011100100
0000000011101011
1111111111100011
1111110110011100
0000001010000001
1111111011010010
1111111000101010
1111111010011101
0000001001101101
1111111100110101
0000000010011101
0000001001010001
0000011100110001
0000000111101010
0000000101110110
1111111000010011
0000000000111010
0000000011101100
0000000100011111
1111111011111111
0000000110101011
0000000001111101
0000000100011110
1111110101101110
0000001001101100
0000000000100110
1111111110011000
0000000000010011
1111111011000001
0000000101001101
1111111000111011
0000001101000001
0000001001000111
0000100010111000
0000010100111110
0000100110000111
0000011110101110
0000011000110011
0000100001110100
0000101000110011
0000001011100001
0000000000000110
0000100110111001
0000111111111101
0001000001101110
0000110010100110
0000110111010001
0000100010101010
0000101001110110
0000101000000101
0000011100110100
1111111001100101
0000000110111000
0000000101100001
1111111011001010
1111111111000110
0000001000101010
0000010101111110
0000011001110111
0000001111001100
0000100100110011
0001000100011100
0001010101100011
0001100110001001
0001111001001011
0001100011000011
0010000000101111
0001100011111000
0001000110011110
0001000110001010
0001011001011101
0001000000110011
0001000010100101
0000110111110110
0000111111010001
0001000110100110
0000111100000101
0000100111101111
0000111111110101
0000101011110110
0000010111110010
1111111001101100
0000000101100100
1111111110010110
0000000110110110
0000001010100011
0000010101001110
0000000110000011
0000011100010100
0000111000110111
0000011101101001
0000010110011010
0000101001010110
0000010110001101
0000010101001011
0000010010001110
0000010001010111
0000001010001100
0000001100100001
0000011011101010
0000010100010000
0000100000000101
0000101001110110
0000100101100001
0000100101010110
0000001000001100
1111110100100000
1111111100001011
0000011000101001
0000001000100011
0000000111001011
0000000001100000
1111111001111110
1111101001011001
0000010001111011
1111110110110011
0000001110100011
0000000100000101
1111110010000010
1111101110000010
1111111101111001
0000000010101100
1111111110100010
1111111101010011
0000000111100100
0000001110001000
1111110010000101
0000001001001000
0000000101001100
1111110111010101
1111111111001100
0000000011110000
1111110101100101
1111011100001101
1111010100100110
1111001101111010
1111100010001001
0000010100000011
0000001110110001
0000000010011000
1111111100110001
0000100010001101
1111111001011011
0000011010000101
0000000010111011
1111111001100101
1111111011100011
0000001010011110
1111111011101001
0000001100010010
0000000110000011
0000001100011001
0000000011100010
0000000011000111
0000000000101001
0000000111010011
0000000100110001
1111110101110010
1111101110001001
1111110101001000
1111111110001001
1111110110000000
1111100101100110
1111100001001000
1111101110011001
0000010011111010
0000011011110011
1111110101100000
0000001100101100
0000000011101010
0000001010111101
0000010110110011
0000000110101000
1111111011111101
0000010010011101
1111110101101011
1111111110110101
0000001101011101
1111111111110000
0000001001011001
1111110111111101
0000000010111000
0000000001100100
1111111100101010
1111101100000100
1111110000100001
1111101011110100
1111100111010101
1111101111001000
1111110101000111
1111010100101100
1111010110000101
1111011100010101
1111111011001000
0000001010001011
1111111101111000
0000010010111011
0000100101010000
0000010110011001
0000010100101111
0000000100010011
0000000000010101
0000001001000100
1111111111011100
1111111110011100
0000001001011100
1111111111001111
1111111100101000
1111111010000101
1111111011110100
1111101101100010
1111101001101001
0000001000100111
1111110101010011
1111111110110111
1111111101110001
0000000001000010
1111111011110100
1111010011101000
1110110110011111
1111001010101100
0000010011000111
0000010011100011
0000000100110000
0000100100001111
0000111101100000
0000000110000100
0000011011100011
0000000110101110
1111110111010110
0000000110111000
0000000111110010
0000000010100010
0000001110011100
0000000100111001
0000000101110110
0000000011011000
0000001110001011
1111111111010000
1111110111101111
1111111101101001
1111110001111100
1111110111110111
1111111001001001
1111110110000101
1111110111010100
1111001101011001
1110001110110100
1110110011111000
1111110011010000
0000000001110011
0000010000010011
0000101001100001
0000101100110110
0000011111111011
0000011011010101
0000100000011011
1111111101010001
0000010011101101
0000010101001101
0000001101100001
0000000000011111
1111111110011001
1111111011000100
1111111100110000
0000010101010101
0000000000100010
1111110101000111
1111110111111101
1111110100111110
1111101100110111
1111101101101001
1111101000011001
1111101111111100
1111100000000111
1110110111000000
1111100100001111
1111101011100001
0000000011111000
0000001000100000
0000110000010001
0000100100011111
0000010001111010
0000001000111011
0000011110011000
0000000110101100
0000010010110010
0000010100011100
0000001010000001
0000000011011010
1111111111001001
1111110110011001
1111101111001101
1111111110001000
1111111100010011
1111111010000110
1111111110101100
1111110100110011
1111101110100100
1111101111111011
1111110101100100
1111110011010111
1111101011000011
1111101001111011
1111001110000010
1111011101011001
1111110010111111
0000010111100001
0000011011101110
0000101011010000
1111111011001100
0000000101101010
0000000011010001
1111111110010101
1111111001010101
1111111001010111
1111101110110111
1111011101110000
1111010001010100
1111000011101110
1111000001001100
1111011001001011
1111101000100000
1111110111001001
1111101110001110
1111110111011011
0000000000100010
1111110111010011
1111111010001110
1111110001101101
0000000100000100
0000000001111000
1111101111010011
1111000100100010
0000000000010010
0000010111000111
0000010101001111
0000011001010101
1111101101111100
1111101111000111
1111001000001000
1110111011000100
1110101100100110
1110110011100110
1110100010110110
1110100100011111
1110101110010000
1110110111110100
1110111101010010
1111100001000000
1111100100010111
1111110000101011
1111110110101101
1111111000010000
1111101100100100
1111110100111001
1111111110111001
0000000010011111
0000000010000001
0000010001011010
0000011011000001
1111110110111010
0000100010011001
0000000010101000
0000011100111010
0000100001011001
1111100000110001
1110110000010000
1110010111011011
1110011010000110
1110001011101001
1110110000101111
1111000010101001
1111011101111000
1111100010000011
1111110001111001
0000000010111100
0000010101010010
0000000101101010
1111110100011111
1111111100100101
0000000011001111
0000001010001110
0000000100111101
0000001110101010
0000000110110111
0000011100100011
0000100010000101
0000100100101110
0000100100111111
0000010011110111
0000001001011001
1111110011000000
1111111111101100
1111010001100111
1110101011001010
1110110000000110
1111000110011010
1111011000110010
1111100110101101
1111111101011010
0000000100000010
0000010100100100
0000010101011010
0000100000101011
0000011100100101
1111111001101110
1111111111011011
1111111011110101
0000000001011100
0000000010001111
0000000001001011
0000000111110100
0000010100110111
0000001100111101
0000001100110011
0000010011110100
0001010010110100
0000011011001000
0000001000111000
1111110100001100
0000001111110111
1111101001101101
1110111000111111
1111100100001011
0000001011110111
0000001000110101
0000000010110100
0000001010111010
0000000100111011
0000001010101011
0000001100000111
0000011110000100
0000011110110011
0000000001110111
1111111111111110
1111111110101010
1111111111010111
0000000011111101
0000000010000100
0000011001100011
0000010010101010
0000000111001101
0000011100001001
0000110011100011
0000110100101101
0000101001010011
0000001010100001
1111101111101000
1111111110100111
1111100001110010
1111011110100100
0000010110010100
0000011000011011
0000001111110110
1111111010110111
0000000000101011
0000010100110001
0000010100001000
0000001111101110
0000011111100011
0000101010111111
1111111111110011
0000000110001110
0000001001111000
1111111001000000
0000000011001110
1111111100001101
0000001110010001
0000001000010100
0000001001110001
0000011010010011
0001010011011100
0000111111110111
0000100110001010
0000000001111000
0000001101000010
1111110011100101
0000000111011110
0000010010100111
0000010001000110
0000001001111111
0000000010001001
1111111001100010
0000001010111100
0000001011111010
0000001001011001
0000001011001000
0000100010111010
0000100000111000
0000001000000010
1111111110011001
1111111101100000
1111111000001000
0000000111110100
0000001001011101
0000001000001100
0000000010110110
0000000001101010
0000011000100110
0001100000111000
0001000101001111
0000100010111110
0000000011011001
0000000011110000
1111100110101111
0000010010010110
0000010010010110
0000001101111110
1111110110011000
0000000001111000
0000001000101010
1111111011010000
0000010010011001
0000000100110011
0000100011010001
0000011010100111
0000010010011100
0000010001101111
0000001110001001
0000000111010010
0000010100101010
0000000001010010
1111110001001000
1111110010110011
0000001011010001
0000001100101011
0000011011010011
0001101010001100
0000110101100001
0000100000101101
0000010000100111
1111110001100000
1111010110110110
1111111001111000
0000000010100101
1111111010110001
0000000110000111
0000010001111111
0000000101000011
0000010001111011
0000001110010110
0000011001011100
0000100001101110
0000010111011011
0000010100010010
0000010001001100
0000000010100011
0000001111101110
0000000001101110
1111110010010110
1111111101011111
0000000000100001
0000000000101111
0000000001001100
0000010110001010
0001001100001100
0001001000001101
0000100100001110
0000001000001100
1111100110001000
1111100011100100
0000001000000011
0000001011110011
0000000010010110
0000000000000110
0000010111010000
0000001110101111
0000010010010001
0000100111101111
0000100000010010
0000010011110111
0000010011110110
0000010101100000
0000001100110001
0000000111110000
1111110101100111
0000000101001110
1111110111100011
1111111111111101
0000000110100000
0000000111011010
0000001000111001
0000011111000011
0000100110000001
0000110100111001
0000010010011000
0000001101110101
0000010001100000
1111111100101000
0000001110111101
0000000100010101
0000000101111001
1111111111000010
0000000111001100
0000000101111000
1111111100101110
0000001111010010
0000001100100111
0000001100011100
0000010000110111
0000001100010101
0000001000001000
1111111000101001
0000001000101101
1111111010011101
0000000011101001
0000000110011011
1111111111000101
0000000010011001
0000011101000000
0000010111100011
0000100100100100
0000100001101111
1111111000111101
0000010110111010
0000001110000000
0000001000111001
1111111110000001
0000010010100111
0000101010001111
0000000100011000
0000001001110110
0000001011100000
0000001100000001
1111111001010101
1111101110110010
1111110000101111
1111110001110111
1111110101001110
0000000010001010
1111111011101111
1111110111000110
0000001000100010
0000001001111000
0000000010101010
0000000000111000
1111111111100010
1111110111110110
1111110010100100
0000000011011110
1111110110011111
1111111110100000
0000001000000010
1111111000101000
1111111010110011
1111010111011110
1111101111000011
0000001110111001
0000100010101100
0000001010110000
1111111111001100
1111111000001110
1111110100100110
1111110000100011
1111110001000101
1111111001001010
1111111011101111
1111111101100011
0000000101110101
1111111100011101
0000001100111100
0000001101001001
0000010100010001
0000010001010110
0000010011101110
1111111100111110
1111101100010100
1111101100011010
1111111111010001
1111110111110001
1111111011000010
1111110110101011
1111111110011101
1111001111011010
1111110100001101
0000000100111000
0000000100001111
1111110100100010
1111101111101110
0000000010110111
1111110111011110
1111111111011000
0000001011111100
1111111011000010
1111111111010001
0000000010111000
1111111100110000
0000000100000110
1111110110101001
0000001000100011
1111101101101101
1111110010010100
1111111001111110
1111100011010100
0000010100101101
0000100111010011
0000010101100011
0000001010100110
1111111011111011
1111110101001010
1111110011011101
0000001001010010
0000000001101010
1111101001000001
0000000100001011
0000010011110100
0000001001000111
0000000111011101
0000010010000100
0000010010110011
0000100000100011
0000001010001110
0000000010100101
0000001110010000
0000000111011100
1111111110110110
1111100101101000
1111011100110011
1111101011011101
1111010010100010
1111011001001101
1111010001001000
1111101100011111
1111111100000010
0000011011101101
0000001000111111
0000000100011000
1111111101111000
0000000000000001
1111101011111001
1111011111111011
1111101100101001
1111110011100100
0000011100001010
0000100101001111
0000010011010011
0000011100000101
0000001001100011
0000011101001010
0000000110111100
0000010110101000
0000100100001011
0000001111010111
0000010000100110
0000001000000001
0000000001110010
1111110100110101
1111010111110101
1111100011011000
1111111010000001
1111111011110110
0000000101100000
0000000010111110
0000001001101011
1111111011010100
0000000000111100
0000000011011010
1111110111000011
0000010100000011
0000010000101000
0000110000110100
0000110101001000
0000101001010011
0000110001000100
0000110111111100
0000110111110101
0000110101011010
0001010010000001
0000100010011011
0000101101100111
0001010001111110
0001000010000100
0000100101110010
0000100101010010
0000001111101100
1111110000100000
1111110000111110
0000001010001010
1111111011000101
1111110101010011
0000000101100110
1111110111011101
